#version: 0.2
á »
á º
n g
Ġ t
Ġ c
Ġ Ä
n h
ĠÄ ĳ
Ã ł
Æ °
Ġt h
Ġ v
Ã ¡
Ġ l
Ġ h
Ġc h
i á»
Ġ m
Ġ k
Ġ b
Ġ nh
Ġt r
Æ° á»
Ġ s
áº ¡
Ã ´
áº ¿
Ġ n
Ġk h
Ã ª
Ġ g
Ġ d
áº £
Ã ³
á» Ļ
Ġ ng
áº ¥
Ġ p
Ġp h
iá» ĩ
á» ĳ
Ã ¢
Ã¡ c
Ã´ ng
Ãª n
Ġ T
Ã ¬
ĠÄĳ á»
Ġv Ãł
Ġv á»
Æ ¡
á» §
áº Ń
Ġl Ãł
Ġg i
áº §
q u
Ġ qu
Ġth á»
Ã Ń
Ġ r
i áº¿
Æ°á» Ŀ
Ľ i
Æ°á» £
áº¥ t
Ġt á»
Ġ x
Ġc Ã³
Ġc á»§
Ġcá»§ a
áº¡ i
u y
Ġ N
Ä ĥ
Ġh á»
Ġ C
Ġc Ã¡c
Ã º
o ng
Ã £
a n
Ã¬ nh
á» ¯
á» ĭ
áº ¯
Æ°á»£ c
â Ģ
iá» ģ
á» ±
Ã¢ n
á»Ļ t
Ġ H
ĠÄĳ Æ°á»£c
c h
á» ¥
á» ©
Ġch o
Ġkh Ã´ng
Ã ²
Ãł y
iá»ĩ n
a y
á» Ł
Ġm á»Ļt
Ġtr ong
i nh
áº ·
Ã ¹
Ġvá» Ľi
i Ãªn
áº¡ n
Ġ B
Æ°á»Ŀ i
áº§ n
ĠÄ Ĳ
Ġ V
Æ°á» Ľ
iá»ģ u
a o
a nh
Æ° Æ¡
Ġng h
á»¯ ng
a ng
iá» ĥ
Æ°á»Ŀ ng
Ãł nh
áº£ i
Ġng Æ°á»Ŀi
á» į
Ġnh á»¯ng
ĠT h
Ãł ng
Ġnh Æ°
Ġ 1
áº£ n
Ġ M
á» ĩ
Æ°Æ¡ ng
a i
a m
Ãł n
áº§ u
Ã¢ y
Ã´ i
Æ°á»Ľ c
Ãł i
ĠÄĳ á»Ļ
i n
Ġh o
áº¿ n
ĠÄĳá» ĥ
u ng
Ġ L
Ġ 2
ĠÄĳ Ã£
Å ©
Ġthá» ĥ
Ġ S
o n
á» ĵ
iáº¿ t
áºŃ n
Ā Ā
á» Ń
á» ķ
u á»ĳ
ÃŃ nh
Ġb áº¡n
Ġ P
áºŃ t
Ã ½
Ŀ i
áº ½
Äĥ ng
áº¿ t
a u
Ã¹ ng
áº ©
Æ¡ n
Ġc Ã´ng
Ġ âĢ
Ġn Ãły
Ġhá» į
Ã¡ n
Ġ K
. .
ĠÄĳ áº¿n
Ġtá» «
á» ī
ĠC h
Ġs á»ĳ
ĠT r
iá»ĩ t
Ġkh i
Ã ©
Ġl á»
Ġ (
á»Ļ i
Ġm á»
Ã¡ t
Å© ng
á»ĳ i
á»© c
Ġs áº½
ĠÄĳ Ã³
Ġr a
Äĥ m
Ġg iá»
ĠlÃł m
i Ãª
Ġvá» ģ
Ġkh Ã¡c
iáº¿ n
áº ±
Ġc áº£
Ġd á»¥
Ã¡ i
Ġnh iá»ģu
Ġm Ãł
áº¥ y
Ġth u
Ġ á»Ł
Ġc Å©ng
e o
áºŃ p
Ã¡ ng
Ġ D
iá»ĩ u
Ġt áº¡i
Ġ G
Ã¡ o
ĠN g
ĠvÃł o
ĠÄĳá» ĭ
iá»ĩ c
Ġh Ãłng
Ġl áº¡i
Ġtr Ãªn
Äĥ n
Ãº ng
0 0
á» ģ
Ã² ng
e m
ĠP h
Ġs á»±
áº «
Ġnh Ãł
ÃŃ ch
áº¥ p
Ġh iá»ĩn
Ġ A
Ġdá»¥ ng
Ã¢ m
Ġch á»ī
Ġv iá»ĩc
Ãł o
áº· c
Ä ©
áº£ o
ĠN h
ĠÄĳ áº§u
Ġb á»ĭ
Æ°á»£ ng
Ġth Ã¬
Ġnh áº¥t
Ġph áº£i
Ġn Ã³
Ġ Q
Ġth Ãłnh
Ã² n
áº ¹
ĠÄĳá»Ļ ng
áº »
± c
áº¯ c
áº± ng
ĠÄĳá» ĵ
Ġn Äĥm
áº· t
Ã¡ p
Ġhá»į c
e r
áº¡ o
uy Ãªn
Ġd o
Ġ -
e n
âĢ Ŀ
Ã¢ u
Ġn Æ°á»Ľc
Ġt Ã´i
0 1
á» ı
Ã¡ nh
á»± c
Ã´ n
£ p
Ġqu y
ĥ n
Ġng Ãły
Ġgi Ã¡
Ġl o
á»Ļ c
Ġhá» £p
Ì ģ
ĀĀ ĀĀ
Ġt o
Ãº c
áº¡ t
Ġ y
Ġh Æ¡n
áº© m
iá»ĥ m
Ġch ÃŃnh
Ġs áº£n
Ġt iáº¿
ĠâĢ ľ
á»ģ n
Ġ 3
Ġqu an
Æ¡ i
ĠÄĳ i
ĠÄĳá»ĭ nh
áº¥ n
Ġn Ãªn
Ġm Ã¬nh
Ġnh Ã¢n
áº« n
Ġc ao
uy á»ĩ
Ġngh iá»ĩ
Ġr áº¥t
áº¯ t
Ġgi a
á»ĭ ch
Æ° a
ĠÄĳá» ģ
áº¿ u
Ġc Ã²n
Ġs á»Ń
Ġt á»ĳ
áº£ ng
Ġthá» Ŀi
Ġs inh
Ġth eo
Ġkh o
Ġc Æ¡
Ä Ĳ
á»¥ c
Ã¡ y
ĠÄĳá»ĵ ng
Ġtr Æ°á»Ŀng
á»ĳ ng
iá»ģ n
Ġd á»±
Ġth áº¿
ĠcÃ¡c h
Æ°á» Ł
Ġthá» ±c
ĠÄĳ iá»ģu
iá»ĥ n
Ġc on
Ġth Ã´ng
á»© ng
a r
Ġthá» ©
Æ°á»Ł ng
ĠN am
Ì Ģ
Ġk á»
Ġch Ãºng
áº¡ nh
Ġmá» Ľi
ĠkhÃ¡c h
u áº¥t
Ġs au
iá»ĥ u
Ì £
uy á»
Ġh Ã¬nh
u a
ħ n
i m
i a
Ġc Ã¹ng
ĠV iá»ĩt
á»ķ i
ĠnhÆ° ng
ĠK h
Ġt a
Ġl u
Ã¡c h
Ġc áº¥p
Ġtr Ã¬nh
Ġv iÃªn
Ġph áº©m
iÃª u
Ġl Ã½
ĠÄĳ ang
Ġh Ãłnh
Ġn Äĥng
á»į n
Ġl Æ°á»£ng
Ġt in
Ġch áº¥t
Ġvá» ¥
Ġb iáº¿t
Ġqu a
á»ĳ c
áº¡ ng
Ġl Ãªn
Ġc áº§n
Ġlá» Ľ
ĠÄĳ Ã¢y
Ġph Ã¡t
á»ĩ nh
uyá»ĩ n
Ġt Æ°
á» £
Ġnh áºŃn
áº¥ u
Ġh ay
uá»ĳ c
Ġnghiá»ĩ p
áº£ m
Ãº p
Ġtá» ±
Ġgi an
á»į i
á» «
Ġn Ãło
Ġth iáº¿t
Ġv Ã¬
á»ĵ i
ĠnÃ³ i
Ġt Ã¢m
Ġm Ã¡y
Ã³ a
Ġt u
Ġb á»Ļ
áºŃ y
Ġd Ã¢n
Ġk áº¿t
Ġt áº¡o
Ġx uáº¥t
Ġb áº£o
Ġto Ãłn
Ġlo áº¡i
Ãª u
a l
Ġvá» ĭ
Ġm áº·t
á»¯ a
o r
Ġgi Ãºp
Ġtá» ķ
.. .
Ġk inh
Ġx e
Ġtá»ĳ t
áº¯ n
âĢ ¦
i t
Ġb áº±ng
áº¡ ch
ĠÄĳ á»ĳi
Ġtr Æ°á»Ľc
Ġc áº§u
Ġth áº¥y
Ġthá» ĭ
Ãº t
á»ĵ ng
Ġt Ã¡c
Ã ¨
ĠÄĳ iá»ĥm
Ġ 4
Ġh á»Ļi
Ġng o
Ġt áº¿
Ġho áº·c
Ġtiáº¿ p
Ġh iá»ĩu
ĠâĢ ĵ
Æ°á»Ľ ng
á» Ĺ
Ġ2 01
Ġ 5
Ġ Ã´ng
e s
áº¹ p
Ġ anh
ĠÄĳ Æ°á»Ŀng
Ġt ÃŃnh
Ġth Æ°á»Ŀng
Ġt Ã¬nh
Ãª m
Ġph Ã²ng
Ġ X
Ġc u
ĠQ u
uá»ĳ n
Ġhá» ĩ
Ġph áº§n
Ġn ay
Ġch á»©c
Ġqu áº£
áº¯ ng
Ġ em
T h
Ġch á»§
Ġ Ã½
ĠÄĳ o
áº£ nh
Ġ R
Ġnh iÃªn
Ġd Ã¹ng
ĠG i
Ġb áº£n
Ġph ÃŃ
ĠÄ ĥn
e t
á»Ń a
á»Ļ ng
Æ° u
Ġlá»Ľ n
Ġb á»ĩnh
Ġkh u
á»į ng
Ġtá» Ľi
ĀĀĀĀ ĀĀĀĀ
áº¡ c
Ġk áº¿
Ġgiá» Ľi
Ã³ ng
uyá» ĥn
ĠÄĳ áº¡i
Ġgi áº£i
Ġthá»© c
áº ³
Ġph Ã¡p
Ġtr á»ĭ
ĠÄĳ áº¹p
Ġsá»ĳ ng
Ġch á»įn
ĠÄĳ iá»ĩn
Ġcáº£ m
Æ° ng
áº© n
iá» ħn
Ġhá» ĵ
Ġg Ã¬
Ġ Ã
a t
Ġd á»ĭch
Ġqu Ã¡
Ã¬ m
Ġdo anh
Ġh ai
iá»ĩ m
Ġc á»©
á»Ł i
Ġy Ãªu
Ġtr iá»ĥn
Ġt iá»ģn
Ġtr á»įng
Ġth o
Ġgiá» ¯
Ã¡ m
Ġt Äĥng
Ì ī
Ġv áº«n
Ġt áºŃp
Ġm ang
Ġb Ã¡n
Ġv áºŃy
Ġt y
Ġtr ang
Ġ an
á» Ľ
« a
Ġm uá»ĳn
Ġth Ã¡ng
Ġd Æ°á»
Ġm ua
o m
Ġ Ã¡n
Ã µ
áº§ m
Ġb iá»ĩt
e l
Ġl iÃªn
T r
Ġth á»ĳng
Ġ I
Ġch iáº¿
uy á»ģn
Ġ áº£nh
áº³ ng
Ġch u
Ã³ c
ĠH o
á» Ŀ
Ġth á»§
Ġt iÃªu
Ġngh Ä©
Ġth Æ°Æ¡ng
Ġh Ã³a
Ġt ay
Ġtr á»Ł
ĠÄĳá»ģ u
áº§ y
Ġnh au
Ġho áº¡t
á» ¹
Ġt Ãłi
Ġ "
ĠÄĳá» ķ
Ġc Ã´
Ġcu á»Ļc
ĠQ uá»ĳc
áº¡ m
Ġch á»ĭ
Ġt Ã¬m
Ġr áº±ng
i c
Ġv áº¥n
Ġ 6
Ġc Ã¡i
Ġtr ung
á»į c
ĠÄĳ Æ¡n
Ġl á»±c
Ġb ao
Ġl áº§n
Ġho Ãłn
Ġ U
uá»ĳ ng
Ġph Æ°Æ¡ng
C h
2 01
Ġd a
Ġtr ÃŃ
á» ħ
Ġv i
Ġgi ao
Ġb Ãªn
Ġv Äĥn
áºŃ u
Ġth i
ĠÄĳá»ĭ a
Ġ F
ĠÄĳ áº¥t
ĠC Ã´ng
Ĺ i
á»ĵ n
Ġb áº¥t
Ġb Ã¡o
Ġqu á»ĳc
Ġch uyÃªn
Ġch i
ĠTr ung
Ġtá» ¥
h i
Ġb Ãłi
Ġtiáº¿ ng
a s
Ġtá» ī
áº¯ m
Ġngo Ãłi
Ġth Ãªm
Ġth am
Ġs Ã¡ng
Ġl iá»ĩu
Ġh Ã£
Ġs o
Ġs á»Ł
Ġn áº¿u
Ġt ÃŃch
Ġch Æ°a
Ġth Ã¢n
á» Ŀi
Ġr á»ĵi
ĠH Ãł
Ġ E
Ã© p
Ġ á»©ng
áº¥ m
Ġch áº¿
Ġd áº«n
áº± m
Ġ 0
Ġgiá» Ŀ
Ã© t
ĠÄĳ áº·c
Ġtr áº»
Ġvá» «a
Ġlu Ã´n
Ġth ÃŃch
Ġm á»įi
ĠÄĳá»ķ i
Ã² a
£ i
á»± a
Ġs á»©c
Ġch uyá»ĥn
Ġb u
a c
Ã¬ n
ı i
Ġc ung
Ġdá»± ng
Ġn Æ¡i
Ġs ao
Ġx Ã£
Ġquy áº¿t
Ġh á»Ļ
áº¯ p
r o
á» Ľi
Ġkh Ã³
l e
ĠÄĳ áº·t
ĠmÃł u
Ġng ay
Ġgi áº£m
Ġx em
Ġ 7
Ġngh á»ĩ
t h
) .
Ġh Æ°á»Ľng
Ġnh á»ı
Ġkh á»ı
Ġ ,
Ġn á»Ļi
Ġm áº¡nh
Ġx Ã¢y
Ġv áºŃt
Ġ1 0
Ġtu á»ķi
Ġt iáº¿t
Ġtá»ī nh
i s
00 0
ĠÄĳ áº¡o
Ġd á»ħ
Ġd u
Ġph á»¥c
Ġm áº¯t
N g
N h
Ġká» ³
Ġthu áºŃt
Ġth ay
iáº¿ u
uy áº¿n
ĠÄĳ Ã¬nh
iÃª m
Ġs Ä©
Ġ 8
Ġl á»ĭch
áº· p
Ġph á»ĳ
Ġnh anh
Ġb iáº¿n
Ġg Ã¢y
Ġvá» ±c
Ġquy á»ģn
Ġph Ã¢n
Ġh áº¿t
Ġph á»¥
Ġtá»¥ c
Ġl Ãºc
áº« u
áº¡ y
Ġgi Ã¡o
Ġthu á»Ļc
Ġb Ã¬nh
Ġb áº¯t
ÃŃ t
Ġch á»©ng
ÃŃ n
uyá» ħn
Ġc a
Ã´ m
Ġl áºŃp
ĠÄĳ Æ°a
Ġd iá»ĩn
ĠÄĳ Ã¡nh
Ġlá» Ŀi
Ġv Ã´
) ,
Ġlá» £i
o l
Ġg áº§n
Ġk iáº¿n
Ġng uyÃªn
ĠÄĳá» §
uá»ĳ i
á»« ng
Ġmá» Ĺi
áº· ng
Ġtr á»£
Ġl Ã£
u i
ĠN á»Ļi
ĠM á»¹
Ġt iÃªn
á» ĥ
Ġt Æ°á»£ng
Ġtá»« ng
Ġth anh
Ġchiáº¿ c
Ġt inh
Ġn á»¯a
Ġb Ãłn
Ġs Ã¡ch
Ġ W
a d
Ġc Ã¡
Ġl Ã²ng
Ġkh iáº¿n
Ġth áºŃt
ĠÄĳá» ©
Ġtr uyá»ģn
Ġnghiá»ĩ m
i ng
Ġm áº¹
Ġch Æ¡i
Ġc Äĥn
Ġtá» Ń
á»ĳ n
Ġ Y
Ġb á»Łi
ĠÄĳ a
Ġk iá»ĩn
¡ ng
Ġ w
ĠA nh
Ġnh Ã¬n
Ġc á»ķ
Ġn á»¯
Ġvá» ĩ
iÃª ng
e b
u n
Ġkho áº£ng
Ġb á»ı
Ä© nh
ĠNg uyá»ħn
Ġm á»©c
Ġnh áºŃp
áº£ y
Ġh iá»ĥu
Ġb Ã©
a p
Ġc á»Ńa
Ġch ung
Ġ 9
Ġd Ãłi
uy áº¿t
ĠB á»Ļ
ĀĀĀĀĀĀĀĀ ĀĀĀĀĀĀĀĀ
ĠÄĳá» Ŀi
Ġqu áº£n
Ġd iá»ħn
Ġcá»© u
Ġt Ãªn
¯ u
Ġgiá»¯ a
Ġph ong
Ġch iáº¿n
Ġt áº¥t
Ä ĳ
u s
Ġqu Ã½
Ġtr a
Ġ in
Ġnh u
Ġtr iá»ĩu
Ġb an
Ġt iáº¿n
ĠdÆ°á» Ľi
Ġho a
Ġg á»įi
ĠÄĳá»Ļ i
t r
Ġs áº¯c
uyá»ĩ t
Ã¡ u
Ġ1 9
Ã¹ a
Ġ O
Ġcáº£ nh
Ġch Ã¢n
Ġl á»±a
Ġchu áº©n
Ġhá» ¯u
Ġch ÃŃ
Ġb a
Ġm á»¥c
o t
áº¿ p
Ġ ai
Ġ áº¥y
Ġkh áº£
i d
Ġnh iá»ĩm
Ġtr á»±c
Ġkh ÃŃ
Ġx Ã¡c
Ġkh ai
ĠÄĳ áº£m
i l
Ã£ i
Ġn á»ķi
Ġhá» ıi
Ġc Ã¢y
Ġch uyá»ĩn
Ġs Ã¡t
Ġ Ã¡p
Ġká» ¹
Ġng u
ĠÄĳ áº§y
Ġk iá»ĥm
Ġc Ãłng
Ã³ n
a g
ĠTr ong
u r
Ġth Æ°
Ġc Ã¢u
Ġg áº·p
âĢĿ .
Ġch á»ĳng
Ġt iá»ĩn
ĠnghÄ© a
Ġc o
ĠÄĳ Ãºng
Ġh áº¡n
Ġ .
Ġth uá»ĳc
ĠV Äĥn
Ġv iáº¿t
Ġt Æ°Æ¡ng
á»ĵ m
Ã¢ ng
Ġy áº¿u
Ġm áº¥t
ĠC Ã¡c
Ġhá» Ĺ
Ġh Æ°á»Łng
Ġtr anh
ĠA n
Ġs ang
Ġph Ã¹
Ġl áº¥y
Ġc á»ĳ
ĠB Ã¬nh
ĠÄĳ áº¡t
Ġm á»Ł
Ġch ia
t er
Ġl Æ°u
Ġk Ã½
Ġr Ãµ
Ġb Ãł
e d
Ġg Ã³
Ġc Ã¡o
Ġm áº¡ng
á»ķ ng
Ì ĥ
Ãł u
Ġ J
Ġt á»ĳi
Ġ ÃŃt
Ġc Æ°
Æ°á»£ t
Ġtá» ·
ĠN áº¿u
o o
ĠÄĳo Ãłn
Ġ f
Ġ1 2
Ġtr Æ°á»Łng
P h
Ġt Æ°á»Łng
Ġv ui
Ġc áº¡nh
iáº¿ m
ĠhÃ£ y
Ġngh e
Ġc á»¥
Ġ Ã¢m
Ġg á»ĵm
ĠÄĲ áº¡i
Ġm áº«u
Ġb á»ĳ
Ġm inh
Ãº a
Ġdá»¥ c
Ġc á»±c
Ġr á»Ļng
áºŃ m
ĠM inh
ĠÄĳ Äĥng
Ġk Ã©
Ġng Ãłnh
Ġv Ã¹ng
p h
Ġch Æ°Æ¡ng
Ġkh Ã¡
Ġd anh
Ġ |
áº© u
Ġd i
Ġkho a
Ġgi áº£
Ġch á»©
Ġd ung
ĠNg h
Ġngu á»ĵn
Ġlu áºŃt
ĠdÆ°á» ¡ng
Ġ2 0
Ġd Ã¹
ĠÄĳ áº¥u
Ġb iá»ĥu
Ġr iÃªng
Ġtá»ķ ng
ĠÄĳá»Ļ c
Ġth áº§n
Ġ å
Ġv áºŃn
Ã³ m
ĠÄĲ á»©c
h o
Ġtr áº£
Ġt ÃŃn
Ġb Ã³ng
Ġchá»ĭ u
Ġtho áº¡i
Ġb ay
į ng
in e
Ãº i
ĠT P
Ġtr áº¡ng
Ġlá»Ľ p
Ãł m
Ġ :
Ġd Ã²ng
ĠphÃŃ a
ĠT uy
Ġx uá»ĳng
ĠNh Ãł
Ġn am
o Ãłi
Ġm Ã´i
Ġch áº¯c
on e
u m
á»Ĺ i
o s
Ġto Ã¡n
Ġx á»Ń
Ġl Ã¢u
Ġm Ã´
ĠH á»Ļi
Ġkhá»ı e
ĠÄĳ Ã´
.. ..
Ġd Ãłnh
ĠÄĳ Ã¢u
Ġqu Ã¢n
ĠÄĳ Ã¡ng
Æ°Æ¡ i
Ġb iá»ĥn
Ġn Ã¢ng
Ġká» ĥ
iá»ĩ p
áº µ
ĠÄĳ au
Ġph á»§
Ġho áº¡ch
Ġc uá»ĳi
Ġx in
1 0
Ġx a
Ġd áº¡ng
Ġph áº¡m
Ġg h
Ã¨ n
Ġph im
Ġ1 5
á» ³
ĠCh ÃŃnh
Tr ong
Ġ Ã¡o
Ġth áº¥t
Ġv iá»ĩn
ĠTh anh
Ġ uá»ĳng
Ġl á»ĩ
ĠÄĳ Ã¡
Ġ Æ°u
Ġr áº»
ĳ ng
Ġn áº±m
Ġkh áº©u
ĠÄĳo áº¡n
áº¡ p
Ġth iá»ĩn
ĠNh Æ°ng
Ġngh á»ĭ
Ġ ÃŃch
l o
ĠNh áºŃt
Ġs Æ°
á»Ń i
áº© y
Ġtá» ©
Ġm Ã³n
ĠvÃł ng
Ġ o
Æ°á» Ľi
á»§ y
ĠC Ã³
ĠÄĲ Ã´ng
Ġph Ã©p
Ġv á»ĳn
Ġs Æ¡
Ġw eb
Ġg Ã¡i
Ã¹ i
Ġch á»¯a
Ġh uyá»ĩn
á»ĭ p
áº§ ng
Ġnh Ã©
Ã£ n
Ġh Ã²a
ĠB áº¡n
N D
Ġb Æ°á»Ľc
ĠÄĳ Ã´i
Ġtr Ã²
Ġ201 8
Ġch Ãº
Ġnh iá»ĩt
Ġtr áºŃn
ĠM á»Ļt
Ġk ÃŃch
Ġtr áº¯ng
ĠS au
Ġgiá» ĳng
Ġs áº»
ĠKh i
Ġx anh
Ġt áº£i
Ġm Ã´n
u Ã´i
Ġt uyá»ĩt
Ġth Æ¡
Ġgi Ã¡c
ĠB áº¯c
N G
Ġb Ã¡c
Ġng á»§
Ã£ y
K h
ĠÄĳ Ãłn
Ġv Ã²ng
ĠTh Ãłnh
Ġc á»Ļng
1 1
Ġtá» ĭ
Ġs Ã¢n
Ġth iáº¿u
Ġh Ãºt
Ġl ao
ĠÄĳ Ã´ng
c om
Ġnh á»Ľ
Ġhá»ĵ i
Ġ3 0
ĠÄĳ Ã¡p
ĠvÃł i
ĠÄĳÃ³ ng
u Ã¢n
i on
Ġh Ã´m
Ġgi áº£n
Ġ æ
Ġthu Ãª
âĢĿ ,
Ġngh iÃªn
Ġngo áº¡i
i v
ĠH á»ĵ
Ġtr Ã¡i
iá»ģ m
Ķ ng
Ġph á»ĳi
Ġd Ãłng
ĠV á»Ľi
ĠÄĳá» į
Ġkhá»ı i
Ġv áº»
Ġch áº³ng
Ġn á»ģn
r e
« ng
Ġlu áºŃn
ģ m
Ġtr á»Ŀi
á»ĳ t
Ġt áº§ng
C M
Ġtá»© c
Ġch áº¡y
Ġph Ã¡
it e
Th eo
Ġ á»
Ġ2 00
ĠT Ã¢y
Ġ /
ĠKh Ã´ng
Ġg á»Ńi
Ġl a
ĠNh á»¯ng
Ġnh áº¡c
2 0
Ġkh Äĥn
Ġnh áº±m
Ġs Ã¢u
ĠÄĳá»į c
Ġch áº¿t
Ġk iáº¿m
Ġm Ã¹a
Ġb á»ķ
i g
Ġl áº¡nh
u t
ĠT Ã´i
an d
ĠT o
Ġkho áº£n
âĢ ľ
ĠI n
Ġmá» ģm
ĠÄĳá»© ng
Ġnh áº¹
en t
ĠhÃ£ ng
ĠNg Æ°á»Ŀi
ĠD o
ĠgÃ³ p
Ġ1 1
Ġm ong
Ġs uáº¥t
ĠÃ ģ
ĠB an
ĠÄĲ Ã¢y
Ġd áº§u
Ġsá»Ń a
ĠlÃ£ nh
Ġ Ã´
Ġnh Ã³m
Ġthu áºŃn
Ġvá» įng
Ġch iá»ģu
Ġc Ã¢n
Ġph Ãºt
iá» ħ
ĠV Ã¬
Ġx Ã©t
Ġg hi
Ġk ÃŃnh
Ġc áºŃp
Ġgi áº¥y
am e
ĠÄĲ iá»ģu
ĠL ong
Ġtu áº§n
ĠHo a
ĠâĢ ¢
Ġh áºŃu
ĠD Æ°Æ¡ng
ĠTh u
Ġs áº¡ch
Ġch á»ĵng
ĀĀĀĀĀĀĀĀĀĀĀĀĀĀĀĀ ĀĀĀĀĀĀĀĀĀĀĀĀĀĀĀĀ
Ġm iá»ħn
ĠH áº£i
âĢ ĵ
Ġtr Ã¡ch
ĠHo Ãłng
Ġtr Ã¡nh
ĠS Æ¡n
u p
Ġqu áºŃn
ĠT á»ķng
Ġm áº¡i
Ġc áº£i
Ġlá» ħ
ĠTh á»ĭ
ĠCh Ãºa
ĠÄĳ Ãło
Ġvá» £
Ġt uyáº¿n
Ġmá» ¹
ĠÄĳ em
ĠTh Ã¡i
Ġch Ã³ng
Ġ i
Ġkh Ã¡m
Ġtá»ĭ ch
e c
Ã³ i
ĠCh á»§
Ġh Ã¡t
Ġt áºŃn
Ġl Ä©nh
Ġng uy
Ġth iÃªn
ĠÄĲ á»ĵng
Ġc am
Ġt uyá»ĥn
Ġch á»Ĺ
Ġh áº¥p
ĠV i
Ġngh á»ģ
ĠkÃ© o
Ġ1 00
Ġth áº¥p
201 8
ĠTr Æ°á»Ŀng
Ġm Ãłn
Ġm Ã¡i
á»Ļ n
Ġh iá»ĥm
Ġth áº©m
Ġph áº£n
Ġm Ã¡u
Ġn Ãłng
Ġ Ã¡nh
ĠnÃ³ ng
a k
Ġngh á»ī
Ġs á»£
uá»ĳ t
Ġchá»ī nh
Ġd uy
á» ¡
V á»Ľi
Ġkh Ã³a
Ġng Ã¢n
Ġ á»ķ
Ġx áº£y
ĠPh áºŃt
Ġkh áº£o
Ġch Äĥm
Ġth Ã´i
Ġx uyÃªn
Ġqu anh
Ġh áº¡i
Ġh Æ¡i
Ġn á»ĳi
Ġl inh
Ġthá»§ y
u l
Ġ a
Ġd Ã¢y
Ġch áº¯n
ĠÄĳ áº£o
Ġch Ãºt
l ine
Ġbu á»ķi
Ã¨ o
Ã¨ m
Ġth Ã¡i
Ġm áº¯c
ĠB áº£n
Ġk Ãª
ĠU S
ĠV Ãł
Ġt ai
Ġ1 8
Ġ ä
Ġk iá»ĥu
Ġt Ã´
Ġth áº¯ng
Ġtr áº£i
á»Ľ m
Ġt Ã¹
i p
Ġn Ã´ng
e x
1 9
i r
Ġnh á»Ŀ
ĠÄĳ Ãªm
Ġng Ã´i
Ġh áº¡
ĠÄĳá» ı
Ġm ay
Ġx Ãºc
Ġh uy
ĠT H
- -
Ġg á»Ĺ
1 2
Ġ uy
ĠH Ãłn
Ġ ...
Ġv ai
Ġt Æ°á»Ľng
Ġr Äĥng
Ġd áº¡y
Ġn iá»ĩm
ĠPh Ã¡p
Ġthá» Ń
Ġth Ãº
C Ã¡c
Ġnh áºŃt
Ġm Ã£
ĠL u
á»« a
t o
áº· n
e w
Ġd áº¥u
5 0
Ġch áº¥p
Ġ0 9
ĠTh iÃªn
Ġng á»ĵi
ĠTr áº§n
Ġ201 7
Ġtr ai
ĠPh Ãº
Ġc Æ°á»Ŀng
Ġb Ã¡nh
Ġv Æ°á»£t
Ġs á»Ľm
Ġtr Ã¬
Ġm áº·c
Ġt iá»ĥu
Ġl áº¡c
Ġká» ·
Ġch á»¯
N áº¿u
Ġth Æ°á»Łng
N H
Ġs uy
Ġkh á»Łi
Ġs iÃªu
Ġl Ã¡
Ġm áºŃt
M á»Ļt
Ġth áº£o
Ġchá»© a
ĠCh Ãºng
Ġh áº¯n
Ġm iá»ģn
Å© i
Ġkh áº¯c
ı a
Ġqu áº§n
Ġm a
Ġv a
o b
Ġ áº¥n
ĠÃ Ĥ
áºµ n
Ġb áº¿p
Ġs ai
o a
Ã£ o
ĠL Ãª
a v
Ġn áº·ng
iá»ħ m
Ġn uÃ´i
Ġph á»ķ
á» ·
Ġngh i
ĠÄĳ áº©y
Ġ ç
Ġqu en
Ġb á»¥
Ġs im
Ġ1 6
iáº¿ p
Ġph iÃªn
Ġthu áº¿
Ġ è
s ite
ĠCh ÃŃ
ĠNg oÃłi
k h
Ã² i
Ġl áº½
ar t
Ġng on
v n
Ġth ai
Ġtá»ĳ c
ĠCh Ã¢u
Ġc Å©
Ġc áº¥u
Ġqu ay
Ãµ i
ĠÄĳ Ã¨n
á»į t
T T
ĠTh á»§
Ġt Ã³c
Ġch a
Ġh Æ°Æ¡ng
Ġl iá»ģn
ĠT á»«
Ġ1 3
Ġv iÃªm
Ġt áº¥n
ĠL iÃªn
á»§ ng
Ġt áº·ng
Ġl á»Ļ
Ġgi ai
ĠT Ã¢n
ĠÄĳ ÃŃch
Ġ2 4
Ġng Äĥn
Ġs áºµn
ı ng
Ġph a
Ġn iÃªn
H CM
Ġl uyá»ĩn
Ġg ame
Ġs Ã³c
Ġc Æ°á»Ŀi
S au
Ġth Äĥm
ĠTh eo
ĠTh áº¿
Ġm áº¥y
u b
Ġ [
Ġk ia
Ġh Ãłi
Ġph Ãª
ĠÄĳ en
B áº¡n
iáº¿ ng
ĠgiÃ¡ m
Ġ1 4
Ġc Ã¡n
Ġs ung
B ND
ĠTh Ã´ng
Ġqu Ã¡n
Ġs á»¯a
Ġd Ã¡ng
Ġt Æ°Æ¡i
Ġlá» Ĺi
Ġt á»Ļi
á»ĭ nh
Ġng á»¯
Ġth iá»ĩu
Ġb áºŃt
o d
K hi
Ġth Ãºc
Ġá»ķ n
Ġth ao
ĠÄĲ Ãł
ĠL an
Ġtr Ãºc
t e
Ġthá»ĭ t
a b
Ġ áº
ĠÄĳ á»ĳc
o c
ĠUS D
Ġ5 0
Ġc áº¯t
oo k
ĠH Ã²a
ĠÃ Ķng
" .
Ġ Â
ĠÄĲ áº£ng
Ġqu áº£ng
ar k
ĠÄĲ á»ĥ
3 0
es s
Ġx áº¿p
Ġn áº¡n
Ġnh iá»ħm
Ġc áºŃu
Ġt á»Ļc
Ġt uy
Ġl áº¯p
Ġng á»Ŀ
i e
ĠGi ang
ĠPh Ã²ng
ĠT u
á»ĩ t
ĠNg á»įc
Ġb áº£ng
Ġtr ao
á»£ i
Ġy Ãªn
Ġg á»ĳc
Ġm á»ĳi
Ġt im
Ġb á»©c
Ġt áº§m
ĠQu áº£ng
Ġb Ãły
Ġth áº³ng
Ġng Å©
ĠX uÃ¢n
ar d
Ġs uá»ĳt
o i
Ġph Ãºc
ã Ģ
Ġt Ãłu
Ġk im
Ġm Ã¡t
Ġm u
Ġco i
Ġh áº¡nh
Ġd áº§n
ĠGi Ã¡o
Ġb á»ģn
Ġc Ã¡nh
Ġs Ã´ng
áº¹ n
i f
Ġh áº¡t
ĠNg uyÃªn
Ġch á»Ŀ
âĢ Ļ
Ġweb site
Ġk áº»
Ġl áº¡
ĠK á»³
ĠH Ã£y
Ġch Ã¢u
Ã³ t
Ġkh Ã´
Ġ +
ĠB áº£o
Ġk iá»ĩm
Ġc á»Ń
Ġchiáº¿ u
Ġn Ã©t
Ġm Æ¡
Ġngh iÃªm
á»¥ p
ai l
Ġd á»¯
ĠÄĳÃ³ n
ĠS á»Ł
Ġthá» ¥
ĠL o
Ġkh á»ĳi
. âĢĿ
Nh á»¯ng
or e
ĠG ia
Ġm áº¡ch
Ġc áº§m
Ġph áºŃn
ĠC on
Æ°á»Ŀ n
Ġs áº¡n
Ġvá» ¯
ĠK inh
Ġx u
Ġ1 7
G i
Ġ &
ĠCh á»ī
Ġx ong
ĠÄĳ áº³ng
Ġ Æ¡n
s t
Ġv Ã©
n et
ĠH u
iá»ĩ ng
ĠK im
Ġso Ã¡t
Ġ2 5
ĠU BND
ÄĲ á»ĥ
Ġt Ã´n
Ġl ai
Ġng áº¯n
Ġs áº¯p
Ġkh á»ķ
Ġhá»ĵ ng
C Ã³
T Ã´i
Ġc Ãł
Ġhá» ©
ĠVi et
Ġvá» Ŀi
Ġtr á»ĵng
Ġm Å©i
2 00
Ġg áº¯n
ĠkÃ© m
ĠâĢ ¦
Ġs Ãłn
es t
Ġ201 6
Ġb Ãło
Ġl Æ°Æ¡ng
Ġtá» ĵ
Ġk Ã¨m
Ġm iá»ĩng
Kh Ã´ng
ĠPh Æ°Æ¡ng
Ġh uyáº¿t
ĠNg a
Ġth áº§y
Ġx o
" ,
ĠTr ang
ĠN inh
Ġb áº§u
Ġb ÃŃ
it y
c o
Æ°á» ¡ng
Ġvá»¯ ng
ĠQu áºŃn
Ġl áº¯m
Ġm Ã£i
ĠÄĳá» «ng
Ġt áº¯c
e p
Ġd á»ĭ
ĠtÃ¹ y
Ġgi Ã³
Ġth Æ°á»Ľc
Ġd Æ°Æ¡ng
ĠlÃł n
Ġx ung
Ġch uyáº¿n
Ġc uá»ĳn
Æ°á»£ u
ĠQu Ã½
Ġn iá»ģm
o Ãłn
Ġt Ãºi
Ġtho áº£i
Ġr á»Ńa
Ġl áº¯ng
ĠPh Ã³
ãĢ Ĥ
Ġt Ã¡i
ĠlÃł nh
ĠÄĳ Ã¡o
Ġr Ãłng
Ġh áº¡ng
Ġh Ã´n
Ġt áº¥m
ac k
Ġ áº¥m
Ġb iÃªn
Ġtr uy
Ġt á»§
Ġgh áº¿
Ġn Ãºi
i k
ĠgÃ³ i
Ġthá» «a
P T
er a
Ġkh uyáº¿n
Ġ Z
Ġm Ãª
Ġh áº§u
Ġchiáº¿ m
Ġqu Ãł
er s
Ġth uyáº¿t
o v
ĠÄĳá»© c
Ġ áº©m
Ġgi áº£ng
áºµ ng
á»¥ n
Ġt uyÃªn
Ġ on
ĠL inh
á»© t
ĠQu ang
ĠÃĤ u
ĠCh i
r a
Ġnh áº¯c
Ġn áº¯m
ĠLu áºŃt
Ġth ÃŃ
Ġ ãĢĤ
Ġ Æ°á»Ľc
Ġt Æ°á»Ŀng
Ġtho Ã¡t
Ġm Æ°a
Ä© a
d o
g i
Ġ á»§y
a x
ĠH á»ĵng
Ġx áº¥u
Ġc á»©ng
ĠB a
Ng Ãły
is t
Ġd Ãły
áºŃ c
Ġph i
Ã ģ
201 7
Ġth áºŃm
Q u
Ġch á»£
ĠC ao
ĠV Å©
ĠH iá»ĩn
Ġr Æ°á»£u
Ġn áº¯ng
Ġth áºŃn
Ġkh Ãºc
Ġbu á»Ļc
Ġtr Ã¹ng
Ġt áº¯m
Ġc áºŃn
Ġtá»ĵ n
i le
Ġho Ã¡
ĠPh ong
Ng oÃłi
ĠÄĳ áº¥y
Ġdá»± a
or t
Ġl á»Ńa
Ġnh a
Ġl á»įc
2 4
Ġch Ã¡y
á»Ľ p
ĠG iá»
Ġhá»į p
C Ã´ng
Ġh a
Ġth áº»
Ġch á»¥p
Ġnh iÃªu
il l
ĠE m
Ġch Ã¡u
Æ ¯
Ã© o
ĠT Ãłi
á»Ļ p
Ġc an
Ġb áº¡c
Ġb áºŃc
ĠlÃł ng
ĠNh Ã¢n
Ġkh áº³ng
Ġs Æ¡n
ĠNg Ãły
Ġv Å©
ĠÄĲ Ã³
as s
ĠCh o
ai n
Ġnh áº¥n
Ġl y
Ġt Ã²a
ĀĀĀĀĀĀĀĀĀĀĀĀĀĀĀĀĀĀĀĀĀĀĀĀĀĀĀĀĀĀĀĀ ĀĀĀĀĀĀĀĀĀĀĀĀĀĀĀĀĀĀĀĀĀĀĀĀĀĀĀĀĀĀĀĀ
Ġgi Ãłu
Ġm Ã¹i
Ġv ay
ĠÄĳo Ã¡n
, âĢ¦
áº³ n
Ġk á»ĭp
Ġm áº½
Ġ é
Ġg Ãł
ĠT áº¡i
ĠNh Æ°
Ġr au
Ġs Ã³ng
ĠV N
Ġ e
T C
Ġhá»į a
Ġb iá»ĩn
Ġl Æ°á»£c
ĠN áºµng
Ġh áº£o
Ġng áº¡i
ĠGi Ã¡
8 8
Ġn inh
Ġph Ã³ng
Ġl Ã¡i
Ġng uyá»ĩn
Ġs ong
ĠV iá»ĩc
or d
f f
Ġtr Æ°ng
ĠPh áº¡m
Ġtá» ı
Ġg Ã³c
V N
am in
Ġtá» Ŀ
Ġtr i
ĠKh u
ĠÄĳá» ¡
ĠÄĳ Ãª
ĠM Ã¡y
ĠL Ã¢m
ĠD u
Ġch Ãłng
Ġmá» Ŀi
ĠÄĳ Æ°Æ¡ng
Ġr u
ĠT á»ķ
Ġkh áº¯p
Ġn áº¥u
Ġ4 0
Ġk Ã¬
ic k
Ġd Ãµi
Ġb Ã¨
Ġph iáº¿u
Ġr á»«ng
Ã Ģ
Ġho Ãłng
Ġtr uyá»ĩn
Ġg á»įn
ĠS Ãłi
ĠL Ã½
l y
Ġc Æ°á»Ľi
Ġr Ãºt
6 0
á»Ľ t
Ġtr á»«
á»ĭ a
ĠÄĳ á»Ļt
ĠÄĳá»© a
Ġg áº¯ng
Ġth Ã¡c
Ġl iá»ĩt
ĠT Æ°
Ġ Æ°Æ¡ng
Ġb á»Ļt
Ġh u
.... ....
Ġ u
Ġd á»ĭp
á»ī nh
Ġqu Ãªn
Ġv áº¿t
Ġh áº³n
Ġx á»©
o x
Ġtr á»¥
Ġs á»ķ
Ġc á»¥c
ĠC Ã´
ĠT áºŃp
Ġkh Ã¡ng
Ġl áº«n
o u
Ġtr Äĥm
ĠÄĲ áº·c
ĠS t
Ġs Ãłng
Ġ á»ĳng
Ġ201 5
1 5
ĠH á»į
ag e
Ġm á»¥n
ĠB Ãł
Ġh áº£i
ĠGi Ã¡m
Ġhá» ģ
Ġx Æ°Æ¡ng
h t
Ġbu á»ĵn
Ġch áº·t
i o
Æ¡ m
Ġl Æ°ng
2 5
Ġkhu Ã´n
áº¥ c
ĠNh a
c e
Ġnh á»±a
ĠNgh á»ĭ
Ġng Æ°á»£c
Ġr Æ¡i
Ġng Ã´n
T uy
Ã© n
Ġl Ã´ng
ĠTh Ã¡nh
Ġv Æ°á»Ŀn
at e
Ġhá»Ļ p
ĠV áºŃy
Ġb á»¯a
ĠTh Æ°Æ¡ng
Ġbá»¥ ng
ĠG Ã²n
ĠB Ãªn
Ġ ung
ĠN Ã³
Ġd Æ°
Ġt áº¡p
ĠÄĳá» £i
ĠÂ »
ĠÄĲ oÃłn
Ġg áº¥p
T á»«
Ġs u
e v
Ġthá» Ŀ
ĠH á»įc
Ġkh ung
ĠS áº£n
ĠÄĳ Ã¡m
Ġ2 2
Ġ2 1
ĠÄĳÃ£ i
ī nh
ĠN Äĥm
Ġs a
ĠY Ãªn
Ġth Ã´n
H iá»ĩn
ĠD á»±
u d
ĠL a
ĠNg Ãłi
Ġ ï
Ġb á»ģ
Ġs á»©
Ġb Ã¢y
Ġth e
c m
p p
ĠC Ã²n
Ġkh iá»ĥn
ĠÄĳ Ã²i
Ġd inh
Ġqu Ãª
ĠTh e
u e
Ġth ang
Ġmá» «ng
ĠA r
Ġtr á»©ng
Ġch áº£y
Ġch áºŃm
ĠM ai
Ġlo áº¡t
Ġ =
Ġl an
ĠthÆ¡ m
n am
ĠPh Ã¡t
Ġt áº¡m
2 3
Ġx inh
¦ y
Ġph áº¡t
ĠÄĲ iá»ĩn
Ġth áº£i
Ġ 01
Ġh y
Ġthá» ıa
Ġ Ð
á»© a
el l
ĠH Æ°ng
ĠV in
ÄĲ T
Ġk em
ĠH ai
Ġng ang
ĠA l
Ph one
ĠC H
ĠÄĳ iá»ĥn
Ġl á»ĳi
Ġh Ãłm
ĠKh oa
Ġr á»ĳi
ĠlÃ£ o
Ġth a
Ġx Æ°a
Ġá» ŀ
Ġh Ã¨
Ġng á»įt
ĠC á»Ļng
Ġn á»£
Ġb inh
u á»ķi
Ġc Ãłi
Ġb i
Ġl Æ°á»£t
Ġthá» ±
Ã Ķng
ĠTh iáº¿t
ter net
ĠÄĲ Æ°á»Ŀng
ĠcÆ¡ m
Ġc Äĥng
ĠÄĲ Ã¬nh
T áº¡i
Ġk o
á»ĭ n
Ġtho Ã¡ng
ĠS á»±
Ġh Ãło
Ġn á»Ĺi
Ġn á»Ńa
8 0
Ġs áº¯t
Ġá» ¦y
ĠL e
Ġkhu áº©n
o áº¡i
ÄĲ Ã¢y
Ġ2 3
Ġng Æ°Æ¡i
u c
to p
Ġthá» ķ
Ġm á»ĩnh
Ġph Æ°á»Ŀng
ĠC am
Ġngh Ã¨o
t p
ĠÄĳá» ĩ
Ġc Æ¡n
Ġc áº·p
l d
Ġlo Ãłi
Ġqu ang
Ġd á»«ng
Ġth Æ°á»£ng
Ġt áº£
Ġg Æ°Æ¡ng
eb ook
Ġhá»ĵ n
9 9
Ng Æ°á»Ŀi
âĢ¦ âĢ¦
o k
it amin
Tr Æ°á»Ľc
Ġph Ãº
i z
ĠC Æ¡
ĠÄĲ á»ĳi
Ġlo áº¡n
Ġng Ãłn
Ġb Äĥng
ĠT iÃªn
Ġch Ãło
a z
Ġ6 0
al l
Ġl á»ĩnh
Ch Ãºng
/ /
201 6
Ġh Æ°
Ġon line
ho p
Ġtá»ķ n
ĠV Æ°Æ¡ng
ĠT in
Ġtr Ãł
Ġch e
Ġ ?
ĠÄĳ áº£ng
Ġm á»±c
ĠÄĳ Ãłi
Ġng á»«ng
Ġnh Ãłng
ĠCh Æ°Æ¡ng
ĠB á»ĩnh
T V
± ng
Ġc l
Ġvi d
Ġd iá»ĩt
Ġv ÃŃ
Ġvá» ı
Ãº y
Ġo f
Ġh Ã´
ĠV iá»ĩn
Ġ â
ĠÄĳ Æ°Æ¡
1 4
ĠTh á»Ŀi
w n
Ġvid eo
an k
Ġb Ã£i
ĠÄĳ áºŃu
e y
Ġtr áº§n
Ġmá» ¡
Ġgi Ãł
Ġi Phone
: //
ĠB á»Łi
ac ebook
Ġk ÃŃn
Ġlá» Ĺ
Ġd Æ°á»£c
Ġg an
Ġm á»Ļ
A N
Ġr á»Ŀi
Ã£ ng
1 6
ĠT á»Ń
a h
1 8
Ġl Ã´
Ġn á»Ļp
Ġng á»±c
Ġt Ä©nh
i ch
ĠNg Ã¢n
at ion
i an
ĠÃ Ĳ
Ġb Ãª
t on
Ġ Ã©p
Ġn on
1 7
Ġb áº¡i
Ġh áº¹n
u á»Ļc
Ġtr Ã´ng
ĠPh an
o p
Ġthá» Ł
Ġv áº£i
Ġth Ã©p
Ġtr Ãº
Ġtr Ã²n
v er
ĠV Ã¢n
Ġv ua
r y
Ġ2 7
ĠT Ã¢m
Ġt i
in k
Ġm i
Ġ áº©n
ĠX e
ĠQu Ã¢n
ĠC Ã¡ch
Ġgi Ãłnh
ĠV inh
o g
e g
Ġn Ã£o
Ġth Ã¹
ĠH iá»ĩp
ĠH Æ°Æ¡ng
Ġm ai
ĠN ew
Ġtr á»įn
oo g
Ġt an
Ġd áºŃy
Ġtr á»¯
1 3
t y
Ġtá» ĩ
s e
ĠS á»ĳ
Ġnh i
ĠÄĲ á»Ļ
Ġm áº¯n
oog le
ĠH á»
á»³ nh
Ġt áº¯t
Ġtr Ãło
Ġph áº«u
ĠT áº¥t
ĠÄĳ ua
Ġd uyá»ĩt
un d
Ġt Ã´ng
Ġb á»įn
Ġl Æ°á»Ľi
Ġcam era
Ġv u
I á»
á»§ i
ĠPh Ãºc
ĠQ uy
Ġtr eo
ĠÄĲ áº§u
Ġv iá»ĩt
ĠÄĲ áº¿n
Ġl á»¥c
am s
Ġ2 6
ĠP l
ĠÄĳ áº¿
ĠC áº§n
t el
ĠT áº¿t
Ġth iá»ĥu
Ġtr Æ°Æ¡ng
ĠO n
Ġt Ã¢y
Ġkh á»§ng
ĠÄĲ á»ĭnh
Ġph Ã¡i
Ġ2 8
ĠM á»Ĺi
on d
ã ģ
á»¯ u
C H
i b
ĠH Ãłng
Ġm Ã£n
Ġm á»ĩt
ĠH y
ph one
Ð ¾
Ġk Ãªu
ĠbÃ© o
ĠV Ä©nh
ĠH Ã³a
2 2
Ġl áº»
Ġb á»ĳn
Ġ201 4
ĠTh á»§y
Ġl ÃŃ
Ġb Ã²
Ġkh Ã¡n
Ġth áºŃp
Ġb á»Ŀ
Ġáº ¤
ĠÄĳá» īnh
Ġbá»¥ i
Ġn Ãªu
ĠTr Æ°á»Ľc
ĠS p
ĠH D
Ġh t
4 0
ĠM ar
Ġgi Æ°á»Ŀng
á»¥ ng
Ġmá» ıi
Ġgi Ãły
Ġr Ã£i
ĠB Ãłi
ĠKh Ã¡nh
ĠNh iá»ģu
¢ nh
Ġhá»© ng
Ġ '
ar e
Ġb Ã³
Ġp in
ĠTu áº¥n
Ġch ua
201 5
Ġhá» ıng
ĠH Ã¹ng
Ġch áº¥m
Ġ19 9
ĠTh á»±c
Ġan d
Ġgiá» ıi
ĠÄĳá» ±ng
Ġkh á»Ľp
Ġ )
Ġph á»©c
Ġ Æ°a
á»Ĺ ng
Ġtá»ĳ n
L V
Ġt Ã¢n
ĠÄĲ Ãło
ĠM áº¹
Ã Ķ
an t
ĠS h
ĠlÃ£ i
s u
Ġph u
Ġt iá»ģm
Ġlo a
ĠT iáº¿n
Ġ2 9
Ġb Æ¡i
Ġb Æ¡m
Ġch Ã¹a
Ġ !
% .
¿ ½
Ġs áº¯m
Ġnhu áºŃn
I I
Ġd ao
ĠS inh
ĠkÃª nh
Ġth iá»ĩt
m m
Ġn á»Ĺ
Ġv áº½
á»± u
Ġph áº¥n
Ġth Ãª
Ġ5 00
Ġv itamin
Ġd Ã¡m
Ġä ¸
ĠB ÃŃ
Ġch áº¡m
Ġh iá»ĥn
Ġn á»ķ
ĠN H
Ġht tp
ĠÄĳá»ĭ ch
Ġd áº¡
Ġkh uyÃªn
Ġs á»¹
Ġb á»ĵi
ĠKh Ã¡ch
ĠT iá»ĥu
m art
ĠCh u
iáº¿ c
Ġc áº©n
Ġgi Ã£n
ĠD á»ĭch
Tr Ãªn
ĠTh Æ°á»Ŀng
Ġthu a
ĠÄĲ a
áº¹ o
i x
ĠH CM
ĠT NH
Ġc anh
Ġgi áº¥c
Ġtr Ãłn
ĠB Ã¡o
w w
-- --
Ġvá» ¡
Ġng Ã£
ĠTNH H
ĠM áº·t
C N
ĠS a
in a
i en
Ġs e
ĠX em
Ġ á»§ng
V iá»ĩc
ĠK áº¿t
ĠB iÃªn
Ġthá» į
ĠÄĳ áºŃm
Ġh iá»ĩp
ĠR e
Ġs Ã´i
Ġd á»©t
Ġ8 0
Ġsá»ĳ t
ĠL Ãłm
Ġcá»ķ ng
ĠC á»¥c
ĠNh áº¥t
ap top
ĠD Ã¢n
Ġv Æ¡
Ġtr áº§m
ĠC á»ķ
o ur
) ;
Ġm Ãłng
Ġm á»ĭn
Ġth Ã¡nh
B Ãªn
k g
Ð °
Ġm Ãły
Ġgi Ã¢y
Ġl áº§m
Ġ >
ĠP r
ĠÄĳ iá»ĩu
Ġ Ġ
Ġng á»«a
Ġtr áº¥n
ĠP H
4 5
Ġ7 0
ĠÄĲ Ãłi
ĠH áº¡
á»Ļ m
Ġc á»Ļt
Ġ Ã´m
A M
Ġh Ã¹ng
Æ°á»Ľ t
7 0
Ġch Ãºc
7 5
Ġnh Ã£n
Ġn a
ĠQ uyáº¿t
B á»Ļ
ĠC ity
ĠGi áº£i
ĠNgh á»ĩ
Ġt Ã¡n
Ġgiá» įng
ĠâĢ ĺ
i et
ĠC an
Ġn Ãºt
Ġr o
ĠTr Æ°á»Łng
ul l
ĠT R
ĠPh áº§n
á»ĳ p
T S
Ġg a
Ġgi áº¿t
Ġt ÃŃ
Ġch áº·n
Ġ j
£ t
ĠQu áº£n
á»¥ y
Ġn Æ°á»Ľng
Ġl Å©
c k
ï ¿½
Ġx Ã¢m
ĠÄĲ á»ĭa
Ġk iÃªn
Ġt ung
Ġm áº¡c
ad a
Ð µ
ams ung
ho w
ig ht
Ġm Ã³c
. "
ĠTP HCM
Ġl áº·ng
Ġth áº¯c
Ġt Ãłn
ĠH uy
Ġm uá»ĳi
ĠS ing
Ġkh ÃŃch
Ġh á»§y
ĠK H
Ġd uyÃªn
Ġkh áº¥u
Ġl Ã¢m
Æ°á»Ľ p
ĠL Ãł
Ġhu áº¥n
ĠM an
á» ŀ
Ãª nh
Ġg á»£i
ĠTh áº§n
ĠTh Æ°á»£ng
0 9
ÄĲ á»ĳi
3 5
ĠPh Æ°á»Ľc
ĠPh i
Ġ Ã¡c
Ġtr á»Ļn
Ġth áº§u
ĠT Ã¬nh
ÄĲ iá»ģu
Ġch Ã³
Â ¿
C P
Ġch á»¥c
Â ½
ĠÄĲ H
ĠThu áºŃn
Ġ201 3
Ġc á»ı
Ġh Ã´i
Ġth Ã¡ch
Ġp ro
ĠT a
Ġb Ã´ng
Ġph Ã³
Ġngh Ã¬n
ĠÄĳá» £t
6 6
Ġ áº¡
Ġtr á»¥c
ĠKh o
lo ad
or ld
ĠB l
ĠG oogle
ĠP ro
om e
, ...
Ġph Ã¡n
Ġ Ã¡i
Th Ã´ng
ĠTr Ãªn
ĠT á»īnh
Ġhuy nh
Ġc Ãº
ĠH LV
Ġkh Ã³c
Ġgi Ã¡p
ĠX Ã¢y
Ġth áº¥m
ĠHu áº¿
ĠÄĳ uá»ķi
Ġth uyá»ģn
ĠÄĳ uÃ´i
Ã Ĥ
Ġb ang
Ġc Æ°Æ¡ng
Ġn o
ĠC áº§u
Ġt áº£ng
ap ore
Ġg áº¡o
ĠB Ã¡n
Ġs Ã¡nh
ĠGi ao
! !
ĠV Ãµ
Ġho ang
A nh
Ġch ÃŃn
Ġh iáº¿m
Ġth Ã¹ng
p l
Ġr Ã¡c
Ġt Ãºc
âĢ¦ ]
ĠL Æ°u
Ġv inh
ĠD i
Ġm iáº¿ng
ĠB Ã¡c
ĠD uy
as t
T P
ĠS Æ°
ĠÄĳ áº¡p
Ġ3 00
Ġph un
Ġgi áº·t
Ġb áº¯n
ĠD N
ĠT am
ĠTh Ã¡ng
% ,
ĠÄĳ á»ĳt
b er
Ġkh en
ĠC Ã¹ng
Ġth Ã¢m
Ġ3 5
ĠH á»¯u
Ã¹ m
Ġn áº¥m
Ġcá»ĳ t
Ġb Ã¡t
ĠÄĳ áºŃp
á»į a
Nh Æ°ng
ĠV á»ģ
Ġb Ã¬
ĠAn d
Ġc á»Ŀ
ĠGi áº¥y
ĠD Å©ng
á»ı ng
lo g
ĠC l
M Ã¡y
ĠA pp
Ġnh áº¯n
ĠK áº¿
ĠM y
Ġmá» ıng
x i
Ġc áº¥m
Ġth áº£m
ĠÄĲ áº¥t
C S
Nh Æ°
ĠH á»ĩ
in i
ĠlÃ£ ng
Ġbu Ã´n
ĀĀĀĀĀĀĀĀĀĀĀĀĀĀĀĀĀĀĀĀĀĀĀĀĀĀĀĀĀĀĀĀĀĀĀĀĀĀĀĀĀĀĀĀĀĀĀĀĀĀĀĀĀĀĀĀĀĀĀĀĀĀĀĀ ĀĀĀĀĀĀĀĀĀĀĀĀĀĀĀĀĀĀĀĀĀĀĀĀĀĀĀĀĀĀĀĀĀĀĀĀĀĀĀĀĀĀĀĀĀĀĀĀĀĀĀĀĀĀĀĀĀĀĀĀĀĀĀĀ
Ġ9 0
ĠC Å©ng
h a
Ġc Ã¡p
Ġx uÃ¢n
á»ı i
o w
Ġb á»ĳi
Ġh Ãł
Ġchu á»Ļt
Ã ¯
X H
ĠM a
Ġ[ âĢ¦]
V á»ģ
Ġch á»«ng
Ġth Ã³i
an s
Ġru á»Ļt
ĠTr á»įng
id e
Ġs ex
Ġh uá»ĳng
Ġáº¤ n
Ġhá»© a
Ġb áº¡ch
ĠÃ ļ
k y
ĠÄĳ Ä©a
Ġb á»įc
Ġv ang
k e
Ġd Ã¡n
ĠG iÃª
N Äĥm
f t
ĠÄĲ Æ°á»£c
ĠN Ã´ng
Ġt iá»ĩc
Ġt áºŃt
Ġtr áº¡i
Ġb Ã¹
ĠS á»Ń
D o
Ġch á»Ł
Ġn á»Ł
ĠA ir
) :
ĠTH PT
ĠSing apore
ĠD Ã¹
ĠNg oáº¡i
ĠL Æ°Æ¡ng
Ġc áº£n
ĠC up
į t
Ġho t
Ġk á»ĭch
Ġs anh
Ġng Æ°á»¡ng
ĠB áº¡ch
Ġb Ã£o
k m
Ġh i
ĠÄĳ ai
Ġáº ¢nh
Ġ áº£o
Ġ ong
ĠG D
Ġt Ã¡ch
Ġv ong
ĠL Ãºc
2 8
Ġb Ã¡m
um p
3 3
o ut
Ġkho Ã¡ng
Nh Ãł
Ġtr á»Ļi
ĠC a
Ġg á»¡
in es
Ġ *
B Ãłi
Ġx Æ°á»Łng
201 4
os t
ĠA m
Ġqu á»¹
? âĢĿ
e ar
ec t
s ia
ĠNg Ã´
ĠH uyá»ĩn
6 8
ĠU n
Ġd Æ°á»Ŀng
H Ã£y
O S
ĠH Ã¬nh
ĠTh á»©
ĠH ÄĲ
6 5
kh Ã´ng
Ġm áº£nh
Ġl Ã²
ĠF acebook
¡ i
Ġxo ay
Ġtr á»ĳng
Ã¹ y
Ð ¸
Ġv Æ°Æ¡ng
ĠT iá»ģn
2 1
Ġch Äĥn
Ġsá»£ i
ĠC Ã¢u
ĠS amsung
Ġt áº©y
ĠTr Æ°Æ¡ng
Ġhá»Ĺ n
Ġ3 1
Ã© m
Ġd ÃŃnh
áº ł
Ġt Ã¡o
Ġd Ã¢u
V Ã¬
ĠT Ã´n
Ġl aptop
Ġc Ã¡t
ĠB r
0 8
ĠW in
p s
Ġhá» ķ
Ġk m
ĠT Ãłu
Ġc Ã¢
ĠQu an
f e
Ġnh Ã¡nh
ĠG r
s s
Ġk Ä©
Ġx Ã³a
ĠIn ternet
Ġnh áº£y
Ġng áº¯m
Ġc á»¡
ark et
Ġs Ãºng
Ġm en
iá»ħ u
Ġng Æ°Æ¡
ĠM áº·c
ĠT iáº¿ng
s a
C C
g e
Ġx á»©ng
ĠM al
Ġb á»Ľt
ĠC S
Ġ4 5
Ġf or
ĠB áº±ng
Ġ201 2
o h
E O
ĠP ark
ĠL ai
Ġth Ã¡o
en d
ĠC áº£nh
I N
id eo
Ng h
ĠÄĳ áº¯c
Ġb á»ĥ
ĠTr iá»ģu
iv e
Ġnh Ã´m
l a
Ġtiáº¿ c
Ġth áº£
ro up
9 0
ol d
Ġng áºŃp
Ġm Æ°á»Ŀi
Æ°á» ¡i
ÄĲ Æ°á»£c
ĠN Æ°á»Ľc
Ġgh Ã©p
áº« y
á»ĳ m
Ġm á»įc
Ġh áº±ng
ic e
Ġv Ãµ
ĠCh iáº¿n
Ġtá»± a
ĠPh á»¥
ĠphÃŃ m
Ġgi áºŃn
C O
ĠCh áº¥t
Ġs Äĥn
ĠW orld
ĠL á»Ļc
Ġv Ã¢n
Ġph á»ıng
wn load
ĠLo an
Ġm Æ°u
L Ãł
Ġth an
Ġr á»§i
Ġng Ãłi
do w
Ġ0 2
Ġng Æ¡i
Ġtá» ıa
ĠL á»ħ
Ġchu á»Ļng
e e
a ch
ĠM ua
u k
E D
or k
ĠTo Ãłn
Ġkho Ã¡n
ĠH Æ¡n
f a
ĠH Ãłnh
ĠC om
ĠT á»±
Ġ al
0 7
Ġtu á»ĩ
ro id
ĠA d
Ġnh á»ĭp
ĠC Ã¡i
Ġt Ã´m
ĠTh Æ¡
i es
Ġb áº©n
Ġth áº±ng
ĠÄĳ am
Ġh áº§m
ĠÄĳ eo
Ġg á»ĳi
2 6
ob ile
ĠG al
ĠB H
Ġh Ãłn
Ġc ong
ĠC N
Ñ Ĥ
Ġtr Ãºng
ĠÃ Ŀ
áº ¾
5 00
Ch o
C Ã¡ch
Ġv Ã¡y
ĠCh a
ĠQ ua
Ġch im
ĠN G
áº« m
Ġt áº¿t
ĠÄĲ áº¡o
ĠS y
r an
á»§ a
Ġch ap
ic ro
0 5
ĠT iáº¿p
Ġv á»Ļi
Ġd Ã¢m
Ġchu á»Ĺi
Ġm ÃŃ
Ġdá»ĭ u
o y
Ġch Äĥng
Iá» Ĩ
Ġch Æ°
Ġkh a
áº¹ t
Ġx Äĥng
ĠÄĳ Ãłm
ĠX in
Ġgi áºŃt
r i
ĠÄĳ Ãł
ĠDo anh
ĠB á»ĵ
Ġng á»Ļ
ĠÄĲ Äĥng
al o
ĠÄĳá»ģ n
Ġv iá»ħn
ĠApp le
0 2
ĠT Ã¬m
Ġn á»ĵi
c t
ĠC Äĥn
ĠÃļ c
A T
ĠÄĳ Ã¢
c Ã³
x y
Ġg áº¡ch
Ġtr iá»ĩt
Ã£ nh
ĠS o
Ġb áº¡o
Ġnh áº¡y
ĠÄĳ e
Ġd Ãłn
m l
ĠC P
g o
Ġc om
Ġp l
Ġv áº¹n
Ġc áºŃy
Ġï Ģ
0 3
ax y
ĠC o
Ġmá» Ŀ
Nh iá»ģu
ÄĲ áº¿n
Ġn áº¡p
Ġd á»įc
Ġb áº¯c
ĠNgh Ä©a
ol l
Ã Ĭ
Ġ im
Ġtr ÃŃch
Q ÄĲ
Ġm áº»
Ġnh Ã¢
Ġ z
201 3
C Å©ng
Ð ½
Ġs t
ĠV á»ĭ
Ġb Ã¡
ĠlÃ£ m
Ġl ong
Ġng áº¡c
Ġc Ãºng
ĠTh áº§y
áº ¤
Ġ201 1
Ġth Ã´
Ġt iÃª
áº ¢
Ġs ay
5 5
ĠM á»įi
ĠHá» £p
ĠTh á»ĥ
Ġ á»ĳc
0 4
Ġch áº¥n
2 7
Ġlá»ĩ ch
Ġc áº¥t
Ġ Ã¢n
Ġx Ã¡ch
Ġthá» £
Ġd e
ac e
Ġm áº¡n
Ġem ail
m ent
c on
Ġth Äĥng
s o
ĠNg ay
Ġnh o
am p
Ġ0 3
1 00
arket ing
Ġthu áº§n
Ġtá» į
Æ ł
0 6
Ġ #
Ġb ia
ĠTh Æ°
ĠTr á»Ŀi
Ġk á»ĩ
Ġm áº§m
ĠÄĲ á»ģ
Ġch Ãºa
ĠI I
m an
ĠT Ã´
ĠÄĳá» ¥
u g
S á»±
ĠX Ã£
ĠGiá» Ľi
Ġchá»§ ng
ĠM Ã£
ĠTr ump
Ġh áº¹p
Ġtá»į a
Ġkh Ã¡t
ĠA S
........ ........
Ġng á»įn
ag ue
Ġlá» «a
Th á»Ŀi
Ġ201 0
âĢ¦ .
ĠL Ãło
ĠTh áº£o
2 9
Ġl ang
Ġph iá»ģn
ĠS ong
Ġl am
Ġ3 6
ÃĶ NG
ĠTh á»į
Ġh iÃª
mart phone
ĠTh áº¯ng
Ġch Ã¡n
Ġh iáº¿n
ĠN á»¯
Ġr Å©
Ch á»ī
3 8
Ġng Ã³n
ĠÄĳ iá»ĩp
ĠL ao
Ġtr Ã´i
Ñ Ģ
Ġk ÃŃ
Ġh á»ĳi
Ġb áºŃn
Ã ĥ
ĠÄĳ áº¯t
ĠViet nam
ĠT ÃŃnh
oo d
Ġch á»ĳi
Ġso i
Ġc áº¯m
ĠT Äĥng
Ġb Ãºt
Ġl Ãºa
Ġn Ã©n
ĠH Æ°á»Ľng
ĠB ar
ĠA i
in o
ĠÃ Ķ
D á»±
ĠT T
ĠV I
B Æ°á»Ľc
Ġtr Æ°a
p r
ĠÄĲ á»Ļng
Ġt Ã¡
ĠE x
ĠD ung
ĠTr uyá»ģn
Ġb o
Ġä º
A S
Ġs áº¡c
dow s
Ġ ac
Ġth áº¡ch
7 7
v e
Ñ ģ
Ġf ile
ĠH áºŃu
u ch
ĠÄĲ á»Ļi
ar a
L B
ĠC á»¥
Ġn áº¿p
Ġt Ãłng
Ġx Æ¡
Ġl Æ¡
ĠN Ãªn
Ġquy áº¿n
C T
ĠT p
ĠCh á»ĭ
Ġtu Ã¢n
us e
b um
Ġl Ã¡t
ĠTh i
ĠÄĳ Ãºc
ĠV á»¥
Ġs Ã³t
ĠCh Ã¡nh
d e
ĠW eb
Ġs on
Ġc Æ°á»Ľc
ĠT Ã²a
Tr ung
ĠÄĲ Ã´
ĠV iÃªn
Ġng Ã¢m
Ġd Ä©
p er
G iá»
en s
Ġt am
Th á»±c
Ġn á»ĵng
ĠB Ã¹i
Ġd á»«a
Ã¬ a
E m
Ġnh Æ°á»£ng
ĠHo Ãłn
Ġ Æ¡i
C on
Ġ á»©c
Ġ0 8
Ġl au
Ġ3 2
on al
Ch ÃŃnh
n e
ub e
y m
Ġs p
ĠD iá»ħn
Ġx áº£
ĠCh ung
ur e
av e
Ġ15 0
ĠGal axy
r us
Ġm Ã¬
es ter
ĠB áº¥t
as h
ĠD Æ°á»Ľi
Ġc á»±u
ĠD iá»ĩn
Ġh Ã¢m
Ġb áº¥m
am a
ĠB iá»ĥn
ĠC ung
Ġn Ã¡m
x it
ĠM Ã¬nh
Ġh ang
Ġs an
Ġtr á»Ļm
ĠN Ã³i
Ġch iáº¿t
B Ã¡n
ĠOn line
Ġch áº½
ÄĲ áº¡i
Ġk á»ģ
Ġnh áº«n
ĠS on
iv i
ĠS er
ĠCh uyÃªn
Æ°á»£ n
Ġc Æ°á»Ľp
ĠNh ac
ĠÄĳ iÃª
Æ°Æ¡ n
E R
ĠPh im
ĠN ai
is s
ĠD anh
ĠÄĳá»ĩ m
ĠK iá»ĥm
Ġm á»ĵ
Ġkh Ã©o
Ġv Ä©
S Ã¡ng
u á»ĵn
ĠS un
Ġkh uyáº¿t
Ġch ai
ĠÄĲ inh
Ġr á»¡
Ġtr Ã¡ng
Tr ang
Ġto p
ay sia
s h
Ġho áº£ng
Ġso áº¡n
ĠK iáº¿n
ĠP ar
Ġng á»įc
ĠL áº¡t
Ġb e
Ġb Ãº
m a
d a
Ġch anh
Ġv áº·t
Ġl á»Ļc
ĠPh il
y l
n Äĥm
Ġb á»ķng
Ġch uyá»ģn
Ð¾ Ð
3 6
ĠAnd roid
Ġtr áº¡m
ĠV ÃŃ
iv ers
ĠTr ÃŃ
á» Ĳ
Ġnh áº¡t
Æ°á»Ł i
7 9
Ġ19 8
Gi Ã¡
ĠG I
Ġth iá»ĩp
Ġtr á»ĳn
ÄĲ á»ĵng
ĠC ar
ĠT Ä©nh
N T
Ġt ia
Ġm á»Ļng
ĠC uá»Ļc
Ġl Ã³t
Ġv Ãª
á»ĭ t
Ġn á»¥
Ġvu Ã´ng
Ġkh á»©
s p
Ġh eo
Ġt áº§n
Ġm Ã¢y
Ġin ternet
Ġm á»ī
ĠC áº£
Ġd á»įa
Ġch á»ĳt
Ġm Æ°Æ¡i
G B
I n
ot a
ĠB e
iv er
Ġcáº£ ng
ass age
ic a
a w
ĠÄĳ áº¯p
Ġs Ã¡u
ĠD Æ°á»£c
ip p
ĠC Æ°á»Ŀng
Ġcá»¥ m
Ġch Ã¢m
Ġt Ãºy
us t
ĠT inh
Ġnh iÃª
ĠT iÃªu
Ġl eo
ic o
ĠM á»¥c
Ġmu á»Ļn
ĠB áº¿n
Ġkho an
Ġb iÃª
Ġtr iá»ģu
ro l
Ġv Ã¢
ĠLo áº¡i
ĠTh áºŃt
Ġtr áºŃt
Æ¯ á»
Ġs Ã´
ĠTh á»ĳng
Ġx áº¡
Ġhá» ıa
i er
Ġs en
ĠTr Ãł
ĠK á»¹
ĠT V
ĠtÃŃ m
Ġs martphone
ã Ĥ
Ġ Ãªm
7 8
Ġm áº¡o
ĠÃĤ m
V Ãł
áº» o
Ġr áº¯n
r id
Ġkh áº©n
C Ã²n
ĠIn d
Ġ am
Ġdo wnload
te in
ÄĲ áº·c
Ġ ..
ĠT S
Ġv áº¡n
ĠTh á»¥y
ĠL áº¡c
ĠNgh e
at a
Ġm Ã¡
Ġb áº¯p
Ġm áº¿n
l and
Ġt iá»ħn
Ġs how
N ÄĲ
! âĢĿ
Ġr ao
u ro
Ġlá» ıng
ĠC Ã¡t
á» ĥn
ĠC á»Ńa
Ġho Ãł
Ġc ay
£ n
ia l
ĠMal aysia
Ġx Ã³m
Ġr ung
Ġb Ã³n
Ġth Ã¡p
Ġs hop
ĠWin dows
4 8
Ġt Ãª
or n
ĠÄĳÃ³ i
Ġm Ã¹
Th iáº¿t
ĠTr á»ĭ
Ġtr Æ°á»£t
Ġm od
ĠR es
Ġb Ã´i
Ġth áº§m
ĠÄĲ á»
Ġkh Ã¡i
ĠS ao
Ġl iá»ģu
Ġ0 5
Ġv an
Ġch Ã¡nh
at h
ĠkhÃ³ i
Ġth Ã¢
Ġng a
ad e
Ġr á»±c
ĠÄĳo áº¡t
Ġn iÃªm
Ġb á»ĵn
Ġb áº¿n
Ġv iÃª
ĠÄĲ T
ĠÄĲ á»Ĺ
Ġkh e
ĠK iá»ģu
le x
H o
Ġkh Ã¢u
Ġr Ãło
ĠH ay
c a
S D
Ġng áº§m
U Y
as er
I D
Ġgi am
s on
O N
Ġth áº¥u
á»¥ t
ap p
á» µ
ĠT e
Ġng Ãµ
Ġm áº£ng
Ġd á»įn
ĠÄĲ iá»ĥm
Ġb á»Ĺng
ĠCh Ãºc
Ġch Ã©p
Ġcl ick
3 4
áº± n
Ġd Ã£
i um
Ġt ao
A R
t Ã´
Ġv en
Ġn áº¡
Ġch Ã¬m
Ġc á»ĳng
Ġl ÃŃt
Ġto ur
Ġch áº£
Ġl ÃŃnh
ĠQu á»³nh
Ġph Æ¡i
Ġl Ã¢y
Ġh uyá»ģn
ĠY Ãªu
D Ã¹
T á»ķng
ĠTh áº¡nh
ĠU y
ã ĥ
o ol
Ġl Æ°á»¡i
Ġ3 8
ĠPh Æ°á»Ŀng
h e
ot e
Ġt iÃªm
Ġ0 4
ĠT áº¥n
ĠGiÃª su
Ġc á»ĳc
Ġgh Ã©
3 9
Ġ $
Ľ n
ĠH uyá»ģn
ĠÄĳá» Ĺ
ĠTh am
Ġqu áº¡t
Ġ Æ¡
Ġ Ã´n
Ġn áº§y
Ġm Ã²n
Ġm á»ĳc
Ġx Ã´ng
Ġ Ã¡m
Ġd Ã¢ng
Ġch inh
ĠD áº§u
T M
Tr Æ°á»Ŀng
p t
b o
tr ong
ĠÄĲ á»ĵ
Ġf an
Ġn Ã´
ĠB ÄĲ
Ġr Ã¨n
ĠC LB
ĠTh ÃŃch
ĠCan ada
Ġng á»±a
Ġc Ã£i
Ġl Ã´i
ÃŃ a
áº ¬
ĠTh Ã¢n
Ġtr Æ¡n
N N
ng Æ°á»Ŀi
th Ã¡ng
ng Ãły
Ġb áº£y
ĠM á»Ľi
Ġv Ã¡ch
im e
ĠÄĳ áº¡n
on es
M áº·c
ag en
Ġl á»ĵng
Ġqu Ã¡i
ĠNh u
ĠV Ãło
Ġtho a
_ _
á»Ń u
ĠNh i
ĠHu á»³nh
áº¯ k
ĠL á»ĭch
4 4
ĠS u
ĠD Ã¹ng
it h
Ġc Æ°á»£c
Ġg am
I C
ĠL á»£i
ĠÄĲ Ã£
ap h
Ġn Ã¢u
Ġ ao
Ġm Ã³ng
Ġth áº¯t
Ġs er
Ġtr e
C Ã´
G T
ĠS an
ĠM Ã´i
ĠC áº£m
Ġtr Ãłng
ĠM áº¡nh
ĠâĢ Ŀ
* *
Ġgi áº¥u
Ã² m
Ġso fa
Ġch iÃªu
at t
tr al
Ġ201 9
ĠL am
Ġho an
en n
Ġkh iáº¿u
Ġ4 00
Ġl i
Ġin ox
Ġtá» Ľ
Ġr e
ĠÄĳá»ĵ n
Ġth iá»ģn
6 9
Ch Æ°Æ¡ng
E S
Ġl ink
Ġm assage
H Ãł
Ġo xy
V Ãło
Ġ á»ĵn
3 7
âĢ¦âĢ¦ âĢ¦âĢ¦
X em
ĠNh á»Ŀ
Ġl á»ĵ
Ġv áº¯ng
ak e
r ia
C Ã¹ng
? ?
os e
ĠTr iá»ĩu
ĠTh ay
as hi
ĠL y
co in
201 2
Ĥ n
ĠH iá»ĩu
ĠP V
ĠÄĲ á»«ng
H ai
ĠE l
Ġkho áº»
Ġin ch
Ġt ang
ĠNh áº¡c
ĠÄĳ áº»
Ġkh Ã´n
Ġ Ãł
Ġl Äĥng
Ġch áºŃu
ĠS im
I S
om es
Ġtr Æ°Æ¡
3 2
ĠT y
Ġtho Ã¡i
Ġn á»ģ
ĠHo t
M á»Ĺi
Ġkho Äĥn
ĠF or
Ġm Ã©t
Ġl Ãµi
ĠR áº¥t
Ġs áº¹o
Ġs Æ°á»Ľng
C Äĥn
ĠM V
Ġc m
ĠÄĲ áº·ng
ĠÄĳá» Ľn
B C
lo ck
Ġk g
Ġph áº¿
Ġc ua
ĠÄĳ u
Ġx áº¿
Ġm au
ĠM á»Ļc
P S
Ġcl ip
ĠH á»ĵi
M T
ĠThá»ĭ nh
ĠĠ ĠĠ
ĠÄĳ Ã¡y
Ġv áº£
Th á»©
Ng ay
Ġb á»ĳc
ot o
O T
Ġx ÃŃ
ac t
Ġs Æ°u
Ġm e
ĠLe ague
Ġkh á»ķng
Ġm á»ķ
b a
er n
ĠViet tel
in t
Ġl Äĥn
ĠV Å©ng
ĠTr á»ĭnh
Ġlá» £n
Ġkho Ã¡c
Ġch iÃªn
Ġd áº¡o
Ġv Ä©nh
ĠS Ã¡ng
ĠhÃ£ i
G D
Ġtr Ã¢n
Ġ Æ°á»Ľt
ĠÄĲ i
ar ao
ik e
ĠI s
ĠA c
Ġx i
ĠS e
is h
Ġng Æ°
Ġhá»į ng
Ġt em
4 9
Ġqu Ã©t
Ġca fe
Ġb Äĥn
Ġs Ã¢m
ĠH Ã´m
ĠÄĳá»ĵ i
ĠH áº¡nh
ĠÄĳ Ã¢m
ig n
Ch á»§
Ġnh áº§m
Ġkho ai
Ġa xit
al i
Ġh ao
ĠHo áº·c
ĠS Ä©
ĠE d
ĠTh Äĥng
ĠC á»©
ĠT Ãªn
v i
ĠTh áº¡ch
ĠT uyÃªn
Ġph á»ķi
ĠN Æ¡i
Ġch Ã¨
S áº£n
ĠÄĲ Æ¡n
Th áº¿
Ġ Æ°ng
ĠÄĳ áº§m
Ġs Æ°Æ¡ng
m p
áº¥ ng
Ġnh Äĥn
Ġthá»ķ i
Ġg Å©i
ĠM i
ond a
ĠH a
p e
ĠC ol
ĠPl us
ĠPh áº£i
K áº¿t
Ġvi rus
Ġ20 20
in d
ĠPh Æ°á»£ng
Ġx ay
g r
C a
Ġtr Ä©
ion s
T áº¥t
Ġl Ãª
Ġ200 8
Ġv Æ°Æ¡n
ĠM Ãł
ch i
I M
E C
Ġ200 9
Ġv Ãº
Ġl áº¥p
Ġc Ã¡m
N Ã³i
ĠB ao
arao ke
ĠH ar
Ġnh Å©ng
Ġh áºŃn
m i
out ube
t u
ĠL á»¥c
ĠV Ãłng
ĠHo Ãłi
uy en
Ġh ung
m ar
ĠM ob
ĠCh áº³ng
6 7
B S
ĠM áº«u
Ġngo Ã¡i
an o
ð Ł
iá»ģ ng
Ã į
if i
Ġqu Ã¡t
ĠD e
ĠV Ã´
Ġph áº³ng
L ÄĲ
Ġn Ã¡t
ĠM ac
re e
V áºŃy
ĠTh iáº¿u
Ġlá» ¡
ĠH e
Ġn áº¯p
Ġ0 7
c el
Ġl á»©a
Ġch Ãª
Ġ up
Ġthu n
b ank
E L
Ġk áº½
ua t
Ġs áº¥y
ĠM Ã´n
E T
Ġnh Æ°á»£c
ĠL ED
ĠC r
Ġ5 5
ĠR á»ĵi
Ġ2 000
tr e
Ġ áº¥p
Ġt ivi
Ġl Æ°á»¡ng
n a
Ġt e
Ġl áº§u
Ġkho e
H Ã´m
Ġg ai
ĠT Ã¹ng
Ġnh áº¯m
Ġch Ã©n
ĠI S
Ġb om
ol f
Ġh am
m á»Ļt
ĠD r
Ġm m
Ġ Ã³c
Ġg Ã¡nh
Ġtá»¥ ng
C Ã¢u
ĠK it
s en
Ġvi et
ĠB Ãłn
Ġvi sa
on t
3 1
ĠH S
Ġ ad
k ho
ĠH áº±ng
Ġl Ã¢n
Ġnh an
v a
ĀĀĀĀĀĀĀĀĀĀĀĀĀĀĀĀĀĀĀĀĀĀĀĀĀĀĀĀĀĀĀĀĀĀĀĀĀĀĀĀĀĀĀĀĀĀĀĀĀĀĀĀĀĀĀĀĀĀĀĀĀĀĀĀĀĀĀĀĀĀĀĀĀĀĀĀĀĀĀĀĀĀĀĀĀĀĀĀĀĀĀĀĀĀĀĀĀĀĀĀĀĀĀĀĀĀĀĀĀĀĀĀĀĀĀĀĀĀĀĀĀĀĀĀĀĀĀĀ ĀĀĀĀĀĀĀĀĀĀĀĀĀĀĀĀĀĀĀĀĀĀĀĀĀĀĀĀĀĀĀĀĀĀĀĀĀĀĀĀĀĀĀĀĀĀĀĀĀĀĀĀĀĀĀĀĀĀĀĀĀĀĀĀĀĀĀĀĀĀĀĀĀĀĀĀĀĀĀĀĀĀĀĀĀĀĀĀĀĀĀĀĀĀĀĀĀĀĀĀĀĀĀĀĀĀĀĀĀĀĀĀĀĀĀĀĀĀĀĀĀĀĀĀĀĀĀĀ
ĠTo Ã¡n
ĠTh iá»ĩn
Ġkh Ã´i
ĠM ay
ĠM icro
ĠK iÃªn
Ġm Å©
ĠgÃ¬ n
Ġph Ã¡o
Ġ á»Ľt
Ġng Ãło
ĠT Ãº
T ag
ĠS ai
Ġv áº¡ch
ĠF PT
Ġn ang
I V
Ġä ¹
ĠCam p
201 1
Ġ| --
ar y
ĠC uá»ĳi
oc k
Ġv áº¥t
ĠS c
I A
ĠTh á»ķ
ĠX uáº¥t
L C
---- ----
ĠÄĳ iÃªn
an a
Ġc Ãµi
Ġgi Ã¡n
Ġnh á»©c
Ġph Ã¢
Ġt iá»ĩm
Ġd Ã²
Ġgiá» įt
ĠS EO
Ġb Æ¡
Ġv s
ĠBÄĲ S
4 6
ĠM iá»ģn
Ġd áº¯t
Ġ0 6
¨ ng
9 8
ĠCh Ã¢n
ĠT O
ĠUS B
Ġquy á»ĥn
Ġch uá»ĳi
w e
Ġn Æ°Æ¡ng
Ġb log
Ġ á»ĳp
Ġkho Ã¡i
Ġhá» Ł
á»ı a
as e
ĠNgh iÃªn
Ġv Æ°á»Ľng
ĠTo y
nh Æ°
ĠSy ria
ĠD a
Ġl áº¯c
ĠTr áº»
ic s
Ġr á»¥ng
3 00
/ .
Ġ12 0
Ġl áº¡m
Ġr á»Ļn
Ġkh uy
H á»Ļi
ĠG ame
Ġh iáº¿u
Ġx á»ķ
g on
ĠH Ã¡n
Ġng áº§n
Ġnh á»ī
ĠNh áºŃn
Ġm Äĥng
Ġh iá»ģn
Ġtá»± u
Ġgh Ã©t
Ġ3 7
C áº§n
Ġ3 4
n áº¿u
Ġng á»©a
ĠÄĳ un
Ġqu i
Ġn u
ĠL á»Ŀi
Ġ7 5
A C
ut e
Ġl áºŃu
ĠG roup
Ġho Ãłi
ĠNg uyá»ĩt
Ġm á»Ļc
ĠPh Ã¢n
Ġm an
Ġd Æ°a
V ideo
Ġd ai
Ġm ini
Ġs Ãºt
ĠRe al
b ps
áº ¦
âĢ ¢
Ġt Æ¡
Ġc ai
ĠT Ã´ng
ĠGiá» Ŀ
b ook
E AN
Ġlá» ģ
B Ãł
ĠO r
âĢ ĭ
Ġ4 8
Ġho áº¡i
Ġb Ã´
Ġd iá»ĩu
Ġtá» ıi
X e
Ġl á»Ļn
Ġr Ã¨m
ĠT im
ĠCh á»©ng
Ġgi ang
ĠHÄĲ ND
re en
Ġr Ãł
n er
ĠF r
ĠI P
et h
oll agen
Ġl áº·p
Ġng á»£i
Ġtho áº£ng
ĠF l
Ġbá»ı ng
ĠÃģ nh
Ġl Ã¹i
G S
Ġtr Äĥng
4 7
ph cm
Ġngo an
ĠC Ãł
T H
ĠA s
Ġm áº¯m
Ġbu Ã´ng
Ġl ed
áº· m
Ġch ay
Ġnh á»ĭ
ĠS hop
Ã½ t
9 5
as ter
o an
Ġt Ã¹ng
t a
Ġtá»ĭ nh
ĠÄĳ áº¯n
Ġ6 00
Ġnh Ã£
Ġm Ã´ng
b áº¥t
Ġtr á»į
K ho
Ġch áº©n
Ġg Ã£
Ġlu Ã¢n
Ġgi Æ¡
ĠH onda
Ġs Æ°ng
Ġm Ã¨o
ĠÃģ o
it coin
Ġr Ã¡p
Ġc Ã´n
Ġ3 3
Ġs h
ĠS Ã¡ch
ĠQ U
Ġt Ã¢
Ġng uyá»ĩt
ÄĲ Ã³
Ġb ong
L Æ°u
und ai
Ġl Ã©o
ĠH iá»ģn
ĠG old
ĠTh áº©m
Ġb ar
ĠC áº©m
Ġx á»ī
Ġk eo
Ch iá»ģu
D á»ĭch
e k
ones ia
ĠPhil ipp
ĠTr inh
s ub
Ġh Æ°u
K H
ĠÄĲ áº¿
m in
ÃĬ N
ĠL Ã£nh
Ġt uyáº¿t
ĠK iáº¿m
ĠM ad
Ð »
. [
Ġl Ã¹ng
ĠP C
ĠV áºŃn
ĠC A
ĠM Ãłu
ĠToy ota
er o
ĠÄĳ Ã¹a
ĠI t
U BND
ĠNh Æ¡n
ĠPh á»ĳ
ard en
Ġthá»ĭ nh
Ġb ai
ĠNh Ã¬n
oh n
ĠC al
ĠCh r
ĠÄĳ c
ĠTo p
Ġqu á»·
Ġ Ã¢u
Nh Ã¢n
ĠT Ã¡c
L Ãłm
Ġx Ãło
ĠC áº¥p
Ġ2 50
ï ¼
Ġ3 20
B á»ĩnh
Q ua
ĠS iÃªu
ĠM o
Ġru á»Ļng
k in
so ft
al e
Ġmá» ı
Ġthu áº«n
g iá»
ĠC Ã¢y
Ġch iÃªm
Ġh Ã²n
M Ã¬nh
Ġhá» ¥
ä ¸
Ġbu á»ĵng
ed ia
N am
ĠQu Ã¡n
Ġt Ã¡m
ĠS H
Ġ6 5
Ġ3 9
Ġhttp s
Ġchu Ã´ng
ĠT ÃŃn
Ġd Ã£y
e u
Ã¹ n
Ġx Ã¡
Ġb á»ī
Ġm o
Nh áºŃn
? "
ĠTr Ã¡i
L Ãºc
uch ia
Ġn áº¡i
Ġng á»¥
ĠÄĲ iá»ģn
Ġm arketing
Ġk á»ī
Kh u
at ch
Ġlo go
ĠTh á»«a
Ph Ã¡t
Ġcá»§ ng
Ġd á»ĳc
Ġm áº¡
Ġå ¤
Ch Ãło
or g
ĠT N
Ġm Ãłi
Ġngh iÃªng
v Ãł
Ġv e
Ġf ull
T N
Ph áº§n
Ġph anh
Ġr á»ī
ĠQ uyá»ģn
Ġl Æ°á»Ŀng
Ġx oa
Ġmu Ã´n
T iáº¿p
ĠÄĲ Ã¨n
ĠB u
Ġkh Ã©p
Ġph Ã´
Ġch Ãªnh
on a
Ġd áºŃp
Ġl á»įt
ĠÄĲ áº£o
ĠTh áº¥t
Ġm áº·n
Ġb Ã¹ng
Ġæ ľ
ĠX anh
Ġkho Ã¡
Ġtr o
à ¸
C B
ĠB áº£ng
Th Ãłnh
ie u
Ġ q
Ġn áº£y
ÄĲ áº§u
Ġth Ã¨m
ĠÄĳ áº±ng
ĠTh áºŃm
6 4
er e
Ġpl ay
ĠY áº¿n
Ġpro tein
ĠAS EAN
er t
Ġtr áº¯c
Ġm Ã²
Ġcu á»Ļn
ĠInd onesia
ĠV áº¥n
ĠK ÃŃch
ĠC O
ĠH á»Ĺ
ĠPar is
Ġ ;
á» ĺ
Ġd á»ĳi
en e
ĠÄĲ á»įc
Ġx Ãł
B Ã¬nh
Ġc Æ°á»¡ng
Ġs á»ī
f or
l u
Ġr áº¯c
Ġv Ã²i
Th á»§
E N
ĠV áºŃt
201 0
Ġk iáº¿p
ĠF ord
Ġth Æ°a
V iet
ĠN a
ĠBH XH
8 5
Ġr á»ĳt
ĠL áºŃp
Ġk araoke
Ġn Ã©m
ĠTh Ãªm
ĠT á»·
Ġc áº¯p
Ġ is
ĠÄĳ Ãłnh
ĠB ang
Ġtr iáº¿t
Ġx Äĥm
uy Ãª
ĠVinh omes
Ġm Äĥ
ĠL Äĥng
ĠP an
Ġd áº»o
Ġb á»Ļi
Ġn á»ĳt
Ġm Æ°á»£n
ĠC en
ĠE n
L iÃªn
ex t
i re
Ġk Ã¨o
Æ ¯u
ĠIn ter
ĠH áº§u
en z
Ġr á»ĵng
v ent
ĠT áº¿
le y
Ġ19 5
Ġy áº¿t
ag r
Ġcon t
Ġb áº¥y
á» Ĭ
Ġh Ã²
ĠCh á»£
Ġä ½
Ġv Ã³c
Ġchá»£ t
Ġw in
Ġ200 7
ĠX uyÃªn
ĠKh ang
iz e
ĠPh á»§
ĠthÃ¬ a
C uá»Ļc
ĠY ork
Ġl ung
ĠN o
ww w
F F
ĠM Ã¹a
Ð º
áº¿ ch
ch e
Ġtr u
Ġh Æ¡
ĠM er
Ãº m
ĠC á»Ńu
á»ĩ n
Ġng Ã´
Ġc áº¯n
Ġå ħ
Ġph o
ĠTh Ã¡p
Ã ĵ
Ġl áº¥n
Ġc á»įc
ra z
H á»ĩ
Ġngh á»ĭch
Ġ6 4
Ġc ar
Ġd á»ĵi
ĠOn e
ĠL H
Ġs uá»ĳi
Ġc Ãłnh
Ġth iÃª
ĠB ay
Ġkh á»Ń
Ġt Æ°á»Ľi
as on
Ġ <
Ġh Ã¡i
Qu Ã½
áº¿ m
ĠT Æ°á»Ŀng
ĠH P
ĠÄĳ áº·n
Ġr á»ħ
Ġl e
Ch á»ĭ
ĠSon y
Ġn Ã´n
ian o
& #
l ess
ĠS Ã´ng
c ol
ĠT uyáº¿t
Ġn á»©t
ĠA ng
Ġv Ã¢y
6 3
ĠL á»ĩ
, ..
ĠÄĳ iá»ģn
ĠM od
ĠM Ã´
Ġsá»ĳ c
áº» m
Ġm Æ°á»£t
Ġm p
ĠCamp uchia
ĠÄ Ĥn
Ġx ÃŃch
Ġnh ang
Ľ t
ly mp
Ġl áºŃt
k a
= =
ĠbÃ³ p
Ġh at
Ġ1 000
ĠG S
ĠÄĲ áº¡t
Q T
Ġm Ãºa
T X
âĢ Ķ
ĠTr Ã¬nh
ĠPr em
ĠG u
ĠM au
l ist
Ġ Æ¯
Y T
ĠB Ã¡
Ġt phcm
ĠC ai
ĠH i
. ,
ĠCh áº¯c
ĠL iÃªm
am es
Ġx Ã¡m
Ġng á»Ļt
Ġc á»ĵn
c Ã¡c
ĠÄĳ áº¯ng
ĠNgh iá»ĩp
Ġthu á»·
Ġl Æ°á»Ľt
Ġæ ĺ
en ce
Ġf acebook
ĠPhilipp ines
ĠT M
l et
P ad
ec k
Ġr Ã´
ĠTh uá»ĳc
pr ess
l Ãłm
. /.
Ä Ĥ
Ġx en
u x
Ġm anh
ĠB Ã¡ch
7 2
B an
Ġtu i
á» °
ĠC T
Ġr áº¡ng
Ã Į
ĠJ ohn
Ġthá» īnh
C D
Ġto a
I T
Ġkho áº£nh
S N
ĠL áº§n
ĠM ax
ĠTr anh
ĠHot line
X in
ĠKit Ã´
V iá»ĩt
ĠQu á»¹
Th Ã¡ng
Ġth Ã¡m
U S
Ġm Ã¢u
á» ¤
b ao
ĠT áº¡o
Ġhot line
= "
t i
6 2
ear l
Ġtr inh
Ġng Æ°ng
ĠM on
á»Ń ng
Ġ9 9
Ġnh á»Ł
H Ã¬nh
Ġk iá»ĩt
ĠS eo
ĠKh ai
A L
Ġn Æ°Æ¡
Ġr un
Kh Ã¡ch
ĠÄĳá» Ľi
M á»įi
ĠR o
Ġtr Æ¡
ĠH iáº¿u
ĠG arden
ĠTh Ãºy
Ġvi ew
i el
ĠCh iáº¿c
ĠR iÃªng
Ġngh iá»ĩn
ng h
ol y
ĠO lymp
ĠT áº§n
Ġth iÃªng
Ġs i
Ġ uá»ĳn
Ġä¸ į
ĠHy undai
ĠV áº¡n
g ia
Ġg u
Ġd á»ĵn
Â »
ĠD iá»ĩp
Ġ8 00
ĠTr e
ch o
lo w
Ġlu á»ĵng
ĠN Äĥng
Ġk iÃªng
Ġv iá»ģn
Ġh e
ĠQu áº£
Ġs Ã©t
ĠÄĳ áº¡m
Ġ Æ°
ĠTH CS
Ġhá»¥ t
Ġy áº¿n
Ġch Ã¡o
Ġh Ãª
ĠP al
8 9
ĠS á»©c
ĠÄĲ Ãłn
ĠB áº¡c
b on
Ph Ã²ng
Ġvá» Ł
Ġch á»Ńi
se a
ud io
onal d
H á»įc
tr a
ĠÄĲ an
Ġkh iáº¿t
ĠC ÄĲ
Ġg Ã¡c
Ġk iÃª
Ġg Ãµ
Ġx Æ°ng
ĠI II
Ġlu i
ĠM Æ°á»Ŀi
Ġä¸į báº¥t
ic t
Ġx Ã´i
Ġg o
ĠT áº£i
ĠÄĳ áº¡c
d r
ĠV ua
ĠA P
ĠÄĲ Ã´i
ho áº·c
D A
ĠX S
ĠCh á»įn
Ġlo i
ĠB i
7 4
ag on
Ġl Ã¢
Ġw ww
ĠS ch
ĠNg uá»ĵn
it al
ĠC á»ĳ
ĠTr uyá»ĩn
ĠÄĳ inh
Ġt áº¡
ĠHu á»ĩ
O R
Ġtr á»«ng
ĠÄĲ Ã¡nh
ch á»ī
Ġr es
ĠB Ã¡t
ivers ide
Ġd á»Ł
ĠR ob
7 6
k i
Ġd Å©ng
c r
Ġd á»Ļi
ĠT Æ°Æ¡ng
ĠC Ã¡
Ġd áº£i
Ġb y
ĠT Ã¹y
ĠÄĳ an
ĠÄĳá» įng
t á»«
or y
G ia
en c
Ġk i
Ġb áº¿
Ġd áº¡i
Ġ4 2
ĠS up
Ġchi p
ĠÃ´ tÃ´
Ġcu á»ĵng
Ġk Ã©p
ĠÄĳá»¥ c
et ro
Ġg as
ĠX i
M á»Ľi
Ġt Ãł
Ġl á»¥
Ġcan xi
Ġx Ã³t
Ġc áº¡n
Ġch Ã¬a
Ġch á»ĳn
ok ia
l ines
Ġy ou
Th anh
M B
Ġ200 6
ĠÄĳ ÃŃnh
áºł I
T ui
ĠF ull
ow er
ĠD iá»ĩu
A n
Ġr á»ĩt
Ġá» ¨ng
ĠM U
Ġta xi
ĠÄĳáº¿ m
B TC
ĠÄĳá»© t
á»ĩ m
j i
4 00
Ġch áº·ng
an e
C Æ¡
Ġs Æ°á»Ŀn
Ġr Ã¢
ĠM e
A G
Ġx ao
Ġh Æ°ng
g er
ĠS á»Ńa
T a
y a
áº¤ T
I NH
S á»Ł
Ġkho ang
ĠlÅ© y
Ġkh Æ¡i
Ġk iÃªm
ĠC áºŃp
ĠWeb site
ĠCh Æ°a
Gi áº£i
ĠNg Å©
ĠW h
Ġr Ã¡o
Ġnh ÃŃ
ĠV iá»ħn
ĠS en
ĠÄĲ iá»ĥn
B a
C á»¥
Ġè Ģ
ĠTu á»ķi
l i
ĠÄĳá»¥ ng
4 2
ĠA t
I áº¾
Ġd á»ĩt
4 3
Ġn i
ĠÄĲ áº·t
ĠG áº§n
us tral
nh áº¥t
Ġg á»«ng
Ñ ĥ
t in
ĠE U
v Ã´
ĠH ang
Nh Ã¬n
M ua
Ġk y
ĠB ÃŃch
Th e
L u
T Ã¬nh
ĠB Æ°á»Ľc
Ġ Ãło
ĠMicro soft
Ġho Ãłnh
ÄĲ Ã£
ur a
th á»ĭ
Ġn á»į
Ġg Ã£y
ĠNg Ã£i
ĠL á»±c
ĠL áº¡i
Ġc á»±
T Ã¬m
Ġå ¾
Ã ļ
Ġc Ãºi
ĠÄĲ áº¹p
Ġv Ã¡n
Ng uyÃªn
Ġt áº£n
ĠB Ã¢y
Ġch Ã¢
M P
m er
ĠT á»©
Ġd áº¹p
Ġnh á»¥c
an ce
Ġb Ãłng
] .
ĠÄĲ Ã¡
Ġx Æ°á»Ľc
p ort
ĠPh Ã¹
ar i
ĠNg hi
Ġb Ã¡ch
ĠÄĲ áº¯k
ĠH áº¯n
F A
N á»Ļi
Ġgi Ã²n
ĠV ideo
ĠÄĳ áº¯m
e ng
Ġc á»į
hi p
á»Ľ n
Ġng á»±
Ġ á»ĳm
Ġc á»Łi
Ġh áº¡ch
Ġ4 9
6 00
Ġqu Ã£ng
7 3
Ġs Ãºc
M á»¹
ot t
eg a
Th áºŃt
C ua
ĠN Ãłng
Ġ9 5
Ġl á»į
R O
Ġ á»§
ĠB Ã³ng
c Ã´ng
Tag s
ĠK ÃŃnh
Ġqu áº§y
M S
A P
Ġvá»ĭ t
Ġh á»ĳ
ĠCh iá»ģu
Ġb Ã£
ĠTh á»©c
el sea
ĠB á»ĭ
ĠC áºŃu
ĠC Æ°
Ġngh iÃª
C uá»ĳi
ĠT ai
t á»±
ĠC á»§a
m ail
Ġd áº·n
Ġv o
Ġph e
M áº·t
ï¿½ ï¿½
al bum
ĠHo Ãł
ĠD Ã²ng
w it
u ong
an n
ĠA b
ĠCom p
ĠV al
ĠK á»·
is e
Ġg áº¯t
Th am
ĠHÃł m
H Æ¡n
Ġnhá»Ŀ n
m e
Ġ eo
Ġt Ã¡nh
S á»Ń
ĠSai gon
Ġb á»ĵ
l in
Ġng Ã¢y
Ãº n
Ġr áº½
Ġtr Ã¢u
Ìģ ,
t áº£i
ĠL G
ĠL Æ°á»£ng
ĠT ay
T in
Ġb áº¡t
' s
Ġ8 5
ĠbÃ¹ n
Ġ200 5
ro om
or s
Ġ au
ĠvÃł nh
Ġ it
ĠC ty
Ġs Ã¡p
ĠH iáº¿n
8 00
Ġr Ã¢u
Cua Tui
ĠNhac CuaTui
c ed
B Ã¡o
ĠT á»ĳt
Ġ4 3
ÃĤ N
Ġv Æ°á»£ng
d i
od e
Ġh áº£
ustral ia
it a
ĠX Ã´
ĠS ky
áº ¢nh
ĠAir lines
ĠTr Ã¬
Ġkh á»ĳng
ĠBl ack
ĠS am
ĠCh Ãº
Ġs tr
Ġt Ã³m
ĠS te
Ġv oi
Ġg áº¡t
ĠB V
ĠD á»¥ng
ĠTh iá»ģn
ĠE uro
Ġd á»Ĺ
Ġmáº¹ o
ĠB o
ig h
nh Ã¢n
r l
Ġb Ã¡u
Ġg Ãłng
ĠB á»ĳ
âĢ¦ âĢĿ
ĠC B
raz il
Ġl en
l er
ĠH ÃĢ
ĠL and
ĠMad rid
200 9
ĠG Ã²
Ġç Ħ
ĠSt ar
Ġtr Ã¹m
Ph Æ°Æ¡ng
it ed
t s
ĠC ap
ĠCh á»©c
K T
i ew
Ġl Æ°
á» £p
ĠV iÃª
Ġ7 00
ĠIt al
Ġnh á»Ļn
ĠKh Ãª
Ġac id
Ġå ı
Ġt Ã²
Ġth on
H oa
ĠPh áº©m
Ġc áº¥y
g h
Ġph Ã¬
ĠÄĳ Äĥ
á» ¦
ĠN ote
Ġk áº¹o
ĠCh áº¿
Ġg á»ī
Ġo ff
ĠCh amp
Ġx á»ĭt
ĠS Ã¡u
> >
ĠS al
Ġxo áº¯n
8 6
TV T
Ġk e
A ND
Ġd Ãª
Ġtr á»ħ
Ġgi Ãłn
w er
ĠT Æ°á»Ľng
ĠM áºŃu
ĠV á»«a
en a
Ġvá» ī
Ġ á»§i
ĠN S
ĠTr Ãºc
ĠÄĳ Ã²n
K inh
au l
ĠÄĳ Ã¹i
Ġb á»įt
Ġlo ss
T B
ĠPh Ã¹ng
C Ã¡i
A I
ĠÄĲ áº¥ng
Ġi Pad
Ch i
Ġl aser
ĠCam era
ĠK iá»ĩt
ol a
Ġs á»ıi
ĠPh á»¥c
r om
19 9
ĠVN ÄĲ
Ġd ong
ĠD V
Ġnh Ã¬
ĠM arketing
ĠGi Ã¡p
Q uy
Ġc ollagen
Ġplay list
5 9
ĠGi Ãºp
Ġg ay
4 1
ĠT uyá»ĥn
ĠB itcoin
ĠR iverside
ĠM obile
ĠB Äĥng
ĠÄĲ Ãºng
ĠL ang
M Ã¹a
Ġr ang
Ġ uáº¥t
Ġx áº¯n
ĠO b
M Ã´
Ġlá»¥ a
ĠO ff
200 8
e al
ÄĲ iá»ĥm
ĠM ang
ĠTr áº¡ch
á»Ľ c
n ey
Ã Ŀ
ĠB Ã©
B áº£n
os s
ĠCh elsea
ĠCh uyá»ĩn
Ġb Äĥ
Ġloss less
ĠNh Ä©
ĠK y
ĠY ou
Ġh ÃŃt
b y
ĠCh Ã¹a
Ġh áº»m
Ġch áºŃt
o áº¡n
Th u
Ġf l
Ġnh áº¥p
ĠA ustralia
Q G
ĠÄĳ iÃªu
ĠB áº£y
! "
ĠG h
E M
Ġvá» Ĺ
if one
H Æ°á»Ľng
Æ°Æ¡ m
ĠM á»©c
V Äĥn
ĠB S
Ä ģ
Ġkh uáº¥t
Ġw ifi
Ġk iá»ģm
ĠNew s
ashi ng
ĠB razil
ĠTr uy
M áº«u
B ank
ĠV iáº¿t
T ÃŃnh
if e
Ġå į
Ġx Ã¬
ĠK em
ĠS Ã³c
ĠM uá»ĳn
l es
k r
D C
ĠV ill
Ġlo g
Ġ ðŁ
Ġch á»Ľ
ĠQu Ã¡
Ġg áºŃt
) )
Ġng áº«u
Ġl Ã¡nh
Ġl Æ°Æ¡
Ġsp a
ation al
ĠTr iá»ĥn
er ry
Ġn áº¿n
Ġta p
ĠmÃ£ nh
S á»ĳ
Ġtr Ã¡n
Ġä »
Ġl áº·n
Th ay
ĠI ran
uat ui
ĠThu áºŃt
ĠL á»Ļ
ĠB áº¿p
Ġd Ãło
aph one
Ġb Ã³c
Ġnh á»įn
Ġt Ãº
c uatui
ashing ton
Ġl á»Ļt
in s
¯ a
ĠM il
Ġl anh
w ay
oo th
ĠH á»Ļ
Ġk bps
ĠC Ãºc
ĠN i
Ġï ĥ
Ġg á»Ļi
Ġch Ã©m
A D
Ġp ost
ĠL iá»ĩu
ĠT á»§
ing s
Ġk áº¹t
Ġng áº¡ch
ĠTr Æ°ng
ĠÄĲ Ãłm
r on
Ġ4 7
ĠT áº¡p
T áºŃp
ĠÄĳ á»ĳng
ak i
onal do
t á»©c
Ġh Æ°á»Ľc
ĠG T
K S
Ġch Ãł
ĠG reen
Ġqu ÃŃ
ĠNhac cuatui
ĠI m
ĠH Ã£ng
Ġn an
ĠKh áº£
Ġg olf
Ġl á»Ł
Ġx Ã´
Ġkh ao
ĠM C
re am
ĠkhÃŃ a
Ġtr á»ĩt
Ġmu á»Ĺi
un t
qu e
Ġm Ã¢m
er m
az a
A O
Ġs á»¥p
ĠH iá»ĥu
ĠCh uyá»ĥn
ĠV á»ĩ
ĠK Ã½
Ġx áº£o
ĠS ang
Ġh Ã´ng
b an
ĠM áº¡ng
ĠL Ã£o
ĠNh Ã³m
l l
ĠTo ur
ĠS Ã¢n
ĠCN TT
ĠÂ «
ĠV an
Ġg en
ĠT á»³
ra el
Ġnh Æ°á»Ŀng
Ng uyá»ħn
ĠV P
å ¤
ĠV ÃĢ
Ġd á»Ŀi
Æ¡ ng
Ġn iá»ĩu
Ġngh iá»ĩt
R áº¥t
Ġ4 6
ot el
Ġd áº·m
Ġá» Ĳ
A Y
ĠD onald
ĠS P
ĠÄĳÃ£ ng
Ġt Ã¡t
Ø §
ĠD T
Ġnh áº·t
Ġlu á»Ļc
Ġv uá»ĳt
................ ................
L e
H ome
th eo
iv es
ĠKh ÃŃ
ir c
Ġtá» ³
D u
ÄĲ á»ĭa
Ġng áº¯t
Ġkh áº½
Ġâ Ĩ
O NG
is a
H z
ĠC ÃĶNG
ĠKh áº£i
Ġg á»ĳm
ĠM áº¡c
Ġ4 4
Ġd Ã©p
iet nam
V á»ĭ
ĠR om
Ġm y
8 3
Ġl á»ĳp
Ġmod el
ĠH N
ĠHo áº¡t
Ġc áº±m
ĠR a
Ġnh á»ĭn
Ġr áº¡p
Ġs á»Ŀ
ĠH ong
ĠL á»Ľp
ĠTu áº§n
ut o
Ġkhi Ãªm
uk i
ĠL iÃªu
g en
ĠT á»ĳi
ĠBl u
b ur
Ġg r
it ar
Ġb anh
ar m
Ġmu á»Ĺng
ĠÄĲ á»ı
Ġal bum
t ion
th er
if orn
áº¿ ng
ĠB ro
ĠThu áº¿
Ġl á»Ļi
og a
Ch uyÃªn
Ġch áº£o
ĠU á»·
Ġg om
Ġä¸ Ģ
Ġs Ã¹i
ĠH an
Ġ Æ¯u
ĠP et
Ġc ard
h ay
ĠC Æ°Æ¡ng
ĠW ashington
Ġs et
Ġr á»ĥ
ĠA M
C áº£m
á»£ t
ao mi
ĠD uyÃªn
Ġgi áº¿ng
Ġch Ã´n
ĠB iáº¿t
ĠS á»ĳng
Ġg á»Łi
Ġ as
ĠcÃ³ c
N Æ°á»Ľc
ĠB Ã¡nh
ĠC ro
Ġlo Ã©t
inh o
Ġ4 1
ĠB iá»ĩt
> <
ĠM ong
iforn ia
ĠïĢ ½
ĠCh áº¥p
Ñ ı
Ġnh uyá»ħn
ĠKh á»ĳi
ĠT á»ĭnh
Æ¯ Æł
ond on
ot or
á» Ķ
ĠC or
Ñ ĭ
Ġng á»¥c
ic on
Ġtu á»³
ĠTr Äĥng
Ġch Ã¬
Ġt áº¡ng
v Ã¢n
ĠR AM
H D
Ġu á»·
ĠRes ort
Ġph Æ°á»Ľc
Ġr Ã¡ch
Ġv áº¯t
v an
ĠGr and
Ġph ot
ĠÄĳ Ã¨
Ġo an
ĠmÃł o
% )
ĠM in
ĠM ich
6 1
Ġkh iáº¿p
al og
H á»ĵ
Ġtá»ĵ i
ĠV ND
Ġr anh
ĠC D
Ġb á»Ļc
Ġh Æ°Æ¡
Ġ1 10
el e
H Ãłng
ĠGi ai
ĠV ui
Ġch á»įc
ĠT á»ĳng
ak a
Ġvá» ©
Ġg Ã²
Ġch Ã¹m
Ġmá»ī m
ĠB Ã£i
Ġc au
s c
7 1
ĠM c
Ġb Æ°u
Ãµ m
ht tp
ĠC u
d er
ĠTh o
ain er
ap a
ĠT ag
Ġ5 1
ĠIs rael
t Æ°Æ¡ng
S o
Ġ9 00
, âĢĿ
æ ľ
Ġc á»Ľ
ĠNh iá»ĩt
8 4
Ġæ Ń
ĠbÃº n
ĠH á»ıa
Ġç Ķ
â ľ
Ġch iÃª
ĠKh á»Łi
ou th
ĠÄĲ á»Ļc
Ð° Ð
Ġto Ãł
ph á»¥c
ĠH ome
Ġr ong
ĠJ e
ĠNhu áºŃn
od y
Ġ ex
ĠG o
Ġ at
ĠC M
ĠKho áº£n
ĠNg á»¯
Ġngu á»Ļi
UY á»
ĠP er
ĠH O
ĠS il
uc k
at er
D Æ°á»Ľi
ĠEm ail
ĠAr sen
Ġt est
ĠKh áº¯c
Ġi OS
Ġlo Ã£ng
Ġp r
Ġm á»§
ĠS U
ĠT C
ĠNG H
Ġl Æ°á»Ŀi
ĠR á»ĭa
ĠPh iÃªn
ĠÃĤ n
Ġmu á»Ļi
Ġnh iáº¿p
Ġs Æ°á»Łi
ĠTr áº¯ng
ĠOlymp ic
Ġx uÃ´i
ĠM Ãłn
ĠV TV
ĠC as
Ġä¸Ģ nháº¥t
ĠD av
Å© a
Ġbu Ã½t
ĠP S
ĠM ess
Æ¯á» ľ
ĠM á»Ŀi
ĠV Iá»Ĩ
gi Ã¡
C l
Ġn Ã¡ch
Ġv iáº¿ng
Ġca ch
ĠS E
Ġb á»«ng
S t
ĠKh uyáº¿n
ĠS hi
ĠKho áº£ng
ĠNg Ã´i
Ġb Æ°á»Łi
ĠS V
ist an
Ġv áº·n
et a
ĠB Ã¡i
av el
ĠChamp ions
Ġv Ã£
ĠAng el
Ġh iáº¿p
ĠGi Ã¡ng
ĠMob ifone
T Æ°
Ch áº¥t
Ġáº ¢
qu y
ĠL ondon
ĠM art
ĠD is
Ġt Äĥm
ĠÄĳo an
Ġn uá»ĳt
et ooth
th u
Ġb á»±c
ĠR onaldo
H P
ĠD áº¡
ĠS Æ¡
Ġnh ung
Ġgi eo
x x
ah a
ĠM Ã³n
an mar
Ġr Ã©t
ua l
z a
Ġg áº§y
Ġt Ãºng
ĠJ u
Ġd ay
Ġngh iá»ģn
P P
ĠNh Ã£
l Ã´
8 7
Æ¯Æł NG
av a
A NH
ÃĮ NH
R E
Ġl iá»ħu
Ġn Ãłn
ĠG en
kh eo
Ġch áº£i
Ġk iá»ģu
D anh
Ġy outube
ĠTh Ã¬
ĠCal ifornia
Ġqu e
B áº£o
Ġ5 2
8 2
Ġtho áº£
l Ãł
Ġs al
b e
ĠSup er
Ġg Ã¢n
ĠS á»¹
Ch iáº¿c
Ġng á»¡
c l
Ġng áº·t
. -
it an
D I
ÄĲ Ãºng
ĠG TVT
op y
ĠK r
Ġm áº§u
, "
ĠD es
Äĳ áº¡i
Ġs Ãłnh
ĠPl ay
ĠV áº¥p
ÄĲ á»«ng
s ter
ÄĲ á»ģ
ĠM P
pl ay
ĠTh áº¥y
ĠB á»ī
Ġnhu á»Ļm
ĠâĢ Ķ
ĠVin aphone
Ġvá»ī a
am il
p ool
is hi
Ġm á»ĵi
Ġth Æ°Æ¡
ĠA N
ĠQ L
200 7
A i
5 2
Ġs áº§m
Ġvá»ĭ nh
!! !
ab le
ĠTo wer
Ġ 00
ĠSp a
Ġk áº¹p
ĠçĦ ¡
Ġ or
" :
Ġd Ã¢
Ġgi áº·c
m g
ĠB M
ov er
Ġæ ĸ
Ġ200 4
... ]
O V
ix el
ĠB us
ÄĲ Æ°á»Ŀng
5 4
ĠE r
h am
Â Ń
Ġs c
nh Ãł
ĠL Ã´
ĠH IV
Ġ un
% ;
ĠÄĳ uá»ĳi
", "
Ġb Ã¨n
ĠNh anh
Ġgh en
ĠL uÃ¢n
Ġgh Ãª
ov a
T D
Ġr Ã¡t
Ġkh Ã¡nh
Ġ Ã¡
ĠB log
Ġcom p
ĠTh Ã¹y
Ġk iÃªu
ic al
ĠT áº·ng
ĠK on
Ġl á»Ļng
ĠĠĠĠ ĠĠĠĠ
Ġd ang
ĠMar ia
Ġc á»«
Ġg el
ĠgÃ³ t
ĠnÃ³ n
b r
Nh áº±m
ĠU V
B áº¥t
ĠR ed
em ent
ĠL áº¥y
Ġkáº½ m
Ġå ¦
Ġká» µ
ĠN ay
Ġr áº£i
Ġl áº«y
A NG
Ġb Æ°á»Ľ
Ġstr ess
f o
ĠCh ia
ĠVin a
Ġs á»¥n
ĠTe ch
ĠN okia
ĠK ang
ev iew
ĀĀĀĀĀĀĀĀĀĀĀĀĀĀĀĀĀĀĀĀĀĀĀĀĀĀĀĀĀĀĀĀĀĀĀĀĀĀĀĀĀĀĀĀĀĀĀĀĀĀĀĀĀĀĀĀĀĀĀĀĀĀĀĀĀĀĀĀĀĀĀĀĀĀĀĀĀĀĀĀĀĀĀĀĀĀĀĀĀĀĀĀĀĀĀĀĀĀĀĀĀĀĀĀĀĀĀĀĀĀĀĀĀĀĀĀĀĀĀĀĀĀĀĀĀĀĀĀĀĀĀĀĀĀĀĀĀĀĀĀĀĀĀĀĀĀĀĀĀĀĀĀĀĀĀĀĀĀĀĀĀĀĀĀĀĀĀĀĀĀĀĀĀĀĀĀĀĀĀĀĀĀĀĀĀĀĀĀĀĀĀĀĀĀĀĀĀĀĀĀĀĀĀĀĀĀĀĀĀĀĀĀĀĀĀĀĀĀĀĀĀĀĀĀĀĀĀĀĀĀĀĀĀĀĀĀĀĀĀĀĀĀĀĀĀĀĀĀĀĀĀĀĀĀĀĀ ĀĀĀĀĀĀĀĀĀĀĀĀĀĀĀĀĀĀĀĀĀĀĀĀĀĀĀĀĀĀĀĀĀĀĀĀĀĀĀĀĀĀĀĀĀĀĀĀĀĀĀĀĀĀĀĀĀĀĀĀĀĀĀĀĀĀĀĀĀĀĀĀĀĀĀĀĀĀĀĀĀĀĀĀĀĀĀĀĀĀĀĀĀĀĀĀĀĀĀĀĀĀĀĀĀĀĀĀĀĀĀĀĀĀĀĀĀĀĀĀĀĀĀĀĀĀĀĀĀĀĀĀĀĀĀĀĀĀĀĀĀĀĀĀĀĀĀĀĀĀĀĀĀĀĀĀĀĀĀĀĀĀĀĀĀĀĀĀĀĀĀĀĀĀĀĀĀĀĀĀĀĀĀĀĀĀĀĀĀĀĀĀĀĀĀĀĀĀĀĀĀĀĀĀĀĀĀĀĀĀĀĀĀĀĀĀĀĀĀĀĀĀĀĀĀĀĀĀĀĀĀĀĀĀĀĀĀĀĀĀĀĀĀĀĀĀĀĀĀĀĀĀĀĀĀĀ
ĠT ÃŃch
Ġnh á»ķ
Ġth Ãªu
Ġgi Ã£
Ġph áºŃt
g ent
ĠÄĲ ang
ĠX II
ĠK iá»ĥu
it ion
ĠLe e
ĠâĨ Ĵ
t hi
Ġx Ãłi
» ¿
ĠB TC
ĠTr á»±c
ĠF ran
Ġ200 3
l Æ°á»£ng
ĠÂ ·
ĠPh u
Ġco de
ÄĲ á»©c
nh á»¯ng
Ġr á»§
Ġb áº©m
Ġc áº©m
Ġå Ĳ
Ġ7 2
Ġch Ã©o
a e
Ġ18 0
D S
ĠBH YT
Ġkhi Ãªu
ĠUy Ãªn
ĠçĦ¡ vÃ´
Ġph iÃªu
Ġtr iÃª
Ðµ Ð
Ġd Ã¬
f ord
ĠÄĳ ao
ĠTh oáº¡i
b in
ĠArsen al
ky o
Ġkh inh
Ã© c
Ġb ack
ĠTr i
Ġb Ã¢
ĠNg Ã´n
Ġäº ĳ
Ġchap ter
ĠÄĲ á»ĳng
ĠV y
Ġkh ay
B Ã¡c
z u
Ġd á»¡
Ġt Æ°á»Ľc
ĠD an
áº¦ N
ĠV Ã²ng
ain e
ĠT uáº¥t
ĠS áº½
Ġm ore
D F
Ġäºĳ vÃ¢n
ĠV itamin
V á»«a
ĠMy anmar
ĠM it
Ġv Æ°
ester ol
ÄĲ i
Ġ5 4
Ġ us
% /
Äĳ á»ĥ
v en
p a
ac ute
âĢ¦ )
ĠK Ã´ng
Ġ3 60
B T
Ġto an
Ġr Ã²
Ġs eo
á» ¨
Ġm icro
Ġng áº¥t
p age
R e
ĠM u
Ã Ĳ
Ġs á»¥t
Ġå Ī
Ġ en
v á»Ľi
7 00
Ġh Ã¢n
ced es
Ġæĺ ¯
5 8
ĠP GS
.... ..
ĠM áºŃt
ĠSp ort
ĠA T
Äĳ Ã£
Ġw ith
on s
I P
Į C
ĠT á»©c
N áº±m
ĠPh ÃŃa
Ġnh ai
Ġd Æ°ng
r m
ĠCh Äĥm
Ġ6 3
ĠM Æ°á»Ŀng
M áº¹
ĠA C
kho áº£ng
5 6
ĠL áº¡ng
ĠPh á»ķ
Ġæĺ¯ thá»ĭ
ĠM at
o int
h á»¯u
b i
Ġx á»ĳp
Ġho áº¡
ĠÄĲ Ãªm
Ġh ack
Ġnh iá»ħu
ĠM el
Ġh iÃªn
G áº§n
Äĳ Æ°á»£c
ĠNg Æ°á»£c
ĠR ang
Ġl Ã¡ng
ĠN áº±m
ĠhÃ£ m
ĠW ord
ĠGi áº£m
ĠT Ã¡m
ĠS áº¯c
Ġ Æ°á»Ľp
ĠQu áº§n
Ġvá»£ t
Ġc Ãło
Ġm Ã¢
Ġth áº¡o
D L
tr ung
Ġh uyá»ĩt
ĠM áº¡ch
ell a
ĠB en
p y
Ġd ec
O L
ĠP ower
á»ķ n
ĠKh Ã³a
ä º
T iÃªu
ĠOb ama
ot te
Ġ19 75
iver pool
ĠY o
ĠV u
Ġg áº§m
ĠE co
t d
Ġho Ã£n
Ã Ĵ
d ro
ĠTh iÃªm
ĠM iá»ħn
ĠGI Ãģ
Q uyáº¿t
Ġ @
__ __
Ph im
ĠPrem ier
ĠC á»ķng
Ġgi Ã²
ĠI V
C áº£
s au
Ch u
Qu áº£ng
Ġg áº¥u
ĠM T
Ġv n
ĠCh ar
ĠTo kyo
ĠXi aomi
ĠB er
C ÄĲ
Ġch á»Ľp
ĠUn ited
p earl
Ġc Æ°ng
c Ã´
T u
o use
Ġ2 20
ĠÃĲ á»©c
om b
Ġcu Ã´
ĠT áº¡
b al
ĠÄĳ Æ¡
ĠK CN
ĠC Ãģ
Ġr á»Ļ
ĠL áº¡p
Ġc áº©u
Ġl á»ĵn
ĠNh ung
ĠT iáº¿t
Ġb alo
P N
Ġch Æ°á»Ľng
ĠM á»Ł
ĠIS O
ac o
ĠB ig
1 50
ĠCá»© u
B á»Łi
Ġkhuy a
th Ãłnh
ĠM Ã´ng
TT g
j a
Ġn áº£n
ĠO p
ĠS i
ter s
H S
et t
D Ã¢n
ĠHo l
Ġ6 8
d uc
ĠK á»ĥ
M I
Ġd r
Ph Ã³
Ġé ģ
ĠK ing
Ã³ p
ĠT iá»ĩn
Ġvá» ±ng
ĠcÃº m
ĠKh Ã¡c
ĠJ ack
U NG
L Ã½
ĠGi áº£
D N
Ġl ay
V ÃŃ
Ġh Äĥng
or a
ip s
ĠG l
k o
ĠK ong
Ġ8 8
ĠL iá»ħu
ĠÃģ p
Giá» Ľi
ĠbÃ© n
Ġl á»Ńng
n y
Ĥ «
Ġ5 6
ing roup
Ġth áº£n
at es
P C
Ġho i
per ia
ĠHÄĲ QT
ĠB iá»ĥu
ĠD Ä©
Ġn Æ°
ĠT Ã¡t
ĠC áº£ng
ĠM os
Ġd áº¡n
Ġcho l
Ġtá»¥ i
ĠBan k
Ph á»¥
st ar
ĠGi Ã¡c
am i
Ġc á»Ĺ
Ġqu áº¥n
ĠTh uyáº¿t
s inh
Ġh Ã©t
ĠN iÃªn
5 3
ĠG B
at in
Ġch á»ĳc
ĠM Ã¹i
Ġ> >
ay a
C Ã¢y
b iz
s er
Ġn Ãłnh
ĠV Æ°á»Ŀn
wit ter
T Ã¢n
Ġm áºŃp
ĠVi ew
áº¬ T
ai r
Ñ Į
an i
an c
Ġtr áº§y
Ġ el
sh ine
w ork
Ġ- -
Ġi phone
ĠChu áº©n
Ġm Ã¡c
200 6
ĠU kr
ĠR á»ĵng
ĠE ng
os ter
gi áº£
er r
Ġquy Ãª
ĠKh Ã¡m
Ġxo ang
Ġc at
áº ®
ĠH iá»ĥn
x Ã£
U SD
H á»į
Ġch Ã¨n
ĠS w
Ġn á»ĩm
ĠP in
Ġæ ķ
Ġt Æ°Æ¡
p ro
ĠK i
5 7
ĠD el
Ġl Æ°á»£n
ĠbÃ¬ a
ĠM ag
Ġc Ãºp
Ġ5 9
CC C
agr ave
Ġb áº¡
ĠChr ist
ĠÄĳ iá»ģm
ĠvÃł n
x e
Ġc á»ĳi
? âĢĿ.
Ġnh á»įc
Ġs áº¿p
P r
ĠV á»ĭnh
F C
Ġn oi
ĠV ingroup
x em
ĠS how
ĠA lex
T á»ķ
ĠNg Ãłnh
Ġs áº§u
ĠE le
ĠM ore
Ġch Ã³i
S inh
Ġng áºŃm
Ġs ty
ĠL iverpool
ĠÄĲ á»Ŀi
ĠS n
T á»ĳi
L á»Ŀi
d u
ĠL i
Ġj e
ason ic
Ġgi u
ĠM á»«ng
Ġcont ainer
âĢ¦âĢ¦âĢ¦âĢ¦ âĢ¦âĢ¦âĢ¦âĢ¦
ex ico
ĠPh a
áº½ n
Ġngo áº¡n
Gi Ã¡o
ĠT áº§ng
Ġchu i
ĠS á»¯a
Ġho st
Ġm iÃªu
T O
Ġch uyÃª
ĠN et
ĠM Ãª
Ġthá» ı
ĠV ol
ht ml
Ġnh at
Ph Ã¡p
at or
T Äĥng
d otel
ĠRe ad
ĠÄĳá»Ļ n
Ġ Ã¢
ĠE ver
ĠS Ãłn
it t
ĠAl l
B A
Ġd es
C L
m en
ĠTr Ãłng
f Ã©
Th á»ĭ
Ġs ho
Ġvá»© t
Ġs á»«ng
com bank
ĠG P
áº ¶
ĠÄĳ Ãłng
áº¢ N
Ġchol esterol
on y
az on
Ġv Ã´i
Ġg ym
w ood
c c
ĠW ar
ĠPh ÃŃ
Ġ5 8
C om
Ġ= >
Æ°á»Ŀ m
Ġph Ã¡c
Ġå ¸
Ġn Ãªm
Ġth á»ĳi
N V
Ġlo an
Th Ã¡i
Ġqu áº¥y
Ġl áºŃn
ĠÃģ i
T A
ĠW al
ĠT á»ĳ
ĠB os
Äĳ á»ĳi
ĠT áº¡ng
ĠS l
i i
ĠTh áºŃp
ad o
Th iÃªn
L áº§n
Ġg áºŃy
ĠL ed
w ard
Ho Ãłng
ĠH ill
ep t
Ġc r
Q H
Ġx Ã©
Ġ3 50
Ngh e
m Ã´n
Ġg á»¥c
p hi
Ġkh á»ĳc
Ġs áº£nh
ph a
ĠMer cedes
ĠL aser
Ġng Æ¡
H uyá»ĩn
if ic
ĠC Ã´n
ĠIn tel
Ġm áº¯ng
e ed
Ġc Ãºc
f r
Ġâ ľ
Ġ19 00
er y
ĠPh á»¥ng
H y
ĠPl aza
ĠC EO
M á»¥c
ĠV á»£
giá» Ŀ
Ġfor m
Ġnh á»ĵi
Q L
ĠH Ã²n
ĠI D
Ġb lock
Ġnh Ã¡y
ĠLu áºŃn
Ġæľ ī
áº¬ N
C á»Ńa
Ġn Ãª
Ġr áº¡n
ĠF LC
Ġgi rl
ĠNh áºŃp
ev el
Ġkh an
Ġ5 3
Ġxu Ã¢
B Ãłn
ĠMob i
ct ion
Ġc áº·n
Ġch Æ°ng
ig a
Th Ãªm
Ġl iÃªng
th anh
ĠS mart
Ġs il
Ġgi Ã¡ng
Ġthá»¥ c
Ġto Ã¡t
Ġnh áºŃu
gent ina
ĠV iÃªm
d ay
our inho
ĠG eo
Ġch at
m y
Ġ ).
ĠA g
ĠT Æ°á»Łng
M A
C V
Ġr á»Ĺi
ĠÄĲ áº£m
ĠL ÄĲ
ĠÄĳ Å©a
Ġnh Ã¡i
ĠN AM
ĠJ o
T E
ut in
ĠS á»ķ
b ox
ĠN Ãºi
ÄĲ á»Ļi
ĠS ol
ui ld
A V
Ġph ai
Ġå ľ
ĠL CD
Ġth áº¯p
w ord
l ic
Ġä¹ ĭ
Ġnh Å©
Ġr ob
x in
Ġkh ÃŃt
Ġæľī há»¯u
201 9
Ġ9 8
os hi
ĠM r
Ġ %
Ġngo a
Ġå ¿
Ġt áº¡c
Ġ ep
Ġm Ã©p
ĠT uyáº¿n
Ġth iáº¿p
ĠL Ã¡
Ġv Ã¡c
ĠM exico
Ġr Ã²ng
Ġ6 2
ĠÄĲ á»ĳc
u z
ĠT Y
Ġth áº¯n
ĠnhÃł m
ĠT om
Ġr áº£nh
Ġè ¦
ĠNgh iÃªm
ĠT Q
ĠL áº¯p
Ġcom ment
Ġm obile
ĠR oy
C am
Iá»Ĩ N
H áº§u
Ġ6 9
Ġkhu áº¥y
Ġbá»ķ n
ĠâĢ ĭ
ĠCh á»¯
Ġä¹ĭ chi
Ìī ,
ĠTr áº¥n
ĠW est
G A
ĠDav id
ÃĢ N
5 1
Ġh Ã³c
Äĳ á»ĵng
Ġd ata
Ġbu s
Ġph á»Ł
ĠÄĲ Ã¡ng
ĠUn ivers
ĠHo tel
Ġth ÃŃnh
Ġqu á»³
ĠCh á»ĳng
Ph áºŃt
ĠP CCC
Ġn ew
ĠCon t
Nh á»Ŀ
Ġ ~
im a
ch er
Ġl á»¥t
Ġm on
os a
½ ©
) -
Ġt áº¥u
Ìģ .
ĠY am
Ġk Ã©t
. )
ic an
Ġc ity
Ġb á»Ľi
Ġg oogle
Ġn Ã¡o
ĠT witter
ĠT K
Ġph Ã´ng
Ġth at
' ,
ĠT um
or ia
Ġh áº¯c
ĠX Ã¡
T iá»ĥu
Ġch áº§n
Ġvá» Ľt
Ġl Ã©n
ĠB inh
ĠCh Æ¡i
Ġkh á»ĳn
ĠN ov
ĠC á»±c
Ch ia
v á»ĭ
ĠT á»ĳc
Ġr Ã£
ĠKh a
ĠH TX
Ġphá»¥ ng
ph Ãºt
ĠK ar
il le
d ate
nh Æ°ng
Į nh
ĠQu áº¿
ĠÐ ¿
s á»±
ĠÄĲ en
Ġr á»Ľt
á» ļ
ĠNh iÃªn
Ġchu á»ĵng
ĠÄĳ áºŃy
ĠVIá»Ĩ T
Ġnh Ã¡t
Ġn iá»ģng
â ĸ
Ġngh áº¹t
ĠC á»§
ĠD Ã¢y
ĠVin pearl
ĠAr gentina
Ġho rm
Ġr Æ°á»Ľc
Â °
g ed
Ġthá»§ ng
th á»Ŀi
ĠW e
Ġqu áº¿
Æ¯á» ļ
Ġb á»ĩ
Ġr á»Ĺng
or i
ĠmÃŃ a
n ational
B uá»ķi
¥ nh
ĠÄĳá» Ŀ
Ġp iano
ul t
ĠM aster
ĠIn st
U B
ĠM us
Ġd au
ĠW ill
ĠI r
ĠL Ãłng
ï »¿
Ġg áº·t
Ãģ N
9 2
Ġ are
Ġ \
ĠS G
9 00
Ġ12 8
ĠD ao
TT Q
ĠM ourinho
Ġs ize
A h
Ġng á»ĳc
ber g
ĠKh Æ°Æ¡ng
Ġth áº£y
ĠD áº§n
ĠS outh
ĠTim es
v Ã¬
Ġm iÃªn
ĠS tr
Ġ12 5
ĠÄĳ Ã¡i
Ġ13 0
Ġs áºŃp
t áº¡i
Ġd iÃª
Ġtu Ã½
Qu an
Ġn áº¿m
ĠH áº¡t
ĠV ict
h uyá»ĩn
Ġch áº±m
I L
Ġr en
Ġl im
ĠH Ã¢n
N á»¯
ĠKhu Ãª
T Ãłi
ÃĢ I
Ġqu á»µ
m ua
n ing
at o
Ñģ ÑĤ
ĠM S
Ch ung
N Ã³
-------- --------
Ġch eck
N Q
200 5
ĠC V
B Ã¢y
ĠGold en
Ġx ua
Ġho áº¡n
ĠP a
å ı
Ġg áºŃp
Ġ5 7
ĠCh Ãłng
2 24
cr ip
p ad
Ġä ¾
ĠH Ã´
Ġc alo
ĠS Ã¡t
âĢ¦ ,
ĠCen ter
z ada
ĠS apa
Ġo Ã¡n
ĠL áº¯k
ĠH á»ķ
Ch uyá»ĩn
F i
Ġl áº©u
Ġcho Ã¡ng
Ġr á»ķ
ĠMess i
L oáº¡i
and a
T oÃłn
ĠV ÄĲ
ĠM iss
g an
ĠR O
ĠKh anh
ĠCh inh
tr y
Ġkh áº¯t
T W
t Ã¢m
ĠP M
Ġquy á»ĩn
eal and
v iet
V á»¥
2 50
ĠN Ã¢ng
ĠG a
ĠC R
Ġcá»« u
Ġshow room
ĠY outube
Ġn á»ī
Ġch Äĥ
em e
ĠP i
v iáº¿t
ĠH TC
Ġb áº»
Ġres ort
c á»ĳ
ĠÄĳ á»ĳ
ĠGD P
ĠD áºŃu
Ġb áº«y
Ng uá»ĵn
s á»ĳ
Ġphá»ĳ t
Ġv áº¥p
ĠL aptop
Ġ- >
ĠGiá» ĳng
Ph áº£i
Ġru á»ĵi
ĠL in
Ġth áº¡c
Ġæ Ľ
Ġth iÃªu
ĠT uyá»ĩt
Ġhá»ĩ t
Ch áº¯c
Ġç Ľ
Ġngh Ãª
D Ã¹ng
ĠD O
ol i
Kho áº£ng
T Ã¡c
one y
s Æ°
Ġph iáº¿n
ub a
Ġch Ã´
l ish
Ġst art
cel ona
s an
w in
Ġc áº¡o
Ġå¦ Ĥ
ĠD H
in ess
ot ov
X D
Ġn áº¥y
Ġmen u
T Ãªn
m Ã¡y
ĠTr a
á»£ n
j ect
Ġngh áº½n
us h
Ġm Ä©
Ã Ĺ
j et
9 6
ĠX Ã©t
Ġch en
an y
Ġl iÃª
Ġ200 2
t Ã´i
ĠL á»Ľn
Ġ6 6
D T
ÄĲ áº¥t
Ð ²
áº ¨
C o
ĠTr á»¥
Ġta b
d ex
Ġtr Ã¹
at ar
ĠV Ã¹ng
ĠT AND
Ġsty le
Ch á»įn
ĠW i
Ġnhá»Ľ t
Ġp oly
ĠC TC
ĠC áºŃn
ĠA p
Ġ áº£
E X
l or
id a
ch á»ĭ
Ġï ģ
e on
Ġs Ã¡o
ĠA v
ĠH am
Ph ong
L á»ħ
Ġh Ã©
ĠÄĳ á»ĳm
ÄĲ Ã¡nh
Ġv Ã²m
ĠTh ÃŃ
Ġx áº»
ĠP R
c ar
c Ã¡i
ĠU N
ch Ãºng
Ġh inh
Ġr áº¡ch
c á»§a
ĠV C
Ġng áº£
20 20
c Äĥn
qu áºŃn
ĠD inh
ĠM á»Ļng
á» ¬
c Ã¡ch
ĠD Æ°
B L
ĠPh ao
Ġg Ã¡y
ĠG ar
ĠX Ã¡c
EL TS
sub ishi
Ġw h
Ġ199 0
ĠNg á»į
oc opy
c ity
m ark
Ī Ĵ
t am
ĠNh á»Ľ
b áº¡n
ĠS ho
ĠJ un
y n
ĠH iÃªn
ch ester
Ġc Ãły
ĠL Ä©nh
d s
ĠÄĲ á»ģn
Ġthu á»Ł
ĠM á»Ļ
Ġx Ã¡t
Ch Ãº
Ġd ep
Ġnh Ãłn
Qu áºŃn
ĠF u
aw a
k hi
it r
Nh áºŃt
ĠPan asonic
Ġl Å©ng
Ġtr Ãªu
otov ietnam
Ġl Ã¡ch
Ġsan otovietnam
Ġ om
Æ¯á»ľ NG
T K
Ġç ľ
ĠH el
ur n
' .
Ġho c
ĠL Ã²
Ġn ung
ĠPh Ãª
ÄĲ Äĥng
w are
âĢĻ .
âĢĿ ;
Ġdec al
l ink
ĠS m
] [
Ġr Ã£nh
Ġc Ã²i
Ģ N
ĠD ell
ĠV H
ÄĲ oÃłn
ĠZ ealand
Ġm ail
ĠM az
Ġtá»¥ t
Ġtá»ĳ ng
Ġæ ³
Ġmu Ã´
ch ain
es h
ĠThu Ãª
B áº±ng
ĠGi áº£ng
c i
ĠJ ose
Ġc Æ°a
ĠÄĲ áº±ng
ĠM etro
Ġs Äĥ
ĠB B
Ġb en
ĠR em
ĠBu Ã´n
Ngh iÃªn
Ġrob ot
Ġt áº¥p
Ch Æ°a
ĠP utin
d Ä©
Ġb Ãºp
ot ton
ĠD ong
pl ant
Ġ16 0
ĠB uá»ķi
N Ãªn
ĠM áº¥y
ĠH á»ıi
Ġ {
ĠBM W
P L
h an
Ġe uro
Ġdi en
Ġ6 7
ĠTh ao
ĠÆ¯ á»Ľc
k s
ĠL en
ĠTu á»ĩ
Ġk Ã¬m
Ġl ike
tr i
Ġvá» įt
Ì£ ,
ĠR ao
Ġm g
ĠSun shine
Äĳ Æ°á»Ŀng
ĠHá» ĮC
il d
ĠxÃŃ u
Â «
Ġho Äĥ
ĠX á»Ń
Re ad
ĠBlu etooth
Ã² e
ĠD iá»ħm
qu a
ĠB áº¯t
ĠBar ca
Ġv ÃŃt
ĠU l
ĠA sia
ĠN N
Ġt áº©m
ĠD ai
! âĢĿ.
Ġs áº¥u
Ġ Ãª
ĠHo Ã¡
ÄĲ iá»ĩn
Ġte en
V C
ĠTr áº¡m
8 1
Ġ app
n i
s i
ĠNh á»ĭ
ĠÄĳ Ã¨o
Ġc as
ĠX a
Th Æ°Æ¡ng
ĠP P
S ao
g a
s k
ĠS ec
ĠCS GT
ĠïĢ «
Ġkhuy nh
M Ã£
for m
u is
a el
Ġg l
k ok
Äĳ a
H N
S á»Ńa
ĠC á»±u
Ġnh áº¥c
ĠX I
Â ®
ĠCl ick
P l
ĠJ ong
Ġ6 1
Ġl on
T á»§
ĠI ELTS
ĠM ark
Ġng á»Ńa
á»¥ i
Â ²
ĠItal ia
Ġvi p
Ġch Ã¹i
l ad
Ġ ^
ĠG á»įi
X uáº¥t
T Æ°Æ¡ng
Ġx oÃłi
ĠP T
M C
Ġ Ãºy
Ġb uá»ĳt
Ġæ ī
th iÃªn
H O
Tr áº£
Ġ ....
ĠC Ã¢n
R L
Ġn Ã¨
Ġnh Ãºng
ĠA FF
ĠSu z
Ġt á»§y
ĠÄĳ áº£
Ġ200 1
b it
Ġthá»Ń a
Ch iáº¿n
H Ãłnh
Ġca p
I ÃĬN
ĠV er
P ro
Ġm áº«n
Ġx Æ°á»Ľng
c Ã²n
Ġå ®
Ġc ac
Ġser ver
Ġt áº£o
pp o
ĠVI P
ĠFor m
ĠAm azon
ĠGi Ã³
ĠN Ã´
ĠTh a
ĠèĢ ħ
el a
lo ud
ĠCh ap
g mail
et te
Ġph á»ĵng
Ġn á»©c
ab y
ĠBar celona
ĠL Ã¢u
ĠG ames
S C
Ġng áº¥m
ĠB L
ĠM un
ĠD á»¥c
Ġå °
Ġl iáº¿c
ĠN Ãły
Â ·
K á»ĥ
D iá»ħn
Ġthá» ģ
Ġg Ã²n
ĠL Ãªn
d io
Ġnh e
ph ong
el f
ĠC anh
ĠèĢħ giáº£
Ġm áº©n
ĠH ung
ĠT á»Ľi
Ġlá» «ng
Ġh d
ĠM ed
1 20
Ġth á»ĳt
Ġtr Äĥn
E F
and al
Ġb á»ĵng
ĠU p
Ġt Ã¡ng
Ġé Ľ
Ġt p
Le ague
or m
ĠTr áºŃn
ĠO pt
ĠInter national
Ġm á»ĳt
ĠE book
Ãį NH
Ł d
Ġkhi Ãª
Ġ Ãºt
ĠH áº¡o
ĠG á»Ĺ
Äĳ á»ģ
Ġca fÃ©
Iá» Ĥ
ĠJ et
ig er
ĠTr ans
Ġb Ã¡i
ĠB al
ĠS T
ĠNh o
ĠO anh
ĠTr Ã£i
ĠN at
Ġtr au
o id
Ġ _
ĠÄĲ á»ĵn
D iá»ĩn
Ġhá» Ŀ
Ġs áº£ng
Ġf ree
ĠT á»ĭch
ur y
Ch áº³ng
ĠA ud
Ġm Ã¹ng
Ä Ĥn
ĠSeo ul
k inh
ra q
ĠTh iá»ĩu
Tr áº§n
l am
ĠGT GT
ĠPV C
Ġ ar
Ġviet tel
ĠL ink
Ġ7 9
h iá»ĩn
ĠP e
is ion
Ġm á»ĵm
ro w
er al
ĠL iá»ĩt
ĠM áº¯t
E x
Ġvá»¥ n
Lu áºŃt
Ġch áºŃp
ĠH á»Ļp
Ġmi x
ĠR iver
88 8
ĠM Å©i
Ġng Ã³
k ing
ĠCen tral
m inh
ĠïĢ Ń
r it
ĠN V
å ½©
Ġáº ¨
s m
Ġb l
ÃŃ u
Ġ[ ...]
rol et
ĠTh Ã´i
ĠM as
ĠPH Ãģ
T iá»ģn
ĠRes id
ĠC á»ĳc
ĠL oa
Ġm oi
Ġb iáº¿u
ĠK T
b Ã¡n
ev rolet
st em
at ia
Ġnh á»§
C ung
ĠÄĳ Æ°
áº³ m
ĠT D
ĠMod el
Ãµ ng
ĠM B
B ao
Ġc uá»ĳng
ĠG em
ĠTH U
ud e
Ġl Ã¬
ĠÄĳ áº¥m
ĠÄĲ o
ĠCh Ãło
T iáº¿ng
á» ª
Ġ Î
ĠR ich
ov o
Ġ áº§m
Ġt áº·c
ĠH al
ĠH Ãłi
Ġ8 6
ĠÄĳ áº½
Ġ7 3
Ġd Æ°Æ¡
Ġç Ĥ
T Ã¹y
ĠÄĳ Ã´n
ir a
ĠB Ã¨
Ġh Ã¨n
l ight
ĠUkr aine
Ġ ]
g et
ĠM edia
um b
Ġb Äĥm
s anh
c ess
ĠTh Ã¡m
Ġ19 99
Ġb iáº¿ng
Ġd Ã´ng
ĠC Ã¡n
ÄĲ Ã¨n
E P
ĠMaz da
Ġè ĩ
ĠÄĲ á»ĩ
ĠQu á»·
Ġn Ã©
ĠJ ames
M uá»ĳn
ĠTr avel
ĠB ill
ĠD iá»ĩm
Ġ8 9
Ġth ung
ĠI raq
Ġn et
A l
Ġph Æ°á»£ng
ĠH áº£o
Ġch Ã¨o
ĠB ol
Ġ1 01
ik i
ĠWh ite
X Ã¢y
ĠSh in
Ġs Ãłi
Ġ ap
Ġ áº¥u
V iÃªm
Ġm Ãºt
Æ¯á» ¢
ĠD ay
Ph Ã¢n
ç ¥
ĠAr ch
ĠTr Ã²
ĠT i
áº¦ U
ĠB T
Ġn Ã£y
Ġng Ã³i
Ġlá» Ŀ
ec o
Ġkh á»ī
Ãģ o
K im
ĠG am
¸ ı
Tr ao
ĠÄĲ Ã¡p
tre am
ĠPh Ã³ng
Ð¾Ð ²
ĠGiá» ¯a
Ġthi s
ĠG V
h y
ĠX X
ĠCh iÃªu
00 00
ĠP aul
Ġ9 6
ĠDV D
à ¤
ĠKh Ãºc
Ġ9 2
Ġæ Ī
ĠS S
ĠX Æ°Æ¡ng
Ġn á»Ļ
Th uá»ĳc
ĠCom ment
Ġr Ã¡n
ĠP ost
Ġ14 0
ĠT ui
ĠMit subishi
ĠG Ãł
Ġ8 2
ĠGeo r
Ġå¤ §
Ġxo Ã¡y
ĠÄĳ Ã¡n
A A
Ġthu Ã´
ĠT Æ¯
ĠS ant
Ġh á»ĳt
H C
Ġh en
ah oo
ĠQu Ã´
A r
tr on
Ħ N
Ġh an
ĠL Ã¢n
.. ...
ĠTh Ãº
Ġ4 50
es e
Äĳ áº§u
Ġ8 1
Ġcá»Ń u
Ġl á»¯
ĠK Ãªnh
ĠR anh
is co
Äĥ k
Ñ ĩ
qu an
e ch
ÄĲ Ã´i
iel d
ĠçĤ º
ĠH Ã¡t
ĠM en
ce an
Ġr Ã³t
Ġ7 8
« sÆ°
Ġh áº¡m
] ,
Ġngh Ãªnh
h á»įc
th á»Ń
Ġå¦Ĥ nhÆ°
B M
M Ãłu
ĠTr Ã¡nh
Ġa b
at s
ch á»§
Ġn á»ĥ
ĠH Ã³c
ĠT Ãºi
á»° C
å ħ
Łd Ã£
r Ã´
Ġv Äĥng
Ġä¹ ŁdÃ£
ÃŃ p
ik a
Ġh á»§
ĠI N
Ġs áº¡m
Ġkh ang
T R
ĠR am
Ġ24 0
B áº£ng
y o
iv al
k en
ĠR áº»
Ġv Ã¡
ĠG el
ĠS C
< /
Ġgu itar
Ġphot ocopy
ĠbÆ°á»Ľ m
ag o
S ong
ĠB ÃŃnh
V áº¥n
ĠK áº»
ĠA ss
c ao
Ġ7 1
ĠK ia
r u
il a
ĠF I
Ġs á»įc
S im
m obile
Ġg á»įt
Ġhá»ķ ng
v Äĥn
T á»±
ill a
ĠBang kok
Ġv Ã¢ng
ĠH er
th iáº¿t
ĠA B
Ġqu ai
h ai
Ġ Ñģ
M E
Ġkh ong
ĠT Æ°á»£ng
Ġph Ã´i
Ġthu Ã¢
ad ing
2 25
ĠbÃª nh
ĠTo Ãł
g in
Ġm iÃª
Ã ¤
Ġx Ã´n
ain t
Į h
ĠçĶ Ł
Ð ¼
ĠB Ãłng
ĠM TV
ï ¸ı
t Äĥng
ĠHo use
ĠA R
ĠU á»ĳng
ĠMan chester
ĠS O
Ġäº º
ĠGh áº¿
th Æ°á»£ng
ĠX V
ĠC Ãłng
Ġthá» ģm
bo ard
K iáº¿n
á» Ĩ
¥ c
Ġr em
p o
Ġh anh
y s
ĠD C
ĠÄĲ áº¥u
ĠC uba
Ġb áº§y
áº¢ I
ÄĲ Ãł
ĠK e
al a
Giá» Ŀ
ĠÐ ²
% ),
Ġv ung
Ġ Ø
ĠÄĲ áºŃu
ĠM otor
Ġå¸ «sÆ°
ĠV áº«n
Ġ8 4
áº© ng
Ġg Ã¢
ĠKh Ã´i
Ġb Ã³i
ĠO s
ĠkÃŃ p
H áº£i
Ġth áº¯m
2 000
v o
bur g
200 4
Äĳ i
ation s
Ã Ļ
Ġ amin
ĠAr t
Ġn uá»ĳi
em on
ĠS X
Ġn Äĥ
Æ £
th Æ°á»Ŀng
Ġph áº¥t
ĠÄĲ Ã´n
ĠLu Ã´n
Ġch á»«
ĠTr áº£
ĠF in
ĠL au
Ġd c
ĠÄĳo a
Ġph Ãłm
ÄĲ áº·t
Ġgiá» ı
ĠH uÃ¢n
ĠL á»¯
ĠCS VN
ĠT Ã½
ĠCl in
Ġy oga
Ġx á»ĩ
ĠRoy al
ĠC at
f er
ĠP as
S V
ĠPh á»ĳi
Ġv áº§n
ad er
ac om
ĠC áº£i
ĠS á»©
ar ch
ÄĲ á»įc
Ġtr Æ°
ĠMil an
ÄĤ N
ĠB Æ°u
M O
ĠâĢ¦ .
ĠM TTQ
c Æ¡
ĠV Ä©
Ġkho Ã¡t
ĠB CH
ang e
c an
Ġd at
ĠD á»ħ
il m
% ).
Ðµ Ð½
Ġvá» Ŀ
ĠYam aha
ĠTh ai
ĠX u
Ġhu á»·
ĠIn n
ĠV n
Ġtá»¥ y
ĠçĶŁ sanh
Ġng áº¡o
Ġd á»©a
S A
Ġy our
Ġs l
d oc
Ġs Ãºp
H ÄĲ
Ġ á»©
ĠAm er
ĠCh Ã¡u
ĠçĤº vi
áº¾ T
ĠO m
Ġh cm
ĠA I
ist a
S P
L L
C áºŃu
Ġ7 6
Ġd Ã¨
ĠÄĲ iá»ĩp
k im
Nh Ã³m
Ġnh Ã³c
ĠMich ael
Ġå ī
ĠNg Æ°
ĠL Ã²ng
== ==
Ġhorm one
ĠQ uyÃªn
Ù Ħ
II I
Ġbá»ĭ t
ĠâĢĭ âĢĭ
ĠS Ã¢m
Ġtr Ã³i
ÄĲ á»ĵ
N et
ĠM or
D Ã²ng
th áº¿
Ġh Ã¡o
ĠV isa
ol og
ĠGr ab
Ġc ty
Ġg Ã´
PT NT
ĠH T
H áº¯n
âĢ¦ ..
Ġch an
Qu Ã¡
f l
å¤ ©
ÌĢ ,
Ġco py
all et
ĠPrem ium
ĠTh an
te ch
... )
ĠmÃª nh
Ġth áº³m
Ġfl ash
Ġs áº¡t
ĠA TM
ĠCh iáº¿t
Ġc otton
H Ã£ng
ĠS ak
ĠV AT
R á»ĵi
ĠK iá»ĩn
Ġtá»ī a
ĠBl ue
ÃĤ Y
ĠF C
ĠV á»įng
n b
iss an
ĠT áº¥m
ĠH igh
Ġnháº¹ n
ÄĲ Æ¡n
) âĢ¦
Gi ao
ĠKH ÃĶNG
ĠGi Ãły
ĠvÃµ ng
Ġç ķ
Ġm in
9 7
kh u
Ġäºº nhÃ¢n
vi ew
ĠF ree
S T
Ġtr Ã³c
th e
Â º
app y
o und
Ġè «
lo bal
ĠL ight
Y Ãªu
ĠM Æ¡
th Ã´ng
ĠG á»Ńi
å ®
y e
CO M
ĠCh Æ°
Ġn á»Ľi
ĠThu á»·
ÄĲ a
re at
ĠL uyá»ĩn
ĠHÃĢ NG
ÄĲ Ãªm
Ġå Ľ
ĠCro atia
ĠS um
Ġng áº¡t
ĠR ep
Ġv ali
ĠCP U
T inh
Ġtruy en
ĠT an
ĠI phone
Ġkh iáº¿m
Ġo ut
Th Æ°á»Ŀng
Ġta g
ĠLu x
à ¹
ĠT ur
9 4
Ġm ÃŃt
gi áº£i
Ġvá»¯ a
ĠNh iá»ĩm
Ġ Ã¹n
Ġser ies
Ġd áº§m
k iáº¿n
ĠN or
enn is
ĠH Ã¨
F one
ĠC le
k á»³
ĠÄĲ á»ķi
Ġgi áº¥m
ĠT Iáº¾
crip t
ĠA uto
ch u
ĠSuz uki
ĠKh ung
ord er
m o
J C
Ġth Ã¢u
w eb
R iÃªng
Ġm at
ĠnÃ³ c
... "
tre et
ĠH ua
ĠTh áº¡c
Ġnh Æ¡
L A
Ġth ong
ĠD on
Ġm á»©t
ho a
ĠL ib
ers ion
ĠB OT
o om
Ġgi Æ°
vent us
Ġng á»Ŀi
Ġnh Ä©
h Ãł
Ġæķ ħ
C ao
Ġl Ãµm
Ġmá» ³
Ġsh are
n o
C áº§u
I G
ĠK o
ĠTh á»Ľi
ĠTh áº»
Ġng Ãłng
ĠC áº§m
d ong
ed it
Ġ7 7
ĠTr áº£i
ĠNH NN
Ġæ³ ķ
ĠTh Ã¬n
Ġs Ãło
Ġæķħ cá»ĳ
ĠC Ã¡p
r en
ĠM áº§m
ĠT or
Gi áº¥y
Ġb Ãºa
om a
Ġgh e
Ġn Ã´i
t t
agr am
á»Ĳ C
ĠF ed
Ġl Ã³c
ĠZ en
Ph Ãº
ĠTr Ã¢n
Ġng áº©ng
ie ng
ĠCTC P
at i
ev er
Ġte am
T Ã³m
p x
Ġè ª
Ġn Ãºm
ĠN ik
Ġn ot
ĠSU V
ĠT el
we i
ĠNh áº±m
Ġch á»įi
Ġt ua
K em
ĠM áº¡i
Ġc Ã²
t áº¥n
Ġtr á»ķ
L S
âĢĶ âĢĶ
ĠDo wnload
C áº£nh
á»¤ C
tr Ãªn
Ngh á»ĩ
ĠB ox
S h
n ay
w a
Ġb á»į
Ġ8 7
ĠN ar
ĠKh á»ķng
G h
O O
ĠDr agon
ĠThá»ĭ t
K áº¿
us s
Ġå¤ ©
r ight
s á»Ł
ĠAP EC
id er
a acute
Tr áº»
C Ã¡
ĠX peria
Ġn ick
r ic
ĠÄĲá» ĺ
ĠT al
Ġs iáº¿t
In dex
B V
Ġng áº«m
L á»ĭch
ĠAs us
Ãģ Y
Ġf rom
Ġ199 2
âĢĻ ,
ĠS uá»ĳi
ĠH OT
Ġc Äĥm
B ook
P A
tr ang
Ġl Ã¬a
un e
am ine
ĠH Ãło
ĠOff ice
Ġmá» ģ
Ġ199 5
P H
ec e
Ġm iá»ĩt
ĠF an
c am
ĠL ÃĢ
Ġph en
Qu áº£
Ļ Ĥ
Ġv áº¯c
Ġshow biz
Ġ^ ^
Ġ ur
K D
ĠÄĳ Ã²
b l
ĠNg Æ°Æ¡i
re ad
tu áº§n
Ġå Ń
Ngh á»ĭ
G ÄĲ
** **
ĠS ub
Ġb á»«a
Ġé Ģ
O A
Äĳ áº·c
ĠH á»©a
Ġgi o
Ġr Äĥn
Ġy áº¿m
Th áº§y
qu ang
ĠA V
Ġ all
ĠH á»£i
Ġ199 8
ap an
ĠH áº¡ng
ĠH it
Ġth Ãł
Ġm Ã©o
ak u
ĠFran c
el le
u le
ĠT á»«ng
ĠnhÃł o
ĠNg Ã£
Ġtr Æ°á»Ľng
Ġt Æ¡i
Ġâ Ĥ«
t inh
Ġng á»¥y
Ġ199 7
TP O
L T
t Ã¡t
ĠCh evrolet
Ġr i
P ost
b ack
W h
m on
Ġ7 4
ex us
á ¹
ĠA f
Ġx Ãª
ĠV o
Ġh á»ĳc
200 3
nh am
Ġg iá»ģng
T iáº¿n
ĠB Ãª
âĢĿ âĢ¦
ab a
ĠO cean
Ġl Äĥm
9 3
Ġho m
ĠS oi
ĠB iáº¿n
Ġs ite
Ġph ao
gi o
ĠB ook
Ġnh Ã¡
ĠL im
ĠÄĳ áº¥ng
Ġl á»ĵi
m Ãł
g y
Ġl á»¥y
Do anh
Ġs áº£
Ġsex y
b le
ĠG ÄĲ
ĠPh ot
t á»Ń
ly wood
Ġph áº«n
ĠLo ve
Ġhá» ·
ĠAr ab
Ch uyá»ĥn
ĠFl or
ĠF e
ĠVN PT
ĠCH á»
ĠViet jet
ĠCh ina
Ġm á»įt
ĠCh e
Ġng Ã¡n
¤ thá»Ń
d en
Ġr Ã¹a
ĠT uÃ¢n
ro gen
Ġg Äĥ
io us
Ð ´
H T
K ÃŃnh
ĠB á»ĳn
Ġng á»ı
S á»¯a
n es
Ġxo Ã¡
ĠÄĳ áº«m
Ġkho áº¯n
uild ing
Æ°á»Ľ u
os hop
tr á»«
Ġv áº«y
U N
ĠT IN
ĠT uyá»ģn
Ġ' '
ĠC ore
ĠD ig
Ġs Ã²ng
ĠM Ã¡c
ĠTh á»¥c
M á»Ł
ĠO ut
ĠP ol
L ink
T ube
Ġ Æł
Ġn eo
ĠO ppo
ĠC Ã¹
Ġin s
ĠM ini
Ġr áº§m
Ġm ac
ĠItal y
d anh
ĠH áº¡n
Kh Ã¡c
Ġl áº¡y
Ġ3 000
Äĳ á»ĭa
ĠÃ įt
ĠCN C
ĠB lock
ĠVict oria
Äĳ áº¯c
ĠUnivers ity
ĠJu ventus
ĠI C
Ĵ NG
ĠC á»¦
ĠR ock
ĠN iá»ĩm
ul in
á»ĺ I
ĠU r
á»¨ C
B ÃŃ
Ġ8 3
Ġnh Ã©t
Ġv est
Ġquy Ãªn
Ġtuy Ãª
L áº¥y
Ġand roid
Ġb ox
t Ãªn
ª th
v ÃŃ
Ġl uyáº¿n
ĠT áº£
ĠS L
Ġtr áº·c
C á»©
ĠÄĳá» ±c
ĠT B
t ai
ĠTh ang
Ġad min
ĠB Ã´ng
ch áº¥t
U R
Ġ ion
ĠL á»±a
if t
Ġm ag
ĠH AG
ĠS IM
ĠTh Ã©p
h u
ph ouse
Ġg old
Ġm l
Ġh Å©
ĠT áºłI
ĠÄĳ á»ĳn
Ġt Äĥ
Äĳ áº¡o
á» ¨ng
Ġch Ã¡t
Ġchu á»Ļc
L áº¡i
ĠG Ã³c
el and
ak er
t ect
Ġg ang
th áº§n
y c
Ġm Ã¨
ed an
ĠC ard
ĠNh Æ°á»£c
Ġá» Ķ
Ġch Æ°á»Ľc
ĠG hi
D R
H á»ĵi
au ty
b our
co w
ĠSá»Ń u
end er
Ġcas ino
ĠS ur
Ġb áº©y
ĠN ano
Ġh Ã¡
Ġs áº¯n
ĠW ifi
Ġnh Ã´
in fo
Ġcá»¥ t
ĠThu á»Ļt
Ġsu Ã´n
Iá»Ĩ U
ĠD Æ°á»¡ng
Ġb ÃŃt
ĠÄĲ áº¯c
ĠL os
b rid
Ġm ica
ĠæŃ ¤thá»Ń
p le
ĠNg Æ°u
d y
H u
ĠC ollagen
ĠHar ry
l ing
ĠÃ Ĭ
ĠF ort
c er
Ġt anh
Ġ10 5
ĠkhÃ³ e
ĠA BS
ĠLo uis
Ġr Ãªu
m Ã¬nh
Ġch Ã³t
ĠP le
ĠÃĶ n
ĠV ang
ĠD á»±a
Ġn áº¡o
X X
âĢ ĺ
ĠC oc
Ġr Äĥ
ĠTh á»Ń
Ġ9 7
ax i
ph áº§n
Ġr áºŃp
ĠCá»¦ A
ĠR Ãµ
Ã ¼
Ĩ l
Ġp H
Ġ10 8
Ġn em
Ġ9 3
Ġb ik
Ġc á»Ļi
Ġqu áºŃt
d ep
T uá»ķi
Ġtho ai
1 000
M Ãłn
ĠYo ung
ĠGiá» ¯
ĠR Äĥng
ĠSn ap
t v
Ġç Ł
K V
um ent
ĠhÃ£ nh
á»Ĭ CH
c Å©ng
ĠÄĲ áº§m
o ff
Ġt áº»
ĠR áº¡ch
Ġtr á»ı
L ong
ĠM Ã£o
y Ãªu
Th áº¥y
Ġg Ãło
Ġl á»ĳc
ĠÐ ½
ail y
ĠC Ãºp
Ġtá»ĩ p
Ġng áº©n
35 7
Ġs up
ch Æ°a
ĠHá» ĺ
Ġca bin
ĠP earl
ĠCan on
?? ?
Ġlá»ģ u
Ġä» ¥
ĠJ ul
ĠU ng
Ġth á»ĳn
Ġf r
z z
Ġqu Ã´
ĠNh Æ°á»¡ng
ĠA udio
Ġc Ã´i
Ġb ung
ĠV ai
Ġtr Ã¡
ĠCon dotel
G ame
' '
Ġf ix
ĠCh á»ĵng
B áº¯c
( "
H Ãłn
id s
ag es
Ġt áº¯n
Ġv Ã£ng
Ng Æ°Æ¡i
ian a
+ +
A d
Ch a
at ed
ĠC á»Ŀ
Ġh Ã¡n
á» ľ
ĠP u
Ġv áº£y
am ond
L a
ir st
eng er
hi re
Ġv Ã¹i
th uá»Ļc
Ġ199 6
th o
ĠæĽ °
Ġä»¥ dÄ©
Ġl Ãºng
Ġå¾ Ĺ
at ing
X S
y an
ĠÃĲ áº¡i
G P
Ġb ook
ĠæĽ° viáº¿t
Ġ19 80
es el
Pr ess
ĠÐ ¸
O C
Ġth Ã¡n
t en
h ang
N Ãłng
ĠD J
ÃĢ NH
Ġhost ing
B Ã¡nh
ĠRang er
O P
ĠD ec
Ġæ Ĺ
M Ã³n
L Ã¢m
Ġå¾Ĺ Äĳáº¯c
ĠP ac
Ġr Æ°á»¡i
Ã ī
ĠNH ÃĢ
ĠB á»ķ
Ġb ody
Ġ199 4
Ġhá»© c
ĠP o
Ġk ali
ĠTr Ã¢m
ï¼ Į
Ch Ãºc
, ,
Ġå¿ ĥ
M áº¥y
Ġï Ĥ
ĠTr iáº¿t
ĠQu Ã¡ch
is on
ĠV TC
ĠSer ies
ĠS ar
Ġt Ã©
um in
Ġth en
Ġm el
ĠG olf
IN E
Th Æ°a
Ġ20 30
9 1
L Ãª
ĠSch ool
ĠD S
it s
T ÄĲ
ot s
Ã ¶
in ch
T p
ĠSer ver
ĠN á»ģn
Ġhu á»ĩ
Ġr áºŃm
ĠS á»Ĳ
Ìī .
I NG
ob i
ĠVN CH
Ġ ),
Ġ enz
ĠViet combank
N A
ĠB ID
Th iáº¿u
ĠSt ore
M ay
ĠL iga
ĠT X
áº¢ O
W eb
Ġ Æ°Æ¡m
f in
Ġtr Ãºt
Ġå ±
ĠL U
r es
X B
3 60
ĠHD MI
ĠYou Tube
Ġh á»Ļt
Ġngh áº¹n
ĠH áº¯c
Ġngu oi
ers on
Ġm iáº¿u
ro p
am b
Ġ á»ĳ
r et
ĠB ur
ĠTO P
... ,
ĠCh iá»ĥu
Ġå ¯
ĠM ao
ist ics
T Ã¢y
ĠMos cow
ĠA D
Ġw ap
ĠGi oan
ĠI T
Ġlog ic
Ph iÃªn
ĠO f
b áº£n
ĠP op
ĠC it
ĠC Ã¡m
V OV
ng uyÃªn
99 9
Ng Ã´i
Ġ est
ĠF B
V Ã²ng
c ast
GD VN
ver ter
ĠG Ã³i
Ġ11 5
u ters
ÄĤ NG
ed u
ag er
ff ee
ĠT ex
h ot
I F
Ġv Ã£n
ļ Ħ
tr Æ°á»Ľc
ĀĀĀĀĀĀĀĀĀĀĀĀĀĀĀĀĀĀĀĀĀĀĀĀĀĀĀĀĀĀĀĀĀĀĀĀĀĀĀĀĀĀĀĀĀĀĀĀĀĀĀĀĀĀĀĀĀĀĀĀĀĀĀĀĀĀĀĀĀĀĀĀĀĀĀĀĀĀĀĀĀĀĀĀĀĀĀĀĀĀĀĀĀĀĀĀĀĀĀĀĀĀĀĀĀĀĀĀĀĀĀĀĀĀĀĀĀĀĀĀĀĀĀĀĀĀĀĀĀĀĀĀĀĀĀĀĀĀĀĀĀĀĀĀĀĀĀĀĀĀĀĀĀĀĀĀĀĀĀĀĀĀĀĀĀĀĀĀĀĀĀĀĀĀĀĀĀĀĀĀĀĀĀĀĀĀĀĀĀĀĀĀĀĀĀĀĀĀĀĀĀĀĀĀĀĀĀĀĀĀĀĀĀĀĀĀĀĀĀĀĀĀĀĀĀĀĀĀĀĀĀĀĀĀĀĀĀĀĀĀĀĀĀĀĀĀĀĀĀĀĀĀĀĀĀĀĀĀĀĀĀĀĀĀĀĀĀĀĀĀĀĀĀĀĀĀĀĀĀĀĀĀĀĀĀĀĀĀĀĀĀĀĀĀĀĀĀĀĀĀĀĀĀĀĀĀĀĀĀĀĀĀĀĀĀĀĀĀĀĀĀĀĀĀĀĀĀĀĀĀĀĀĀĀĀĀĀĀĀĀĀĀĀĀĀĀĀĀĀĀĀĀĀĀĀĀĀĀĀĀĀĀĀĀĀĀĀĀĀĀĀĀĀĀĀĀĀĀĀĀĀĀĀĀĀĀĀĀĀĀĀĀĀĀĀĀĀĀĀĀĀĀĀĀĀĀĀĀĀĀĀĀĀĀĀĀĀĀĀĀĀĀĀĀĀĀĀĀĀĀĀĀĀĀĀĀĀĀĀĀĀĀĀĀĀĀĀĀĀĀĀĀĀĀĀĀĀĀĀĀĀĀĀĀĀĀĀĀĀĀĀĀĀĀĀĀĀĀĀĀĀĀĀĀĀĀĀĀĀĀĀĀĀĀĀĀĀĀĀĀĀĀĀĀĀĀĀĀĀĀĀĀ ĀĀĀĀĀĀĀĀĀĀĀĀĀĀĀĀĀĀĀĀĀĀĀĀĀĀĀĀĀĀĀĀĀĀĀĀĀĀĀĀĀĀĀĀĀĀĀĀĀĀĀĀĀĀĀĀĀĀĀĀĀĀĀĀĀĀĀĀĀĀĀĀĀĀĀĀĀĀĀĀĀĀĀĀĀĀĀĀĀĀĀĀĀĀĀĀĀĀĀĀĀĀĀĀĀĀĀĀĀĀĀĀĀĀĀĀĀĀĀĀĀĀĀĀĀĀĀĀĀĀĀĀĀĀĀĀĀĀĀĀĀĀĀĀĀĀĀĀĀĀĀĀĀĀĀĀĀĀĀĀĀĀĀĀĀĀĀĀĀĀĀĀĀĀĀĀĀĀĀĀĀĀĀĀĀĀĀĀĀĀĀĀĀĀĀĀĀĀĀĀĀĀĀĀĀĀĀĀĀĀĀĀĀĀĀĀĀĀĀĀĀĀĀĀĀĀĀĀĀĀĀĀĀĀĀĀĀĀĀĀĀĀĀĀĀĀĀĀĀĀĀĀĀĀĀĀĀĀĀĀĀĀĀĀĀĀĀĀĀĀĀĀĀĀĀĀĀĀĀĀĀĀĀĀĀĀĀĀĀĀĀĀĀĀĀĀĀĀĀĀĀĀĀĀĀĀĀĀĀĀĀĀĀĀĀĀĀĀĀĀĀĀĀĀĀĀĀĀĀĀĀĀĀĀĀĀĀĀĀĀĀĀĀĀĀĀĀĀĀĀĀĀĀĀĀĀĀĀĀĀĀĀĀĀĀĀĀĀĀĀĀĀĀĀĀĀĀĀĀĀĀĀĀĀĀĀĀĀĀĀĀĀĀĀĀĀĀĀĀĀĀĀĀĀĀĀĀĀĀĀĀĀĀĀĀĀĀĀĀĀĀĀĀĀĀĀĀĀĀĀĀĀĀĀĀĀĀĀĀĀĀĀĀĀĀĀĀĀĀĀĀĀĀĀĀĀĀĀĀĀĀĀĀĀĀĀĀĀĀĀĀĀĀĀĀĀĀĀĀĀĀĀĀĀĀĀĀĀĀĀĀĀĀĀĀĀĀĀĀĀĀĀĀĀĀĀĀĀĀĀĀĀ
ĠN ob
ĠH en
ĠGi an
Ġn ao
Ġph Ã¡ch
ar ia
ĠN iáº¿t
ear ch
ob e
V Ã©
Ãģ CH
Ġé ĸ
Ġx áº¥p
Ġw as
Ġch uyen
an el
Ġå¿ĥ tÃ¢m
ĠI d
ĠV á»ĳn
y le
ĠB R
l ong
Ġl iáº¿m
Ġ17 0
Ġs áº£o
ĠPh Ãłm
Äĳ iá»ģu
Ġch ÃŃch
Ġh Ã¢
ĠCÄĲ V
ĠT á»µ
T Ã¢m
ĠÄĲ au
ĠVÄĲ V
Ã³ e
ĠM á»ĩnh
Ġè Ī
B á»ĭ
Ġr Æ¡m
Ġp art
c u
ĠÄĳ iáº¿u
ĠP oly
M á»©c
Ġgiá» ¥c
Ġs ub
ĠTh om
ĠT Ã³c
org an
ĠL Ã£ng
ĠH at
ĠN issan
A B
Ġ Ãºp
ĠAud i
Ġ199 3
áº º
ĠP ak
Ġf ol
Ġ9 1
Ng Ã¢n
ĠN Ãło
ĠOp en
R P
ĠA k
Ġé Ŀ
ĠB re
ch a
Ġc Ã¯
ik u
s et
ĠL at
Ġv Ãªnh
Ñ ħ
ĠT W
ĠC áº¥u
em ber
Ġvá» Ľ
ĠGiá» įng
Ġh áº¯t
ĠT á»įa
n ess
Tr uyá»ĩn
l áº§n
Ġr oi
ĠN áº¥m
Ġo k
K á»³
ĠKang nam
ĠT itan
Ġl Äĥ
Ġl ine
ĠWill i
ID S
ĠCh áº¥n
Ġ 000
Ġä¸ ī
á»ı e
ĠJ ava
Ġs hip
Ġs á»į
ĠÄĲ áº³ng
Gi Ã¡m
ĠH uyáº¿t
Ġ Ù
Ġn ano
Æ¯á»ļ C
ĠB C
âĢĿ :
Ġviet sub
ach i
N Æ¡i
ĠC Ã¡nh
ĠK ey
Ġto Ã¡i
ĠL Ã¡i
ĠT á»Ŀ
Ġw ord
ĠT oshi
ĠCol le
ĠB y
Æ°á»Ľ n
otte nham
ĠKh iÃªm
Q uyá»ģn
ĠR i
ĠPh áº£n
,âĢ¦ .
h Ã¬nh
V in
ch en
N Ãły
og r
Ġk Ã¨
H á»Ĺ
ĠVi r
Ġv v
n d
ĠTr áº¡i
Ġb Æ°ng
ĠRob ert
h áº¡
Ġqu áº¥t
ĠÄĲ oáº¡n
Ġlá» £p
Ġt Ã²i
b Ãł
Ġm ake
t áº¥t
ĠP at
Ġfor um
Ġcá»§ i
Ġch Æ°á»Łng
ĠRe uters
ĠEx press
Ġcl ass
Ġg Äĥng
ĠC á»±
ap e
ĠHol lywood
Ġn il
ÃĬ U
Ġph Æ°á»£t
ĠB in
ĠB á»įn
ĠC á»Ń
1 60
x uáº¥t
th á»§
and er
s á»Ńa
um i
Ġä¸ Ń
ĠÄĲ B
th á»±c
ĠG áº·p
Ġr Ãªn
Ġng Ã¡y
Ġv Ã¡ng
âĢĻ âĢĻ
ĠDá»± ng
ĠIn ox
S Æ¡n
Ġo ai
k er
ĠD áº«n
Tr áº£i
T á»įa
ÄĲ Ã´ng
ĠInst agram
Kh Ã³a
c á»ķ
ro und
it er
ĠE VN
Ġs áº§n
â Ļ
Ġ19 45
á» Ģ
Ġt á»Ļt
ĠMo on
Ġn Æ¡
ik o
1 01
ĠPhao lÃ´
Ġng Ã²i
ĠCl ub
Ġ áº¯t
Ch áº¿
ĠHua wei
b Ã¬nh
á»ļ I
ÄĲ Ã¡ng
ĠBay ern
Th i
ĠP re
Ġa h
us hi
Ġs Ã¹ng
ĠÄĲ á»īnh
ĠJ i
ĠV at
ph im
G VN
ä¸ Ń
j p
ĠSh ar
ĠK en
X Ã©t
ing ton
M inh
Ġè ĭ
i ent
â ĺ
ĠHo an
c ent
Ġfan page
ĠN á»ķi
Th Æ°
Ġn Ã²ng
ÃĤ M
i us
z o
ĠS M
Ġs á»¡
ĠF DI
Æ°á»£ m
T U
ĠM ir
ĠM eg
ĠHAG L
ĠÄĲ Æ°Æ¡ng
I ON
ĠM A
ĠZ ing
áº¤ P
Ġ á»ĵ
Ġ áº¿ch
N Ã¢ng
t Ã¡c
Ġs á»§ng
ĠC C
ĠT ab
ĠD áº¡y
ĠA u
Ġc Æ°Æ¡
Ġc al
Ġv in
ĠJet star
Ġc á»ĵng
t á»īnh
v el
olog y
Ġp ass
ĠtÆ° ng
if f
i or
ĠS D
x a
ĠĠĠĠĠĠĠĠ ĠĠĠĠĠĠĠĠ
Q uá»ĳc
b áº£o
ĠT ao
en ter
) ...
Ġph Ãłn
Ġs áº·c
ĠP art
Ġd áº¥n
Ġ et
Ġ Ã´i
ĠT Ã¡o
Ho áº¡t
Ġb itcoin
æ Ĺ
Cam era
ĠCol or
Ðµ ÑĢ
ĠS K
ĠH á»ĵn
ĠG e
E W
Ġb Ãºi
Ġm Æ°
Ġtá» µ
ĠQu Ãł
ÄĲ H
Ì Ĥ
v in
pp ing
ĠNh an
ĠMac book
Ġr eview
ĠB áº§u
ĠNo el
Ġé ĩ
Ġto áº£
Ġn áºµng
Ġx Ã¡o
Ġm Ã¡ng
Ľ PháºŃt
ãĢ ģ
g l
Ġkhu áº¿ch
Ġn Æ°á»Ľu
ĠFr ank
ĠC ur
id an
ĠB as
ĠLen ovo
s iÃªu
Ġ10 80
ĠV Æ°á»£ng
ĠÄĲ Æ°a
ä »
b á»Ļ
ĠA F
Ġch áº±ng
ĠL á»ĩnh
ĠquÃ½ t
Ġg áº¯m
ĠB el
Ġtr á»ĩ
ĠS at
ĠB on
Ð° Ð½
os ite
Ø ±
K iá»ĥm
ĠR Æ°á»£u
ĠÄĳá»ĭ t
ĠJ W
áº¬ P
ĠB á»Ļt
ĠV en
ate g
Ġè ¨
ĠH im
? .
ĠM áº«n
ĠSt udio
Ġk á»ĭ
Ġp er
Ġv un
Ġd áº«u
Ġ7 50
ĠWord Press
ĠQ Ãºy
Ġtho i
t iá»ģn
in ja
E A
Ġb áº£
H ay
Ġch ao
ĠX inh
ĠT áº§m
ĠFI FA
ĠM Ã£i
Ġr ay
ĠM all
ĠR ec
ĠS oc
v ice
ĠEn ter
o f
th Ã¢n
Ġd an
ph Ã¡t
ĠS JC
r ay
Ġ Ã¡ch
ĠTh á»¥
s eo
Ph ÃŃa
Ġch áº¡p
ĠÄĲ á»©ng
Ġ áº¡t
ĠP ok
Ġh áº¥u
Ġs á»ĩt
Ġ18 00
Ġk ey
ot ion
as y
ĠUS A
Ġé ł
ĠB Ã´
ä ¹
th a
ĠF ace
Ġï ¿½
T uyá»ĥn
Ġè¦ ĭ
ĠO l
m ay
Nh áº¯c
ym e
ĠPh Ã¡
Ġth Ã²i
ĠN e
ĠD ub
Ġb á»©t
UY ÃĬN
Ġä½ ĽPháºŃt
j u
h Ãłng
ust in
ĠTex as
áº¶ T
Ġsu Ã½t
å Ĳ
Ġn ÃŃu
ĠL áº¡nh
Ġä½ ķ
o C
el s
Giá» ĳng
ĠVin city
ĠKh áº£o
ĠEx cel
s Æ¡
ĠL Ã¡ng
ãģ ®
ĠCH O
Ġb Ã¹i
ĠCa fe
ĠT ottenham
Ġy eu
Ġn Ã£
Ġn ai
ĠN ap
Ġè ¡
ĠR u
Ġs á»§a
Ġng Ã¡ch
á»£ c
Ġgi áº§y
al y
ÄĲ á»Ļ
Ġd en
ÄĲ ang
V TV
j o
Ġè¦ĭ kiáº¿n
ĠR á»Ńa
S iÃªu
Ġng Ãł
B áº¯t
Ġ199 1
ĠPh o
ĠHu áº¥n
M N
way s
K á»¹
Ġl á»±u
E U
Ġb Ã¨o
ĠDes ign
H Ã²a
ou cher
âĢ¦ âĢĿ.
om at
ĠN av
ĠT em
ĠCh á»¯a
Ġä½ķ hÃł
Ġc áº·c
Ġd áº§y
Ġh and
Ġr áº«y
ĠK TS
ph Ã¡p
ĠL um
ĠF ire
Ġph an
Tr á»Ł
ĠT Ãł
Ġth Ã©t
ĠR áºŃp
Ġm á»įng
a f
ĠCl ass
Ġn Äĥn
Ġm Æ°á»Ľt
ĠÐ ¾
Ġnh Æ¡n
M an
tr Æ°á»Ŀng
m s
s áº½
ĠQu e
Ġcar bon
ĠTh Æ°á»Łng
ey mar
ia c
ĠT á»Ļi
Ġcat alog
Ġr eo
ĠP N
ÄĲ áº¡o
ĠD Ãłi
Ġho n
ad y
ĠÃģ n
ĠTH ÃĶNG
ĠE X
Ġr á»ĳn
ĠY oga
Ġp m
kh á»§ng
Ġm Ã¡ch
ĠnghÄ© nh
ent al
H i
Ġ30 4
Ġè ģ
ES CO
Ġr ep
Ġc á»Ļ
ç ļĦ
ĠÄĳ ay
ĠM ov
ĠT ivi
Ġs á»¥c
Ġv Æ¡i
ĠC Ãłi
c Ã¹ng
ĠL S
19 75
Ġho Ã¡n
Ġr Ãłnh
th á»©c
Ġ áº¯c
ĠO k
Ġtr Æ°á»£ng
ĠSau di
ĠL ip
ph áº£i
Ġv áº§y
d is
Tr Ã¡i
Ġtr iá»ģn
ĠP ep
d ney
L Ã£nh
Ġs um
E G
Ġngá»§ i
Ġ19 70
Ġtr á»įt
Ġä¸Ń trung
to c
Ġth uyÃªn
ĠMobi Fone
Ġ9 4
ĠC ry
ĠB á»©c
ĠG Ã¡i
ĠV KS
Ġs Ã³i
Ġng á»Ńi
ĠS A
AT O
ĠK Q
ĠM Ã¨o
Ġd el
Ġæī Ģ
Ġc Ã¹
Ġcho Ãłng
th Ã¬
ĠU B
b Ãłn
ĠA ut
ç¥ ¨
ch ÃŃnh
Ġ1 11
Ġtr áº§u
ĠM ur
u el
Ġp ar
Ġ á»ī
ĠA ct
d f
Ġlu Ã¢
ĠCh ÃŃn
ĠResid ence
D á»±a
ĠBos ch
V i
Ġtu á»Ļt
Ġ one
Ġm ui
ĠV a
ashi on
ĠK áº¡n
ib ank
ĠP ay
ĠD ream
f ile
ĠT ang
Ġv Ã©t
D r
C á»¥c
T o
Ġqu Ã¢y
ĠPac ific
ĠÃ į
Nh anh
ĠAnd re
Ġt áº©u
ĠL Æ°
em a
Ġ3 65
Ġoff line
ĠN u
s tr
âĢĭ âĢĭ
ĠG lobal
Ġqu áº©n
ĠC uá»ĳn
á» ®
ĠD iÃªn
Ġo i
as c
Ġmá» Ľ
ĠComp lex
Ġláº½ o
ĠL Ã´i
ĠBID V
t Æ°
v á»ģ
Ġn áº·n
ff et
Ġx ui
ĠÄĲ Äĥk
Ġd áº»
ĠæīĢ sá»Ł
ĠS el
p i
ĠT U
Ġtr Ã¡m
rol ux
ĠB uilding
ĵ ng
K ÃŃch
M Ãł
t Ã¬nh
ĠNh á»±a
ĠÄĳÆ°Æ¡ c
Ġx Ã¹
ĠC Ã¡o
Ġä¸ī tam
Ġkho anh
D áº§u
s hop
as a
ï Ģ
ĠCor p
ĠS ex
ĠR ub
ĠR ad
ĠKh á»ıe
we en
Ġ19 60
D Æ°Æ¡ng
t ÃŃnh
áºł N
ĠL ab
Ġlo ve
TT P
ĠZ alo
Ġt Ã¬
ĠR S
Ġ oto
B H
ĠNh Ã¢m
ÄĲ á»Ļng
ĠEng lish
f ield
Ġb it
Tr anh
il et
Ġv Ã²
ĠtuÃ½ p
Ġå¤§ Äĳáº¡i
Ð¾ ÑĢ
t or
Ġt one
Ð ¿
Ġvi r
ĠM et
t iáº¿ng
ew s
Ġt Ã£
st on
Ġv áº©y
ĠK S
ĠToshi ba
ĠÄĲ Ãª
ĠN á»ĺI
on line
â ŀ
A pp
Ġm á»¥
em o
art on
Ġs áº£y
ĠNg uy
ĠR eg
GD ÄĲT
Ġc Æ°á»¡i
n ect
O H
T ai
!! !!
g áº§n
ĠS Æ°Æ¡ng
m ade
Ġh Ã²m
ĠVill a
Ä ¨
ag a
ĠTr á»£
ĠÄĳ áº·ng
ĠM Æ°a
Ġl ives
ĠAngel es
ĠP en
Ġn áºŃp
Ġit em
th áºŃp
Ph áº¡m
Ġx iáº¿t
ĠTr Ã¹ng
á» ¸
h Ã´
Ġéģ ĵ
B ÄĲ
V Æ°Æ¡ng
V P
ov ic
Ġ13 5
Ġm áº£i
L inh
d ing
X VN
>< /
um a
Ġr Ã¹i
Post ed
ĠCom m
ĠR os
ĠO ai
Äĳ Ã¡nh
Ġ09 8
Ġáº¤ t
z e
Ġt eo
Ġxo Äĥn
n Æ°á»Ľc
ĠN Ãł
Ho áº·c
kh Ã¡ch
ĠNgh Ä©
ĠU ber
V n
ĠP age
Äĳ á»Ļ
ĠT TC
G hi
ĠP ort
ath er
Ġqu áº§ng
Ġtrá»£ n
Äĳ iá»ĥm
Ġ18 8
ĠX á»©
Ġhá»ķ i
Ġch á»ķ
Giá» ¯a
á» Į
Įnh i
Ġph Ã¨n
b et
f one
x u
Ġ uyÃªn
ug in
ĠV Ã©
ĠèĢ Įnhi
ph en
ph Ã²ng
W C
ĠM ah
r am
Ì£ .
t im
ĠTh Æ°a
Ġt iá»ĩt
b ar
n al
Ġs am
Ġá»Ĳ c
M á»Ŀi
d om
T Ã²a
2 12
ĠMart in
ch Ã¢n
b áº±ng
Ġá»Ĳ ng
ĠM ÃģY
ç Ķ
Ãģ O
Qu áº£n
å½© ç¥¨
ĠNg uyen
Ġtr Ã¨o
Ġw e
E E
s ch
und er
ĠSy dney
? !
ĠO S
http s
ĠNGH Iá»Ĩ
s Æ¡n
Ġb áº§n
1 10
áº ¸
con t
Ġco in
ĠSa f
dr agon
ĠV iv
Ġd Æ¡
ĥ ½
Ġth Äĥ
S hop
d á»ĭch
Ġs á»¯ng
Ġtim e
un a
H á»ıi
it o
ee k
Ĺ ı
Ìĥ ,
ĠS and
Â ¯
Ġtr áº¡ch
ĠM á»ħ
c Ã¡
B áº¿p
d an
ĠX H
ĠD om
Ġr ÃŃt
x t
ĠCÃģ C
ĠM ega
D i
ĠV FF
ĠKh áº©u
Ġ áºŃp
ĠLe g
00 3
ĠBus iness
Ng a
Ġv áº¡t
Ġgi un
ĠC áº©n
Tu áº§n
ĠL av
ib er
Ġå ·
3 50
t Ã¹y
Ĥ N
Ġb ÃŃch
ur ity
ĠL ife
å Ľ
ĠComment s
ĠW on
ĠCon tin
ĠS ir
ĠU RL
ĠJ an
Ġkh eo
Ġnh áº§y
. (
Ġs Ã²
Ġè Ń
l an
ĠX ung
gr am
ĠPS G
Ġc ol
ĠC á»ı
ĠS treet
Ġn at
ĠÐ º
Ġdu á»Ĺi
Ġm et
ĠH H
ĠN eymar
ĠS MS
P G
T am
Ġz in
Ġl áº«m
ĠS av
Viet nam
ĠC ang
Ġg á»ıi
Ġa v
Ġè Ļ
Ġng á»«
B D
I K
t is
al axy
ĠV ig
ĠP L
ro s
ĠW C
ĠF re
Tr áºŃn
ĠCo un
X Ã£
ar o
ĠPh áº¥n
u ter
Ġt ennis
ĠR au
ph Æ°Æ¡ng
c ap
ĠcÃ¡ u
d á»±
Ġtu Ã´
w o
Ġ2 30
Ġx á»ĭn
ĠG od
S ang
ĠGu ard
sp an
ĠLa zada
if y
ĠQu áº¡t
ĠT áºŃn
ĠW il
ap ter
ĠNh Ãłn
Ġs Æ°a
ĠO ld
g á»įi
ĠS áº¢N
Ġtruy Ãª
su zu
c os
Ġl áº§y
l ÃŃt
et s
ĠkÃ© n
ĠDi amond
Ġqu Ã¢
V á»£
Ġn e
Ġng Ã³ng
Ġng uyá»ģn
ĠD A
ĠTr á»Ł
ĠHuy nh
ãģ Ħ
Ãģ C
ĠH un
ĠP DF
is ter
ĠM Ã¡i
Ġp ol
Ġl ip
te ur
ĠV ene
ĠF un
V A
Ġy á»ĥ
ĠB BC
Ġph oto
ic Ã´
ĠUN ESCO
le d
ĠUy á»ĥn
ĠVin com
ill er
Ch Ã¢n
ps on
ĠH aw
Ġs á»ĵi
id o
ĠGi use
Æł N
ĠhÆ°Æ¡ u
ĠCh iáº¿u
âĢĿ -
ch á»©c
-- -
ĠCá»¥ m
Th á»ĥ
ĠS qu
ĠS ung
v is
Ġnh á»ĳt
M a
ĠRom a
Ġng Ã¹ng
ĠBe ach
ĠT ime
Ġo p
os h
Ġvá»¥ ng
å ¹
c al
ĠtÃŃ a
Ġnh áºµn
M ang
Ġgl uc
ĠR ap
jp g
B iáº¿t
ĠPak istan
B á»ĳ
ĠR et
L E
Ġnil on
N K
S er
ĠCH ÃįNH
ĠTr áº§m
Ġm á»ĭ
ĠR á»«ng
Ġo xi
T á»·
qu á»ĳc
ĠM Ã¢y
Ġtráº» o
Ġp ixel
P hi
Ġtá»§ i
Ġ09 6
U n
ĠB á»Ńu
al k
Ġh it
ĠS uy
ĠTh á»ıa
ĠNh Ã£n
Ġhu á»³nh
ĠÄĲ Ã¢u
Ñģ Ðº
Ġs áº«m
est ival
rid ay
ĠTo wn
ĠV Ãłi
ĠÄĲ am
Ġ! !!
v áº¥n
Ġ id
ĠL Ãłnh
re g
ĠCas io
s trong
Ġph one
ĠW at
Ġx Ã²e
ĠT iáº¿u
ĠO K
c ept
Ġs edan
ĠS anh
ĠU E
Ġch á»¯ng
ur t
ĠKh ac
G M
ĠGeor ge
d Ã¢n
g á»ĵm
ĠÄĲ áº¥y
âĢ¦ ).
ĠT á»ģ
Ġ á»ķi
ĠL Ã£
ĠSE A
Ġâ ĪĴ
O D
ĠPal ace
ĠB at
d am
ĠB ack
Ġch áº¯p
un ce
ĠÄ ĥ
Ġtr ans
Ġ7 20
amil k
æ ĸ
á»ľ I
Ġr Æ¡
[ /
ĠA gr
Ġnh á»ĩn
ĠSt art
ĠG PS
ĠÄĳá»Ŀ m
Ġr Ã¢m
ĠD áº¥u
ĠY u
ĠPhan x
ĠV á»ı
ĠQu Ãª
n Äĥng
Ġd áº¿
ĠPet er
ff e
ĠK ore
Ġnh Ã¡m
ĠPhil ips
Ġt ÃŃt
Ġu áº©n
ĠCh Äĥn
ĠDig ital
ĠT TT
, .
Ġ5 000
Ġc áº¥n
ph Ã¢n
ĠPh Ã¡o
c ung
ia g
ĠI OS
Ħ ¢
ĠG HP
ĠTo uch
s ao
Ġo áº£i
Ġm áº©u
Ġl ick
ĠT Ã¡
ent ine
gi ai
ĠI suzu
ĠN ext
B áº¡ch
Ġn áº¯n
ĠC ast
S áº½
ĠPi ece
Ġs amsung
let ico
ĠHar v
Ġs á»Ļ
ĠBer lin
ĠViet in
ĠNgh á»ģ
Ġ }
1 80
Ġ198 9
Ġâľ ħ
" >
ĠHo st
ĠN áº¯m
Ġm á»ĵng
Ġnh eo
Įnh á»ĭ
ĠÐ ´
n Ã³i
ĠP U
ĠTe am
Ġhá» ħ
S á»ķ
ĠnhÃŃ u
ĠMus ic
nb sp
Ġs ua
ĠH U
ĠTh áº±ng
____ ____
l ott
Ġje an
Ġ á»ıi
ĠCont rol
ĠD áºŃt
Ġblog ger
ĠCh uyáº¿n
Ġr áº©y
Ġl Ãºn
Ġch á»ķi
ĠHá»į a
g ame
ĠS k
f ace
ĠÄĳ ong
Ġm ap
ĠSnap dragon
B erry
v ic
is m
TM L
ĠS aint
ĠT er
Ð ±
Ġ19 88
ob s
ĠN on
Ġngh Ãłnh
Ġå ĸ
Ġ12 3
Qu áº§n
ĠT est
Ðµ ÑĤ
p ol
Ġ Ãºng
Ġm Ãºi
ĠB á»ı
ĠB ern
ĠTh Ãºc
N S
a a
Ġx á»Ļn
ĠÄĲ Iá»ĨN
Ġhy dro
ĠH om
áº¤ N
Ġå ĩ
Ġb lu
ing er
ĠA BC
Ġåį ģ
Th Ã¢n
Ġnu oc
Ġch áº£nh
Ġ12 00
Ġch áº¯t
Ġje ans
Ġgr am
Ġb on
Ġsil icon
ĠW ater
Ġ09 0
ĠL áº§u
or ies
ĠK ÄĲT
ĠFl ash
ĠR eview
Ġn au
ĠT ar
ĠÄĲ oan
1 30
Ġm em
H oÃłn
ĠÃļ t
ĠJ apan
R a
ĠW all
Ġch Ã²m
ÃĴ NG
Ġæ ĥ
ĠE S
Ġdo wn
Ġ Ã³ng
L á»±a
Ġ15 00
L á»Ľp
Y ou
ĠT á»ī
ĠLo g
Ġf ont
ĠðŁ ĺ
Ġt Ã½
ĠH áº¿t
ĠCh im
ĠJ in
ox y
m it
es us
Ġb ass
ul a
L á»£i
Ġxá»ī u
Ġäº Įnhá»ĭ
Ġch Ãłi
Ġ10 2
200 2
r áº¥t
Ġhá» ī
Ġ195 4
n ow
ĠTH á»Ĭ
Gi ai
ĠSG K
Ġg á»Ľm
Ġthá» ıi
H LV
Ġnh Ãºn
ĠH Æ¡i
T op
Q uÃ¢n
Ġl iÃªm
enc y
Ġ Ã¡t
ĠX á»ķ
gi Ã¡o
z y
Ġom ega
ĠJ ung
Ĭ thÆ°á»£ng
Ġth áº¹n
Ù Ĩ
ĠçĽ ¸
ar s
Ġ10 3
L and
Ġim plant
ĠS martphone
Ġbik ini
ĠSy stem
Ġb áº§m
ĠCh iÃªm
Ġd am
V T
Ġ19 68
Ġd á»Ļt
ĠM id
ĠC ream
Ġ6 50
B l
ĠC áº¯t
em y
ĠÄĲ Ã³ng
ĠTr ai
ĠNh á»ı
ĠC el
um e
ĠLu c
Ġæ Ģ
Ng Ãłnh
ap ixel
elf ie
ĠV áº£i
Ġf e
ĠH Ã´n
Ġpro tect
D a
Ġpl us
Ġblock chain
al th
ĠArch ives
ĠE th
ect or
V Å©
ĠÄĳá» Ĺi
lo áº¡i
man n
ĠT á»¥c
Ġxá»ī n
ĠÄĲá» Ĭ
Ġl áº¹
k á»ĥ
ĠG ym
á»ģ nh
ĠA z
¡ n
= >
ĠNh Ã¬
w an
Ġr á»įi
ĠC áº·p
T á»Ń
L oa
V áº«n
Ð¾Ð »
ĠQu ay
ĠT ak
Ġtr Ã¢
Ġ Ï
u ay
gi áº£m
ĠA h
ĠbÆ°á»Ľ u
Ġâ ĸ
Ġv áº¯n
giá» Ľi
Ġv Å©ng
ĠPh one
ĠAl pha
ĠEle ct
ÄĲ Ãłn
ĠV ÄĤN
re y
ĠR ev
ĠGHP GVN
com m
Û Į
Ð° ÑĤ
24 0
" )
Ġho ay
Ġáº¤ y
ĠP ass
Ġ es
Ġl iÃªu
T áº£i
Ġup date
an ia
24 3
å Ī
b á»ĭ
Ġæĺ İ
Ġgi Ã¢
Ġ2 10
Ġt áº¡t
Ġd is
T á»īnh
k áº¿t
ĠÄĳ Ãły
ĠC y
ĠAS IA
Ġsh ort
â Ŀ
Ġv ar
Ġg Ã¡n
s áº£n
S p
ĠJe an
Ġnh Äĥ
ĠC á»«
ĠA ward
Ġt áº¥c
ĠS N
ĠM Ã³ng
Nh áº¡c
Th Ã¡nh
Ġtr Ã²ng
v es
ĠKh Ã³
Ġlu á»ĵn
ĠcÆ¡ ng
ĠH C
o ot
ĠY ahoo
Th ÃŃch
ĠV Ãłnh
ĠM ont
Ġla zada
ĠM á»ĳi
Gi áº£m
ĠD ie
gh an
V iá»ĩn
Ġtr Ãłm
Ġd on
ĠS Ã³ng
ub lic
N ET
th am
î Ģ
Ġngo Ã£n
ĠC ÄĲT
ĠV lad
ĠNg á»¥y
w ell
Ch á»©ng
ĠClin ton
P V
ĠÄĲ Ã¡m
Ġs un
ĠB ud
ĠQU á»ĲC
Ġng ao
Ġ/ >
Ġbá»Ļ n
ngh Ä©a
Ġhá»Ŀ n
Ġch Ãłm
ĠPle iku
ĠK m
ĠQ H
ĠPas teur
Ġm ar
az z
ĠK an
ĠH appy
ĠChr is
Ġ198 2
Ġm á»ĭt
Ġngo áº·t
ĠN XB
ro ss
Ġkhá»ı a
ĠSak ura
ĠB á»ģ
v al
Ġthi et
Ġc arton
gi ao
ĠKh á»ķ
ĠAt letico
Ġins ulin
R A
ĠâĢĺ âĢĻ
ĠGu itar
ch ung
ĠR od
ph o
is o
Ġtu Ã´n
Ġb Ãłnh
ĠB ec
á»ı m
Äĳ áº¥t
ĠTM CP
Ġn áº¡t
ĠD aily
Ġto ilet
ĠCH Ãļ
Ð½ Ñĭ
ÄĲ Ã¡p
Ġp age
ĠïĢ ¨
ĠÄĳÃ³ a
ĠB á»ĥ
R S
Ġd áº¡t
ĠP A
ĠT Ãło
ĠB it
ĠX K
Ġstart up
ĠT on
Ġåį ³
ĠNg á»ĵi
K iá»ĥu
Ġt áº±m
d es
Ġth uy
Nh u
ich i
ĠForm osa
H á»£p
s hi
á»Ĳ I
ĠÃ ±
wit ch
Ġ uyá»ĥn
ĠCap ital
Ġ Ã¹
th á»©
Ġ5 50
ĠTP P
ĠTH ÃĢNH
Ġsal ad
ph á»¥
ut ion
ĠGi rl
â Ĥ«
Ġx iÃªn
ÄĤ M
Ġm ain
Ġng uyá»ħn
Tr uyá»ģn
T Ã´
ĠUl tra
Iá» ĢN
Ġåį³ tá»©c
ĠF er
ĠJ ac
Ġ198 6
Ġto áº¡
Ġs uyá»ħn
Ġr Ã¹ng
al and
Ġ ec
á» Ĵ
Ġâ Ļ
Kho a
ĠM á»±c
ĠT L
ĠPh Ã¡i
Gh áº¿
Tr iá»ĥn
Ġká»ģ nh
ĠS SD
Iá» Ģ
Ġm áºŃn
ĠN an
ĠNg á»Ļ
V áºŃn
Äĳ Äĥng
ĠCl ip
Ġqu Äĥng
g u
Ġnh áº£
S á»©c
ien ce
ra ft
ĠS uá»ĳt
Ġbu Ã´
v ietnam
Ġcon dotel
H á»ĵng
ĠEle c
L áºŃp
Iáº¾ T
ĠVill as
Ġcu p
á»Ŀ ng
ĠChr ome
Tr iá»ĩu
C á»ĳ
ĠGI A
in al
ur es
Ġd áº±n
Ġæĺİ minh
Ġnh á»©t
ĠM ak
ir m
att le
Æ¯ T
ph Æ°á»Ŀng
Ġ19 0
co unt
ĠBe auty
ĠC Ãĵ
Ġd áº¥y
ud a
P E
omb ia
Ġnh áº½
ut s
ĠH ack
Ġn Ãł
ch iáº¿n
Ġcr ack
Ġh ave
12 3
ĠçŁ ¥
ar oo
ĠM anh
ov e
Ġå ¹
áºł O
ĠPhanx icÃ´
Ġthá» Ľt
Ġthá» «ng
C Ãł
it le
Ġnh Ã¢m
ĠNH áº¤T
Ġg Ãºt
ĠGiá» ıi
d on
ĠSant a
I O
ĠY ang
ĠB est
re ak
ĠS INH
ĠS acom
ra h
ĠNet work
p op
Ġ Ø§
ac c
ĠC L
ank s
ĠBlack Berry
Ġkh Æ¡ng
ĠB TS
r ing
ĠDub ai
ĠB aby
ĠHD V
l inh
T áº¡o
ĠT s
ĠN Ãª
et er
an in
Ġe vent
g ar
19 45
Ġx Æ°
ĠThom as
ĠN iá»ģm
Äĳ á»ĭnh
ĠW atch
Ġä¸ ĬthÆ°á»£ng
Ġest rogen
Ġs Ã¡m
ÄĲ au
2 20
ill s
ĠJ esus
Ġd á»ĥ
qu Ã¡
ur i
Nh a
ĠBB Q
Ġd Ä©a
ĠG Æ°Æ¡ng
C an
æľ Ł
itt le
P M
lo ween
w atch
ĠJ enn
th ay
ĠD ata
Ġsc andal
it or
Ġch Æ¡
ĠPHÃģ T
200 1
ber ry
ĠD em
Ġdu ong
Ġ11 6
ĠV áº·t
Ġn ail
Ġr áº±m
ir l
Th áº»
ĠCh Ãłm
ho st
H iá»ĩp
áº¨ M
Ġin ter
Ġm ic
n Ãªn
ghan istan
ÌĢ .
Ġo pt
Ġ art
Ġdi esel
ib aba
Ãģ nh
ĠÄĳ Ã¹ng
Ġç ¾
ph u
ĠÃį ch
b ay
ĠNg u
Ġlo ay
ĠJ ae
Ġb áºŃy
x ÃŃt
ĠL exus
ĠM Ä©
Ġ09 38
ell er
Ġd Ã£i
ĠM s
l á»£i
Ġch ang
ĠG iÃªng
ĠTh Ã¹ng
oc us
D V
Ġt áº¥y
ĠIn s
ĠÄĲá» ¨
t ay
Ġm Ã¬n
ĠG M
ĠH Q
r is
l anh
ĠB ÃģN
24 7
b es
ĠN m
ĠD j
m á»Ĺi
Ġèĩ ª
Ġma x
Ġ20 21
S Ãłn
t á»ķ
ĠTh Ã¡c
Th áº§n
Ġæĸ ¼
t áºŃp
est ay
ï¿½ï¿½ ï¿½ï¿½
ĠC ost
Kh áº£
en se
Ġx ÃŃt
ĠM áº¥t
ÃĤ m
ĠD L
ĠC ook
ĠS ev
ĠNgh á»ī
H áº¡
amil y
ĠSt and
Ġ09 09
ĠTr Ãłm
t ain
im ir
Ġmi en
Ġgiá» Ĺ
ic le
Ġho áº£
ĠTR Æ¯á»ľNG
Ġph Ãło
ĠG Iá»
Ġv áº©n
h á»£p
f acebook
ĠT ele
ĠKh mer
ĠF A
iz za
Ġl Ã¹n
ĠT áº·c
23 4
ĠC er
g round
ĠI Q
ĠNg á»±
Iá» ĦN
ĠK araoke
Ġm áº¥u
Ġæĸ¼ Æ°
ĠD Ãłnh
Ġvi s
Ġk Ã¨n
ĠL á»Ĺ
ĠS kin
ĠV e
ĠDo Ã£n
Ġs k
v est
Tr á»Ŀi
sc ar
C ity
ĠIs land
Ġdr iver
ur al
ĠF ile
ĠVin amilk
S O
S á»ĳng
ie p
Ġngh iáº¿n
k va
Ġng Ã¡t
M ong
M obile
å ¥
ĠX Æ°á»Łng
ĠÃĶ i
ĠCar l
S H
re ct
o z
ĠB ia
ĠL O
ĠTech n
Ġä ¿
Ġng áºŃy
ĠNg uyÃª
D áº¡
et e
ĠR en
ĠEd ge
ur s
ÃĢ Y
Ġd iá»ģu
T á»«ng
ĠG áº¡o
Ġ198 7
bour ne
Ġthu i
k u
ĠS et
áº¾ N
ĠKh Ã¡ng
ĠN T
ÄĲT B
o us
H iá»ĥu
ĠL AN
ph an
at us
ĠL ive
ĠçŁ¥ tri
ĠN Æ°Æ¡ng
ĠB KS
Ġvi en
Ġm Ah
ar is
Ġåįģ tháºŃp
Ġsu Ã´ng
ĠSt an
T á»Ľi
Ġn áº»o
en ing
ĠAf ghanistan
t uy
Ġn áº¡c
Ġ09 3
ĠC ong
ĠCh ang
Ġdi ch
Ġå ķ
Ġph á»ĵn
i que
ĠL á»Ĺi
ot hi
V Ã´
b á»ĩnh
Ġch uá»ĳt
ĠÄĲ áºłI
C K
Ġhack er
Ãĵ A
Ġm Æ°Æ¡ng
ist on
¥nh Æ°á»£c
k ey
ĠDis ney
ĠCh áº¡y
ĠMun ich
v ideo
Ġnh áº±n
aul t
oc irc
au t
ï ģ
Ġkh Äĥng
ĠCS ÄĲT
ĠB or
Ġ á»ķng
ĠP E
Ġp re
ĠElect rolux
Ġ20 25
ĠCol ombia
S E
Ġhuy Ãª
ĠM iáº¿u
ĠSo ft
T á»ĳt
ĠdÃ¬ u
ĠAn t
ĠNg uyá»ĩn
ĠA U
ãĥ ¼
Tr á»±c
BS CL
ĠO h
B Ã©
Ġr áº§y
Ġb eta
iv a
b Ãªn
Ġç Ļ
4 50
Ñ Ĩ
il es
B á»ĵ
Ġb á»¡
Ġp allet
Ġ order
Ġ11 2
Ãģ p
Ġc Ã¹i
el ly
Ġèĩª tá»±
Ð¸ Ð
ĠV áº»
Ġnhu áº§n
Ġcho col
Ġr Ã¬
c á»©
24 4
ĠY áº¿u
ĠPhÃª rÃ´
Ù Ī
U P
ĠH A
Ġw orld
ion al
Ġg á»Ļp
ĠV Ã¢ng
s ai
R I
ĠH K
Ng á»įc
Ġst udio
Ġph áº£
ĠM ap
Ġs mart
) (
t áº¯c
Ð¾Ð ¼
ng hi
Ġc uá»ĳc
ĠIr eland
Ġph at
ĠLÄĲ LÄĲ
1 88
Ġ19 79
ĠCA O
á»£ m
Ġv áº¡
ĠV á»¹
Äĳ áº¿n
ĠÄĳ Ãºt
ĠL ot
Ġl Æ°Æ¡n
Ġkh áº¿
c are
ĠÄĲH QG
ĠCM ND
c Ã¢y
Ġw ill
Ġkh Äĥ
ĠÄĲá»ĺ NG
il y
Ġm otor
F I
Ġkh áº£i
ĠK u
Ġl áº©n
Ġè §
ĠD Æ°á»Ŀng
å ľ
ĠB Ãºp
ĠX U
ĠN ATO
ĠV GA
b Ãłi
ul d
ĠRich ard
æ ĺ
ĠX IV
ĠS Ã©c
s á»ĳng
Ð° Ð»
á»¤ NG
t ed
á»ģ m
ĠL ÃĿ
e z
L INE
ol s
Ġh Ã³t
ĠASIA D
ch Æ°
el ine
Ġ ì
h Æ°á»Ľng
Ġn áº¥c
Th ÃŃ
C A
C áºŃp
F or
yl on
Ñ Ī
ĠD ur
Ch Ãºa
Ġdo m
ĠNGHIá»Ĩ P
ĠNg áº¡n
uy nh
ĠL A
: "
Ġth it
ĠTh Ã´n
ĠAmer ican
ĠH CV
3 20
O n
ĠGi áº£n
ĠHá»ĺ I
Ġbu t
Ġchi en
Ġsp am
G I
ĠD á»°
ĠB á»Ŀ
ĠB Ãºt
ĠT Ã³m
d ung
Ġbu á»ĵm
ĠJ am
H a
Ġr eg
ĠSer ie
Tr Ãł
Ġèĭ ¥nhÆ°á»£c
ĠN Ã´m
Ġ19 72
V iÃªn
Ġéģĵ Äĳáº¡o
ĠColle ge
h Ãłnh
ĠT axi
ĠB lo
Ġh áº¥t
ĠS áº§m
B P
A m
Ġco ver
ĠL á»ĵng
Ġc Ã¢m
12 5
b iá»ĩt
\ "
Ġtiáº¿ u
G b
ĠM ail
Ġl ive
as k
ĠM iÃªn
Ġd t
L O
ĠDu áº©n
st al
Ù ħ
Ð¾Ð ´
on ic
ng oáº¡i
Ng oáº¡i
app hire
å ¿
Ġm Æ°á»Ľp
Ġv Ãºt
ac era
ber t
ĠD en
Tr Æ°á»Łng
Ġbá»ĭ nh
Ġv on
ĠU td
Ġh Ã©o
Ġsal on
M ar
â Ĩ
T á»Ŀ
ec irc
ĠS áº¯p
Ġb Ã¹a
ch iáº¿m
ĠdÃ¹ m
Ġm uá»ĳng
ĠR ai
ing fa
Ðµ Ð»
s ky
Ġç ©
ĠN O
Ġt itan
ĠVi os
X u
ĠBr id
Ġcatalog ue
Æ Ĵ
ĠD am
ĠDan iel
ÄĲ á»©ng
ĠSh e
Ġau to
Æ¯á»¢ NG
Ġy Ãª
ĠC á»ĳng
H A
ĠÄĲ áº¦U
Ġ198 5
ĠV IN
Ġvá» «ng
Ġup load
c ore
Th Æ°á»£ng
ĠTh oa
ĠCh á»Ĺ
ver y
evel op
ĠI CO
ÃĶ I
word s
$ -
ĠNob el
C á»Ļng
Ġm áºŃu
it es
ĠC ent
ĠQua l
S a
Ġchocol ate
m Ah
ĠG er
C E
Ġs á»Łi
om o
G V
Ġr ock
ch uyá»ĩn
n Ã³ng
ç ī
orn ing
Äĳ á»Ļc
ĠTr Ã¡ch
im ex
Ġm Ãºc
as p
th á»ĥ
x á»©
Ġnh ÃŃch
ĠÄĲ K
iá»ĥ ng
ĠT á»Ļc
Ġkáº» o
ĠCon an
Ġç Ń
ĠTH Ãģ
kh Ã³a
ĠM I
ff ic
Ġå± ±
ĠTh á»īnh
ĠLux ury
Ġlá» µ
n á»¯
? ".
c áº§n
ĠN TM
Ã Ĩ
ĠTr Ã¡c
ĠB Æ¡m
ĠL Æ°á»£t
ĠTr ao
d d
áº ª
h á»Ļi
ĠÄĲá» ĴNG
ĠÄĳÃ´ la
Ġph á»Ļng
eg as
t Æ°á»Ľng
ĠB á»ķn
V TC
7 50
ig o
ĠHo us
ĠOm ega
Ġg áº£
ĠJ ord
Ġchu Ã¢
S Ã¡ch
M ai
Ġgi áº±ng
ight s
Ġæ³ķ phÃ¡p
Ġm Æ°á»Ľn
Ġng Ã¹i
Ġt ext
U á»ĳng
Ch á»©c
ĠTR UNG
ar u
v ed
Ġáº¨ m
Ġvá»¥ t
U T
ÄĲ áº¹p
ch uyÃªn
R C
Ġ19 50
Ġco ok
Ġthá» ī
ĠL ien
ĠC F
ĠC X
ä ½
ĠT Ãºc
Ġ10 4
Ġw hi
ĠSt ud
om an
au s
al ign
ĠD ar
ĠVlad imir
Ġm áº¡t
b ia
ĠAgr ibank
un er
ĠV á»¤
ĠD á»ĭ
ĠC áº¥m
ĠH on
Ġ ãĢ
ĠT ÃĤM
v iÃªn
Ñ İ
Viet Q
c áº£m
Ġngh Ã©n
V I
ĠPal m
Ġt on
sp ot
Ġ( +
Ġnho Ã¡ng
ĠNgh iá»ĩm
ĠIm plant
Ġblu etooth
ĠÃ ī
Ġn á»±c
ĠL otte
UYá» ĤN
ĠN LÄĲ
Ġb r
ho Ãłn
Ġn okia
AT A
Ġbá»ģ nh
ĠÄĲ iÃª
C uá»ĳn
Ġé º
s y
Ġz alo
ĠO scar
ĠA ug
Ġnam e
ĠRed mi
Ġch á»ĵn
Ġng Ã³t
ÃĻ NG
m und
ĠN ag
Ġng Æ°á»£ng
N inh
el d
": "
ĠH TML
Iá»Ģ U
Ġh á»Ļc
ĠVill age
ĠV ista
' t
ĠC á»ĳt
ĠGi Ãł
ain a
zu ela
L ED
c áº£
ĠHung ary
ĠB á»ĵn
ĠR ay
áº¢ NG
au x
Ġ09 02
b áº¯t
ai t
kh ai
ĠV Æ°á»£t
ĠP iano
Ġ/ /
kh áº£
ĠE v
o is
Ġ amp
E IC
Ġthu e
Ġ10 7
Ġd Ã£n
Ġnh áºŃm
ĠF estival
r c
ĠÄĳá»į a
tr Ã¡i
ĠÄĲ á»Ļt
ĠX P
Ġnh á»įt
L áº¯p
ĠChar les
ĠH Æ°
µ ·
ĠThu áº§n
ĠQ atar
Ġbá»ĭ ch
ĠLum ia
ul f
S Æ°
G a
Ġn om
Ġd Äĥm
Ġ2 80
z one
p m
T áº¿t
ch uyá»ĥn
ĠSte ve
å į
th áºŃt
ĠÄĲá»¨ C
ĠM ek
Ch Ãłng
ĠPh iáº¿u
Æ¯á»ľ I
ĠWilli am
Ġng á»£p
Ġd iá»ħu
Ġng Æ°á»Ľc
ig r
ĠA CB
Ð¸ ÑĤ
? âĢĿ,
H ot
Th áºŃm
Ġj ava
Ġgi Ãª
G H
duc t
§ t
Ġtu áº¥n
ĠHan oi
Ġs ing
Ġáº¨ n
Ġtr Ã´
Ġ: :
n ik
Ġv ersion
Ġmang a
Ġkho Ã©t
l Ãªn
ĠV S
Ġ áº¿
Ġb Ã¡ng
c á»Ńa
it i
N LÄĲ
ĠAT GT
á» ¦y
Ġ10 6
ĠN uÃ´i
ÃĤ U
D Ã¢y
Ġl ich
b iáº¿n
id th
B á»©c
Ġw ork
ĠK á»ĩ
Ġl áº¡t
ĠR oll
** *
Ġè« ¸
Ġph á»ī
Ġtop ic
w on
âĢľ .
ĠO N
ĠM ix
c áºŃu
f ect
ĠXS MB
Ġd áº³ng
á»± ng
uc t
ĠHo ld
Ġä¸ ĭ
ĠPr in
v ar
d ar
ĠEx pl
Ġd á»ĳt
Ġ2 60
ĠNh Ã¢
Ġra dio
ĠTM ÄĲT
17 17
ĠB ut
Ġx áº©y
ĠM INH
ĠL Å©
ĠPH áº¦N
ĥ §
it z
ĠF err
ĠA th
ÄĲ á»ĭnh
Ġè«¸ chÆ°
Ġ organ
ÄĲ oáº¡n
Ġl uá»ĳng
Ġv áº¿
B iá»ĩt
Ġv Ã£i
L Æ°á»£t
us tr
Ġl á»ĳt
ĠLÃĢ M
l Ã½
Ġp oster
Ġr á»§a
ĠG ood
ĠL á»Ńa
c uá»Ļc
ĠV T
ĠP or
v ers
ĠAir ways
ĠN á»Ĺi
Ex press
ĠF ood
Ġng áº£i
Lu Ã´n
à ®
ĠT CT
ĠN C
ĠC ab
ĠÃ Ģ
Ġr á»£n
M V
art ment
ĠM ass
ĠB ÃģO
ĠX Æ°a
å Ń
Ġ á»£
ĠX Ãºc
ĠNor th
ĠK Ãª
Ġp op
Ġs y
ĠÄĲ BSCL
s us
ĠT Ãª
ĠD ev
Ġtá»ĳ p
ĠMel bourne
... âĢĿ
H iá»ĩu
ĠB á»ĵi
ĠCh áº¿t
Ġ11 3
ĠD ang
ĠT Ã´m
ĠThu á»Ļc
Ġser um
Ġkh áº¥n
ĠX ÃŃ
b u
ĠH um
ng Ã´n
ĠM á»Ĺ
ĠT A
qu áº£
ak h
b at
ı váº¥n
Ġt en
ĠB á»¯a
ĠM Ã¡u
ĠNg Ãµ
ĠB all
Iá»Ĥ M
Ġnh Ãµm
Ġg á»Ŀ
f s
ĠTr u
Ġâ ĺ
Ġg Æ°á»£ng
ĠE p
ĠCh á»©
ĠGem ek
ĠkÃ¬ a
ĠD á»¯
Ø ª
Ġr á»ĵ
Ġx Ã³c
Ġ áº£i
ĠT Ãį
ĠV L
st an
Ġl áº¡ng
od a
ĠâĢ º
áº¤ n
Pl us
Ġpl ugin
Ġsc an
UYá» ĦN
ĠNar uto
Ġl ist
ĠO x
Ġse arch
al s
ÃĢ O
Ġco s
R Ãµ
ĠM ot
t ail
ĠW TO
ai s
ĠB á»Ļi
á» ¢
B enz
ĠFranc isco
ĠKr Ã´ng
ĠN Ã©
Ġl Ã¹a
ĠL as
ĠEm p
Ġå±± sÆ¡n
T Ãºi
ĠPH Ãį
Ġh ÃŃ
ĠT ÃŃ
id as
ĠÐ ¼
ĠAl ibaba
ĠCr ist
Ġph Ãł
ĠX E
ĠSP F
âĢĿ )
ĠÄĳ iá»ĥu
Do wnload
º «
Äĳ á»Ļng
Ġso da
ed y
ĠC Æ¡n
ent s
99 0
ĠL ock
ĠCh ic
t á»ķng
Ġg roup
ĠHy un
ĠN K
ĠchÃ³ p
Ġdes ign
c ong
Ġm iá»ĩn
Ġnh am
ĠD I
Ġä¸ĭ háº¡
ĻĤ thá»Ŀi
Ġl Ã³e
ig ue
ĠK at
Ġc áº±n
å °
ĠChi le
l az
Äĳ Ã¢y
Ġdo i
un ction
c ode
ĠH á»Ľi
ĠAn ton
ĠTr á»«
Ġdo áº¡
Ġåħ ¶
ĠÐ¿ ÑĢ
Ù Ĭ
Ġh igh
ĠE V
ĠI M
ĠHo ang
Ġcomp osite
ogr aph
V á»ĳn
h at
S amsung
Ġbá»ĭ a
ĠT iá»ĩp
ĠPH áº¨M
ĠD y
ĠD ep
Ġ3 80
Ġç «
ĠTele com
Ġcá»ĳ m
ĠB ac
Ġ900 1
S K
Ġcar b
ĠVene zuela
Ġbu ild
L Ã£o
ĠRem ix
Ġc Ãłn
ãģ Ĺ
l Æ°u
Ng Æ°á»£c
Ġg áº¯p
ff ord
ĠA K
Ġj ack
Ġto m
n á»Ļi
ĠCo ffee
Ġå º
Ġs áº¥m
ib le
ĠAd min
h r
Ġæ Ħ
an ol
Ġ25 6
Ġch Ã³c
m ang
Ġr á»Ĺ
Ġth Ã¬nh
ĠB ob
dis play
m áº·t
Ġb ro
or o
v v
Ġqu áº·ng
ĠC áº¡nh
Ġè¡ Įh
th Ã¹ng
ªth uyáº¿t
ĠN ight
ĠS oo
nh iÃªn
Ġcá»ĳ p
Ġ4 000
Ġp c
ĠC Ãº
Ġtá» ģ
ĠTr ade
ĠInn ova
Ġh áº±n
Ġèª ªthuyáº¿t
Ġgiá» Ł
ĠN áº¡n
ĠHal loween
Ġt áº§u
ĠP VN
å¤ §
ol o
Ġan ime
Ġs elfie
Ġthá»¥ t
ĠM oh
ĠHo áº±ng
Ġåħ¶ ká»³
ĠTr á»Ļn
Ġ ÃŃ
l iÃªn
Ġch Ã¹ng
â Ħ¢
ĠD á»¤NG
V ui
? )
ĠL ion
c d
ĠL ine
ĠPal est
Ġvá»ĩ t
ĠTh uyá»ģn
Ġv oucher
00 1
AS A
v ille
t Ãłi
ĠKQ XS
+ ,
Ġt Ã©p
Ġn áº»
ĠV II
el en
H Æ°Æ¡ng
ĠJ im
Â ©
B e
Ġs hi
re al
>> >
ĠSil icon
: -
Ã ±
ĠS I
ĠCA ND
m u
ĠA DN
Ġkh Ã¢m
Ġqu oc
ĠTO EIC
ĠK az
ĠTr áº¡ng
ĠPhot oshop
Th áº©m
Th á»ĳng
ĠVietnam obile
m ax
ĠVat ican
ĠG un
on in
å ¼
ÄĲ áº£ng
ĠC loud
ĠHo Ãłnh
Tr Æ°Æ¡ng
Ġh Ã¬
ĠVC K
ĠTD TT
Ĩl ai
ĠéĿ ŀ
Ġban ner
th Æ°Æ¡ng
ĠB áº¢O
Ġåķ ıváº¥n
ĠTy pe
á» Ī
Ġ09 4
ĠOs aka
ast ic
kh á»Łi
Ġab out
Ġ0 24
ĠN ÄĤM
tr á»¥
Ġm ao
Ġä¾ Ĩlai
Ġå¤© å¤©
do anh
est a
âĢ¦âĢ¦âĢ¦âĢ¦âĢ¦âĢ¦âĢ¦âĢ¦ âĢ¦âĢ¦âĢ¦âĢ¦âĢ¦âĢ¦âĢ¦âĢ¦
L á»±c
og ba
Ġh un
Ġè ¬
................................ ................................
ĠV is
Ġr Ã¬nh
Th á»ĭt
ĠÄĲ á»ķ
Ã Ī
H áºŃu
Ġ10 9
ul ar
X Ã¡c
ĠÂ ½
ĠG áº¡ch
Gi Ãºp
Ġs ec
ĠHÄĲ XX
Ġé Ĥ
iz en
Ġkh Ã¢
G oogle
c ard
V Å©ng
W in
ĠÄĳ ÃŃt
A IDS
ĠQu á»³
Ġc Ãºt
! .
Ġl Ãºt
ĠEx c
ac y
ĠåĲ į
ĠC K
Ð½ Ð¾
Chu áº©n
Ø ¯
m Ã£
ĠP ap
Ġxu á»ĵng
ĠLin ux
y dr
Ġx y
z en
: âĢĿ
L iá»ĩu
ĠNh iá»ħm
Ġmod ule
ĠH Ãºt
ĠM att
ĠPH P
lo v
ĠM á»ĭ
ch ia
r or
Ġsá»Ń ng
al em
ĠCh á»Ŀ
ĠCam ry
ĠåŃ Ĳ
ĠC áº¤P
ĠV á»Ģ
c áº§u
ĠG ui
ÄĲ Ãło
Ġc á»įng
T iáº¿t
t á»·
Ġæ ±
ĠDu á»ĩ
ĠB ÃĮNH
om en
ĠS ab
ed a
Ġto i
Ġ- --
Th o
Kh uyáº¿n
ĠÄĳ iáº¿c
ĠR un
c us
gi an
s á»Ń
ĠM O
enc ia
ĠViet lott
ĠO DA
ĠïĢ ©
Ġd ua
ĠéĿŀ phi
Ġæ ĭ
ĠK a
Q U
el ess
" ),
v áºŃt
t Ã´ng
Ġtr á»įc
B YT
ĠFan page
Ġ ÑĢ
ĠH il
Äĳ Æ¡n
ĠE st
H áº¡t
ĠV R
z i
A E
Ġæ ĻĤthá»Ŀi
ere um
ĠQ ÄĲ
ĠCo in
for um
ev a
P R
ĠJord an
ĠNh at
Ġh Äĥm
L o
ĠW ork
lo c
Ġc Äĥ
22 6
ĠX Ãł
P re
ĠTp HCM
ĠT ÄĲ
S L
S ing
ĠT á»Ľ
âĢĿ ?
Ġv al
Ġn iÃª
ĠB Ã²
Ġr am
F ast
id es
k top
ĠHD D
Ġp an
Ng Ãłi
ĠW ay
Ãĥ ÆĴ
Ġé Ļ
ĠB XH
ĠK aw
T uyÃªn
ĠV III
Ì Ľ
Nh áº¥t
Ġr Ã´n
ĠB iá»ĩn
ĠKh iáº¿t
Ġi pad
ug uay
á»ĩ ch
O X
ĠOr gan
T ay
Ġs iÃªng
Ġx uyáº¿n
Qu Ã¡n
Ġkhu á»·
G Hz
ĠHarv ard
Ġqu áºŃy
ir on
Ġh Äĥ
Ġnh á»¡
Äĳ á»ĵ
V Ã¢ng
ĠSacom bank
ÃĶ N
ÃĢ NG
T Ã´n
ĠX D
" ]
ĠS to
ĠK Ã¬
Ġth áº¡nh
Ġbu ffet
Ġr Æ°á»Ŀm
Ġd áº«m
t iÃªu
ĠÄĳ Ãºp
Ġch áº¥u
ĠPh Ãºt
laz ada
ÄĲ Ãłi
Ġback link
col a
y u
ĠM áº¡t
ors che
l ie
v ui
C ÃĶNG
Ġb at
n an
c ua
ĠåĲį danh
s in
ĠShow room
ĠH ino
c es
r ad
Ġp en
ĠT áº¯c
ĠCas ino
ĠContin ue
Ġh as
ĠTN CS
ĠPh áº«u
Ġth áº«m
Ġlog istics
ĠHen ry
2 88
Ġ09 17
Ġ24 7
ĠVal entine
Ġ ass
ou ter
Ġr áºŃn
ĠK ai
th áº¥t
ĠMek ong
Ġ11 8
Ġcu áº£
ĠSH B
ĠV es
Ġ19 74
F L
Ġ á»ĳi
ĠTh Æ¡m
Ġd iá»ħm
Ġb Æ°Æ¡
Ġs kin
ĠSqu are
g g
Ġnh ac
Ġph á»Ľt
pp er
M y
ĠGi Ã¢y
h á»ĩ
ĠC Æ¡m
ĠTh á»Ŀ
B NN
ĠX ÃŃch
b Ã¡o
Ġg anh
E NT
Ġ13 6
ĠH inh
g ov
ĠLH Q
á»Ĳ NG
Ð° ÑĢ
Ġnh á»£t
Ġb oy
ĠE s
Ġå Ĭ
v ious
ĠÄĲ Æ°
n c
N ew
ĠSc ot
Ġth read
Ġâ ī
ĠP ot
ĠNh Æ°á»£ng
at ic
b us
or er
nh iá»ģu
ĠC all
ĠE pson
v u
Ġè ı
Ġs in
ĠB á»ĺ
ĠCost a
¿ t
Ġhá» Ń
L áº¡y
S oi
ĠM ike
Äĳ áº³ng
o unce
5 50
Ġo anh
ĠÄĲ áº©y
ĠG á»ĵm
m áº¹
Ġb ac
v Ãło
ĠP K
Ġr Ã¡ng
ĠO xy
Ġngá»¥ m
6 50
s ize
ĠC IA
im g
um ber
ĠSp ec
ĠL á»įc
brid ge
Ġ? ??
B á»ĳn
ub le
ĠG Hz
= '
k bps
Ġv áº¹o
Ġai r
P I
ĠVKS ND
ĠmÃ´ t
ĠHá» Ĵ
ĠD iÃªm
k Ã½
e i
ĠTR ONG
Ġ198 4
ĠS in
ug h
ĠJ er
Kh á»Łi
h Æ¡n
ĠPalest ine
ĠEd ition
Ġ? ?
ĠvÃ© n
Ġgi Äĥng
ĠNov aland
Ġn á»¡
ĠKhu Ã´n
Äĳ oáº¡n
ĠNH ÃĤN
ĠL td
tr ÃŃ
" ...
w rit
Ġlá» ıi
Ġu áº¿
Ġr á»Ļp
kh am
ĠG Ã£
ĠTC VN
F O
Ġg out
ĠNh áº¥n
áº¸ P
Ġ ÑĤ
ĠD áº«u
ĠX o
B GDÄĲT
M o
Ġgi Ã¹m
oster one
ĥ§ TÄĥng
ĠR ose
B B
ĠP ogba
al in
áºł NH
to ur
ĠP oint
Ġwin dows
ĠGi Ãłu
Ġkhuá»· u
Ġli u
ĠC are
Ġæ ·
ĠNh iáº¿p
Ġr áº§u
Ġd áº¥m
ĠB h
Ġr ec
s ki
V Ãłi
ĠTr á»¯
ĠM Ã¢n
Ġhand made
B iá»ĥu
Ġ, ...
TN MT
ĠFlor ida
ĠSh are
ĠCh ip
c áºŃp
ĠB A
t an
ĠH or
ĠTh S
ĠKh Ã¡i
ĠN inja
C ar
ĠÃ °
Ġl áº³ng
ĠQu ÃŃ
ĠL iá»ģn
ĠArab ia
Ġ19 76
ĠTh ung
Ġenz yme
Ġå ł
ĠC ode
w i
Ġvir ut
Iá»Ĩ T
X uÃ¢n
Ġtu c
Ġkh Ã©t
and y
ĠF ox
Ġ17 5
Ġ19 73
ĠåŃĲ tá»Ń
ĠÄĲ Ã¡n
Ġam idan
Ġtu oi
ĠPH Ãļ
ĠG Æ°Æ¡m
2 30
c y
Ġå ĭ
ĠGi áº¥c
Ġd er
V ua
ia t
Ġm il
ĠS áº¯t
ĠC á»Ļt
ĠL Æ°á»Ľi
Tr Ã¬nh
ng he
á»ģ u
ĠAc er
Ġtrá»« u
ic ester
ĠAt l
âĸ º
Ġgi Ã´ng
Iáº¾ N
Th áº£o
el y
ester n
ĠAc id
ĠVin ac
Ġ0 88
ĠGi o
Ġtab let
ĠSl im
ĠTr á»ĵng
Ġbá»ĭ p
ĠBlo om
Ġéº ¼
ry lic
Ġåī ĩ
Ġn ong
ĠTH I
ag ement
Ġho p
ĠB oy
V inh
Ġt uyá»ģn
Ġf ilm
ĠV ar
ent ial
Ġéº¼ ma
m á»Ł
t ext
Ġ áº£m
Ġ( -
Ġch áº»
ĠN ike
as ma
Ġ198 3
Ġn ÃŃt
* )
Ġng Ãºt
L Ã¡
Ġvá»ı n
Ġb á»Ŀi
F T
ĠBu ff
ĠMac Book
Ġcom bo
ĠMan ager
L á»¥c
Ġb á»¥c
Ġåīĩ táº¯c
ort mund
Ġl em
ĠUr uguay
Æ¯á»¢ C
ĠSec ret
ĠMar io
ĠFort uner
Ġch Æ¡n
Nh á»Ľ
Ġch au
ĠvÃŃ u
ĠL eo
ĠL ev
r ent
ĠçĽ¸ tÆ°Æ¡ng
ĠK Ã©o
if er
Ġ0 28
Ġch á»Ļi
ĠVir gin
Ġg ao
Ġåĩ º
ĠÄĲ á»ķng
ĠX áº¿p
ĠJohn son
ç ½
ĠTh á»£
B N
T Ãłu
Ġsho phouse
b ach
Ġg oi
ĠNg á»§
d ia
ĠPr ime
Ġph áº£ng
ĠI X
T our
ĠD al
f i
Ġnh áº¿ch
D ung
Ġc p
ard o
ĠNg Äĥn
ĠCN N
V Ã¢n
Ġè¡Įh Ãłnh
nh anh
ĠP om
ĠJ our
Ġmel anin
Ġau dio
2 10
Ġè ĥ½
ĠÆ¯ Æ¡ng
i Phone
Ġj av
Ġl á»ĭ
Ġqu áº»
Ġc all
Ġtr á»Ĺi
Ġc áº¡p
Ġcho i
ĠMáº¹ o
Ġå ½
Ġç ¦
n u
Ġc ent
r t
ĠN eo
ĠB I
Ġtr on
Ġg Æ°Æ¡m
Ġä» Ĭ
3 65
Ġh Ã²ng
Ġho me
ĠTag s
Ġv Ã¯
Ġth au
Ġg Ã¹
Ġé ļ
as aki
ĠNG UYá»ĦN
ho c
áº® C
âĢ¦ ),
ĠT Ã¡i
Ġv oan
T áº¥m
b org
Ġg á»ĵ
b oy
Ġnat ri
ĠH uyÃªn
Ġ15 5
H I
Ġ ag
Ġx á»ı
ĠNS Æ¯T
Ġt áºŃu
ĠPHÃģ P
ĠTh Ãª
ĠAl bum
ĠE a
Ġth Ã³c
x anh
k el
ĠX L
ĠMax mobile
ĠB Ã¹
ĠDie go
ĠIn c
Ġqu Ã¡ng
ĠÃ ĩ
Ġcu oi
Ġ19 78
ng u
Ġyá»ĥ m
ĠChá»ĭ u
Ġc ort
ĠHN X
b log
ear s
ĠP ent
Ch uyáº¿n
ĠKang aroo
V Ä©nh
im er
Ġçľ ¾
Ġm eg
un es
Ġb in
ĠCh á»¥p
Ġèĥ½ nÄĥng
m et
ok a
ĠCh Æ¡n
ĠAngel a
ir us
M od
Ġph p
if lex
ĠNh áº«n
( )
ĠTh Ã¢m
Äĳ Ãł
Ġåĩº xuáº¥t
Ġ11 4
ĠN ick
ĠM arket
iv ate
ÄĲ K
n ame
O M
Ġåľ ¨
ĠK n
Ġch á»ĵi
Ġk Ã¬nh
ĠN áº¯ng
Ġad d
ĠNg o
Ġçľ¾ chÃºng
ĠTay lor
Ð ³
H á»Ļp
19 98
Ġngu Ã´
Ġm ot
ĠN TK
ab i
Ġi f
Ġå ĥ§TÄĥng
ua la
ĠDai kin
Ð¾Ð ³
: :
Ġp as
, ....
ĠNg ang
d Ã¹ng
o acute
Ġch Ã´ng
l acera
Ġng ai
Ġse e
Å ¨
ĠF it
Ġç ¥
f ont
Ġth eme
ĠB et
è ®
ĠM iáº¿n
Ġåľ °
T Q
ĠD ia
Ġch á»Ńa
il ia
Ġh Ãº
¡ t
ĠSo und
ĠLH PN
ĠShar p
ĠF DA
ĠTTT M
66 6
Ġr Ãª
ir d
d iv
Ġtr á»ĵ
ĠK á»µ
Ġph uc
Ġ= ))
ĠTra fford
ĠÄĲá»Ĭ NH
Ġ9 99
å ¸
ĠR io
ĠF ly
ĠAward s
ĠR A
as u
ĠQ C
Ã ¥
ĠT á»Ķ
Ġ12 6
Ġj ust
Ġæ ¬
Cl ass
Ġd ÃŃ
ĠP G
ĠH ÄĲT
Ġb áº·m
C á»ķ
ĠÄĲ em
Ġæ Ļ
ĠEng ine
ph am
Ġn ÃŃn
ĠM Ã¢u
ĠÄĲ áº¸P
z er
Ġl Ã¡o
Ġvn Äĳ
Ãµ a
n Ã³
Ġr Æ°ng
ĠT Ã¡nh
Ġch áº§m
ph at
m áºŃt
ĠMU A
Ġf pt
Ġ09 07
d Ã¹
M áºŃt
Ġl evel
Ġso cola
r em
áº« ng
ĠèĻ ķ
Ġlo ad
C ap
Ð¸ Ð½
Ġch á»«a
ï¼ ®
n Æ¡i
ä¸ Ģ
k ip
ac irc
ĠAd obe
Ł m
o le
ï¼® ï¼
ĠH Ã£n
Ġv Ã¡t
199 2
Ġ09 13
ĠEuro pa
Ġch Æ°á»Ŀm
ĠV D
ĠUE FA
ĠÃĲ áº¡o
ĠC Ãłn
V iew
Ġdu á»ĩ
Ġr Ã¨
ĠÄĳá»ģ m
Ġç ¶
Ġ áº¯p
Ġn ude
ĠG ot
B Ã³ng
ĠN iger
ĠBlock chain
ĠT iÃª
==== ====
Ġm iáº¿n
ĠN ic
Ch Ã¹a
O r
ĠCrist iano
Ġé ¡
Th Ã´i
Ch Ã¡u
Ph an
! ".
ĠC iv
Äĳ ang
m Ãłu
Ġh ere
ĠTO ÃĢN
Ġ8 50
ĠC U
ĠAF P
b Ã¡t
S ai
Ġk iáº¿t
ak ing
Ġlo ck
Ġo ver
N C
Kh Ã¡m
ann el
C Ã¡m
Ġnh Ã¨
ĠNG Æ¯á»ľI
g irl
d á»¥ng
TT H
Ġè º«
Nh iá»ĩm
ĠC Å©
ĠA NH
Ġt Ãºm
ĠC re
ĠC our
ent o
ĠHÃĢ NH
ÄĲTB XH
ĠChic ago
ĠP orsche
Ġ19 63
gi Ãºp
ng uyen
? ,
b ÃŃ
N áº¯m
Ġnh á»«
ell i
l Ãºc
on ia
Ġ4 80
p ar
Ġv Æ°Æ¡
ĠNh Ã´m
S I
ĠÄĲ á»ĭch
Ġ oli
Äĳ iá»ĩn
ĠK l
ĠTag ged
Ġs ale
il ity
ĠRob ot
æĹ ¶
ĠAn n
Hu áº¿
ãģ «
Ġ á»Ńng
ĠD ortmund
ĠÆł n
G Ã³i
ĠD ol
s ang
ĠBol ero
ĠD at
ĠSe a
Ġph Ã¬nh
ĠÃĲ Ã´ng
ĠD áº¡ng
g n
L Ãªn
Ġc áº³ng
ĠB áº¥y
ĠC á»ĵn
19 99
Ġk iá»ĩu
Ġch Ãły
Ġ27 0
cont ent
ĠvÃŃ a
Ġ19 65
omb ie
ĠD Ãłn
s how
av en
ç İ
Ġæ³ķ PhÃ¡p
ĠT áº©y
ĠÄĲ ai
ĠB uá»ĵn
v Ãłng
Ġnh Ã³i
Ġsil ic
ig an
Qu ang
ãģ §
ĠBro wn
AM A
ch inh
ĠL AO
ĠL oÃłi
ĠLe icester
ĠC Æł
ĠT iger
ï¼®ï¼ ¡
E B
Ġ09 7
ĠG ates
Ġgam es
ĠW ith
Ġhá» Ŀi
ng oÃłi
ĠVig lacera
ĠB ul
Ġæ °
ĠCh an
Ġ11 7
ĠB ody
ĠAc ad
Ġch Ã²i
ĠGi u
Ġth em
Ġng áº§u
P od
Ġoli u
al t
ĠM H
ĠM assage
10 5
ĠBar ack
á»ĺ T
e f
Ġni u
ĠW enger
Ġä½ ľ
v at
ĠL ÃŃ
S Ã¢n
ĠN P
ĠH Æ°á»Ŀng
ĠSec urity
ĠÄĳ áº£nh
ĠA qu
C r
Ġv ol
Ġbá»ī m
Ġä»Ĭ kim
ĠLa w
V Ã¹ng
ĠH á»·
ĠK iáº¿p
ĠDN A
enc es
Ġnh Ãºt
ĠB TV
V áºŃt
ĠB á»Ĺng
ĠQual comm
ĠViet sub
ĠÄĲ á»£i
ĠKh Ã¢m
ĠB om
ĠT ÃĢI
ĠCH I
Ġlo Ã¡ng
ĠH TV
doc ument
ĠN ational
ĠK áº¾
ĠCh áº£i
uk a
Ġ ë
p ut
ump ur
---------------- ----------------
Ġèº« thÃ¢n
ĠÄĲB QH
ĠId ol
Ġng á»į
Ġur ic
æ ī
NLÄĲ O
ĠèĻķ xá»©
Ġkh áº£m
Ġåľ¨ táº¡i
âĢĿ (
Ġtu á»ĵng
e ing
nh áºŃn
Ġch áº§u
Ġtá» ĥ
art a
Gi Ãły
ĠK Ã¨m
ĠB Ãłu
t ic
ĠD á»ĬCH
ĠVo ice
T iá»ĩn
iz ation
áº¢ M
j ob
Ġ19 20
ĠSo fa
ĠStand ard
Ġnh á»į
Ġxu Ã´
ĠKh Ã´n
ch á»ĳng
} .
æ Ī
ĠF i
Ġh ero
ĠK DC
Ġvá»ĭ n
NH NN
R Æ°á»£u
ĠE D
Ãµ n
App le
Ġä½ľ tÃ¡c
on i
ĠTH Æ¯ÆłNG
Ġth Ã²
eo ple
che z
23 6
ĠN Æ¯á»ļC
ĠD Ã¢u
ĠN ang
Ġh ong
to y
Ġty pe
» kh
ĠçĦ ¶
Ġg áº¥c
áºł T
Ġl Ã©p
ĠG all
e nh
ĠHe alth
Ġn áº¹p
ĠTr Æ°Æ¡
ĠM em
ĠChá»ī nh
ĠV á»±c
ĠK ur
Ãģ NH
UYá» Ĩ
ĠG et
Ġb á»įng
G r
ĠO ri
ĠCh áº£
C á»±u
Ġ11 9
M icro
ï ĥ
ĠHit achi
ĠB á»ĳi
ĠBr and
f ul
á» İ
r ise
top ic
ĠU Ã´ng
ph Ãª
Ġb á»Ł
Ġ3 30
ĠE M
ĠFor bes
ĠVÄĲ QG
ch áº¿t
ĠViet Nam
Ġ12 2
r Ãª
Ġe ng
ĠGD ÄĲT
X P
Ġnh Ã£o
il i
ĠBr it
É ĳ
Ġgiá» ¡n
ĠC os
ĠLeg end
ĠExpl orer
Th Ã¬
Ð¾ ÑĤ
ĠC op
ĠMoh am
Ġkh áº¥t
ĠQu i
N o
ĠD U
ĠY e
ON E
ĠÃģ N
N O
Ġ19 69
C loud
ĠSm ith
Äĳ áº¡t
Ġå ¥
uc ation
ĠçĦ¶ nhiÃªn
ĠT á»ª
l la
ĠT I
ÄĲ á»Ŀi
Ġu á»ķng
us ic
ĠKho Ã¡ng
Ġ( âĢľ
Ġ16 5
ĠVina Phone
Ġs áºŃm
ĠM ul
Ġ09 06
ĠQue en
Ġf ax
ĠL Å©ng
b all
M ax
ĀĀĀĀĀĀĀĀĀĀĀĀĀĀĀĀĀĀĀĀĀĀĀĀĀĀĀĀĀĀĀĀĀĀĀĀĀĀĀĀĀĀĀĀĀĀĀĀĀĀĀĀĀĀĀĀĀĀĀĀĀĀĀĀĀĀĀĀĀĀĀĀĀĀĀĀĀĀĀĀĀĀĀĀĀĀĀĀĀĀĀĀĀĀĀĀĀĀĀĀĀĀĀĀĀĀĀĀĀĀĀĀĀĀĀĀĀĀĀĀĀĀĀĀĀĀĀĀĀĀĀĀĀĀĀĀĀĀĀĀĀĀĀĀĀĀĀĀĀĀĀĀĀĀĀĀĀĀĀĀĀĀĀĀĀĀĀĀĀĀĀĀĀĀĀĀĀĀĀĀĀĀĀĀĀĀĀĀĀĀĀĀĀĀĀĀĀĀĀĀĀĀĀĀĀĀĀĀĀĀĀĀĀĀĀĀĀĀĀĀĀĀĀĀĀĀĀĀĀĀĀĀĀĀĀĀĀĀĀĀĀĀĀĀĀĀĀĀĀĀĀĀĀĀĀĀĀĀĀĀĀĀĀĀĀĀĀĀĀĀĀĀĀĀĀĀĀĀĀĀĀĀĀĀĀĀĀĀĀĀĀĀĀĀĀĀĀĀĀĀĀĀĀĀĀĀĀĀĀĀĀĀĀĀĀĀĀĀĀĀĀĀĀĀĀĀĀĀĀĀĀĀĀĀĀĀĀĀĀĀĀĀĀĀĀĀĀĀĀĀĀĀĀĀĀĀĀĀĀĀĀĀĀĀĀĀĀĀĀĀĀĀĀĀĀĀĀĀĀĀĀĀĀĀĀĀĀĀĀĀĀĀĀĀĀĀĀĀĀĀĀĀĀĀĀĀĀĀĀĀĀĀĀĀĀĀĀĀĀĀĀĀĀĀĀĀĀĀĀĀĀĀĀĀĀĀĀĀĀĀĀĀĀĀĀĀĀĀĀĀĀĀĀĀĀĀĀĀĀĀĀĀĀĀĀĀĀĀĀĀĀĀĀĀĀĀĀĀĀĀĀĀĀĀĀĀĀĀĀĀĀĀĀĀĀĀĀĀĀĀĀĀĀĀĀĀĀĀĀĀĀĀĀĀĀĀĀĀĀĀĀĀĀĀĀĀĀĀĀĀĀĀĀĀĀĀĀĀĀĀĀĀĀĀĀĀĀĀĀĀĀĀĀĀĀĀĀĀĀĀĀĀĀĀĀĀĀĀĀĀĀĀĀĀĀĀĀĀĀĀĀĀĀĀĀĀĀĀĀĀĀĀĀĀĀĀĀĀĀĀĀĀĀĀĀĀĀĀĀĀĀĀĀĀĀĀĀĀĀĀĀĀĀĀĀĀĀĀĀĀĀĀĀĀĀĀĀĀĀĀĀĀĀĀĀĀĀĀĀĀĀĀĀĀĀĀĀĀĀĀĀĀĀĀĀĀĀĀĀĀĀĀĀĀĀĀĀĀĀĀĀĀĀĀĀĀĀĀĀĀĀĀĀĀĀĀĀĀĀĀĀĀĀĀĀĀĀĀĀĀĀĀĀĀĀĀĀĀĀĀĀĀĀĀĀĀĀĀĀĀĀĀĀĀĀĀĀĀĀĀĀĀĀĀĀĀĀĀĀĀĀĀĀĀĀĀĀĀĀĀĀĀĀĀĀĀĀĀĀĀĀĀĀĀĀĀĀĀĀĀĀĀĀĀĀĀĀĀĀĀĀĀĀĀĀĀĀĀĀĀĀĀĀĀĀĀĀĀĀĀĀĀĀĀĀĀĀĀĀĀĀĀĀĀĀĀĀĀĀĀĀĀĀĀĀĀĀĀĀĀĀĀĀĀĀĀĀĀĀĀĀĀĀĀĀĀĀĀĀĀĀĀĀĀĀĀĀĀĀĀĀĀĀĀĀĀĀĀĀĀĀĀĀĀĀĀĀĀĀĀĀĀĀĀĀĀĀĀĀĀĀĀĀĀĀĀĀĀĀĀĀĀĀĀĀĀĀĀĀĀĀĀĀĀĀĀĀĀĀĀĀĀĀĀĀĀĀĀĀĀĀĀĀĀĀĀĀĀĀĀĀĀĀĀĀĀĀĀĀĀĀĀĀĀĀĀĀĀĀĀĀĀĀĀĀĀĀĀĀĀĀĀĀĀĀĀĀĀĀĀĀĀĀĀĀĀĀĀĀĀĀĀĀĀĀĀĀĀĀĀĀĀĀĀĀĀĀĀĀĀĀĀĀĀ ĀĀĀĀĀĀĀĀĀĀĀĀĀĀĀĀĀĀĀĀĀĀĀĀĀĀĀĀĀĀĀĀĀĀĀĀĀĀĀĀĀĀĀĀĀĀĀĀĀĀĀĀĀĀĀĀĀĀĀĀĀĀĀĀĀĀĀĀĀĀĀĀĀĀĀĀĀĀĀĀĀĀĀĀĀĀĀĀĀĀĀĀĀĀĀĀĀĀĀĀĀĀĀĀĀĀĀĀĀĀĀĀĀĀĀĀĀĀĀĀĀĀĀĀĀĀĀĀĀĀĀĀĀĀĀĀĀĀĀĀĀĀĀĀĀĀĀĀĀĀĀĀĀĀĀĀĀĀĀĀĀĀĀĀĀĀĀĀĀĀĀĀĀĀĀĀĀĀĀĀĀĀĀĀĀĀĀĀĀĀĀĀĀĀĀĀĀĀĀĀĀĀĀĀĀĀĀĀĀĀĀĀĀĀĀĀĀĀĀĀĀĀĀĀĀĀĀĀĀĀĀĀĀĀĀĀĀĀĀĀĀĀĀĀĀĀĀĀĀĀĀĀĀĀĀĀĀĀĀĀĀĀĀĀĀĀĀĀĀĀĀĀĀĀĀĀĀĀĀĀĀĀĀĀĀĀĀĀĀĀĀĀĀĀĀĀĀĀĀĀĀĀĀĀĀĀĀĀĀĀĀĀĀĀĀĀĀĀĀĀĀĀĀĀĀĀĀĀĀĀĀĀĀĀĀĀĀĀĀĀĀĀĀĀĀĀĀĀĀĀĀĀĀĀĀĀĀĀĀĀĀĀĀĀĀĀĀĀĀĀĀĀĀĀĀĀĀĀĀĀĀĀĀĀĀĀĀĀĀĀĀĀĀĀĀĀĀĀĀĀĀĀĀĀĀĀĀĀĀĀĀĀĀĀĀĀĀĀĀĀĀĀĀĀĀĀĀĀĀĀĀĀĀĀĀĀĀĀĀĀĀĀĀĀĀĀĀĀĀĀĀĀĀĀĀĀĀĀĀĀĀĀĀĀĀĀĀĀĀĀĀĀĀĀĀĀĀĀĀĀĀĀĀĀĀĀĀĀĀĀĀĀĀĀĀĀĀĀĀĀĀĀĀĀĀĀĀĀĀĀĀĀĀĀĀĀĀĀĀĀĀĀĀĀĀĀĀĀĀĀĀĀĀĀĀĀĀĀĀĀĀĀĀĀĀĀĀĀĀĀĀĀĀĀĀĀĀĀĀĀĀĀĀĀĀĀĀĀĀĀĀĀĀĀĀĀĀĀĀĀĀĀĀĀĀĀĀĀĀĀĀĀĀĀĀĀĀĀĀĀĀĀĀĀĀĀĀĀĀĀĀĀĀĀĀĀĀĀĀĀĀĀĀĀĀĀĀĀĀĀĀĀĀĀĀĀĀĀĀĀĀĀĀĀĀĀĀĀĀĀĀĀĀĀĀĀĀĀĀĀĀĀĀĀĀĀĀĀĀĀĀĀĀĀĀĀĀĀĀĀĀĀĀĀĀĀĀĀĀĀĀĀĀĀĀĀĀĀĀĀĀĀĀĀĀĀĀĀĀĀĀĀĀĀĀĀĀĀĀĀĀĀĀĀĀĀĀĀĀĀĀĀĀĀĀĀĀĀĀĀĀĀĀĀĀĀĀĀĀĀĀĀĀĀĀĀĀĀĀĀĀĀĀĀĀĀĀĀĀĀĀĀĀĀĀĀĀĀĀĀĀĀĀĀĀĀĀĀĀĀĀĀĀĀĀĀĀĀĀĀĀĀĀĀĀĀĀĀĀĀĀĀĀĀĀĀĀĀĀĀĀĀĀĀĀĀĀĀĀĀĀĀĀĀĀĀĀĀĀĀĀĀĀĀĀĀĀĀĀĀĀĀĀĀĀĀĀĀĀĀĀĀĀĀĀĀĀĀĀĀĀĀĀĀĀĀĀĀĀĀĀĀĀĀĀĀĀĀĀĀĀĀĀĀĀĀĀĀĀĀĀĀĀĀĀĀĀĀĀĀĀĀĀĀĀĀĀĀĀĀĀĀĀĀĀĀĀĀĀĀĀĀĀĀĀĀĀĀĀĀĀĀĀĀĀĀĀĀĀĀĀĀĀĀĀĀĀĀĀĀĀĀĀĀĀĀĀĀĀĀĀĀĀĀĀĀĀĀĀĀĀĀĀĀĀĀĀĀĀĀĀĀĀĀĀĀĀĀĀĀĀĀĀĀĀĀĀĀĀĀĀĀĀĀĀĀĀĀĀĀĀĀĀĀ
f ood
¥nh áºŃt
l em
Ġdo c
ĠCH á»¦
Ġè¨ Ģ
ĠTh áºŃn
ĠI b
m áº¥t
ĠJ av
Ġs ter
ĠSport s
Co in
Ġng Ã²
ĠlÃł o
O ne
Ġng Ã¡c
Ġ ed
ĠDH A
nh an
C áº¥u
ĠD iá»ĩt
ĠA ction
Ġäº ¦
Ġng Ã³c
d iá»ĩc
ĠæĹ ¥nháºŃt
do or
ĠA L
ĠH áº¡c
á»ĺ C
ĠB áº¥m
ĠK uala
ĠJ ustin
ĠN ou
ĠM ain
Ġch ong
t iáº¿p
ĠB áºŃt
ĠCh Ã³
ĠG L
K á»·
Ġb ig
ĠK D
ĠA o
ĠVi p
Ġd iáº¿p
Ġg Ã£i
ok er
Ġl Ãºm
ĠL ake
Y Ãªn
d ien
Ġba by
ĠN á»¥
ĠFed er
ust a
ĠL umpur
H Q
z b
å¹ ´
ĠÄĲ Ãłng
ÄĲ en
r in
Ð¾ Ð½
ĠPh Ã¢
b s
ĠTo áº£n
t iá»ĥu
web site
ĠH Æ°á»Łng
¯ ng
Ġc Ã²ng
ĠR over
Ġäº¦ diá»ĩc
E V
ev in
ĠL á»ĳi
Ġláº» o
y outube
ĠM ill
U I
p ot
t á»ĳi
ĠN ad
ĠC Æ°á»Ľi
l Ãª
ĠT ony
ĠI BM
ĠMan ila
Ġl Æ°á»£m
Ġlo ang
ĠTr á»įn
w ap
or ation
b ang
Ġg alaxy
Ġk et
ĠE ar
Ġs m
ĠF ashion
Ġxo an
Kh Ã¡nh
Ġvinh omes
ĠS earch
v as
ĠR F
L Æ°Æ¡ng
Ġd iá»ĩp
g Ã¢y
ĠB und
ĠTa e
ĠL M
Ð¸ Ñı
ĠS ett
Ġl ap
w agen
ew oo
ç½ ĳ
ĠChu á»Ļt
Ġ Ã©
Ġx áº»o
em ail
Ġco ck
ĠHous ton
Ġs ch
ĠL ady
ĠN á»ĵi
ĠKh inh
ĠMc C
ĠE ss
ĠÄĲ á»£t
d or
tr ic
om i
Ġè¨Ģ ngÃ´n
à ¦
Ġth Ã¢y
Ġl á»±
ch ÃŃ
ĠM Ãły
Ġcho n
Ġdom ain
ĠG as
v Ã¹ng
Ġth Æ¡i
ĠL es
d inh
M e
v et
ãģ ª
at ure
ES T
ĠQ uyáº¿n
d á»¯
âĢ ³
g gi
Ī h
PP O
t áº¡o
ĠB io
m ai
ĠÆ¯ ng
az er
ĠÄĲ á»©a
k áº»
ĠG Ã¢y
Ġä¸ ĸ
Ġx Ã¢u
ch an
Ġth inh
we et
ĠM á»ļI
ĠH R
Ġ12 7
G o
Ġu Ã´
ĠCh Ã¡y
ĠW oo
m iá»ħn
ant a
14 0
f ox
á»± t
ĠçŃ ī
ĠA y
Ġso c
Ġåı ¯
Ã ķ
ĠM orning
ĠVI ÃĬN
c Ã¢u
ãģ ¦
ĠÄĲ CS
k aku
ĠBos ton
Ġx áº¯t
ĠR ic
Ġ19 30
P GS
ĠTh Ã¡o
ĠN á»ĳi
á»Ĳ T
Ġc s
nh a
d t
ĠM Ã¡
Ch Ã¢u
f riday
Ù ĩ
ĠL ar
ĠMar y
Ġç© º
h ome
} }
Ġh Ãłu
col or
ĠTH ANH
ĠæĪ Ĳ
Ġr an
Ġ Ã³i
Ġre ading
Ġ198 1
Ġå Į
ĠT áº£o
ĠMar ina
ĠHar i
ĠNS NN
ĠÃģ c
Ġg ara
Ġr iáº¿t
ĠF ar
" ;
Ġn áº§n
âĢĿ !
Ġl áº©m
ĠMen u
ĠP RO
ĠBus h
ĠTh áº£m
em en
ĠNg Æ°ng
ĠH az
UYá» ĢN
Ġkh Æ°u
as ho
ĠKh uáº¥t
w ich
ch iáº¿c
ĠåĽ ł
Web site
Ġn Ãºp
± t
Ġç İ
v iá»ĩc
f it
ĠF ab
ĠLot us
i ro
ĠL ittle
Ġcá»ı i
ĠR ome
T ech
b á»ı
Ġm á»Ńa
ĠÄĳ áº£n
ĠTT HC
p to
ĠM á»ı
Ġcont ent
CN V
ãĥ ³
P in
old er
ĠEth ereum
ĠXH CN
K A
Ġh Ã¹m
ĠPer u
ĠO P
j an
ĠTT XVN
Ġ14 5
Ġh Ã¡ng
ng ay
r um
Ġk iáº¿ng
V itamin
lo p
th ÃŃch
ok u
ĠNiger ia
Ä ±
ai i
ĠIn verter
B y
ĠA sh
ĠPro ject
t ing
t ime
iz ed
ĠT iá»ĩm
ĠG or
ks wagen
T áº§ng
ĠB ag
el n
ĠR og
è µ
ĠPH ÃĴNG
ĠW ood
ĠÄĳ iáº¿m
Ġ19 67
S port
ĠAs ian
ĠGi Æ°á»Ŀng
Ġp p
le an
ĠB and
Ġs Ã¡
Ġ* **
Ġåı¯ kháº£
ĠX Ãª
á»¬ A
ĠAr ena
c Ã¡nh
ond er
Ġti en
Ġch ÃŃt
äº º
ĠK INH
to Ãłn
Ġm obi
Ġh er
Ġ09 03
m á»Ľi
Ġï £
ĠJ obs
ĠPh iÃªu
oo p
ĠH ÃĮNH
C u
Ġå¤© thiÃªn
L D
Ġch iÃªng
Ġm aster
ĠE b
B á»įn
Ã ¸
ĠC Æ°á»Ŀi
ĠX NK
ĠHS SV
Ġp ark
Ġ09 01
ãĤ ĭ
l Äĥng
S e
ĠVH TT
ãģ Ł
ĠOnline friday
Ġl Ã³ng
Ġb iáº¿c
Ġlip id
Ġç©º khÃ´ng
Ġs n
Ġng á»£m
l áº¡c
Ġd et
Ġc ry
ĠAn na
ĠE B
ÃĶ i
Ġ: ))
ĠG ai
ĠRo oney
AN TD
es l
ik ip
i ola
W orld
ch áº¡y
ĠWal es
ĠSL NA
s im
Ġr el
įt iá»ģn
Ġhi u
ĠZ id
ĠB enz
Ġcá»į p
ĠXII I
m ed
ch ar
Ġb Æ°
Ġhom estay
ĠB DS
Em dep
eth yl
Ġs at
ĠFor um
Ġx Ã¨o
ĠKh e
att an
J et
ÄĲ Æ°Æ¡ng
ĠRo ad
Ġr á»¥t
ĠDr ive
ĠN ot
ven ue
ĠVin Fast
Ġæ Ŀ
ĠTho Ã¡t
ND N
ĠB áº¯n
ĠUkr aina
on to
h ini
j in
á»¡ i
P oint
Ġ12 1
ch á»©ng
ĠH iÃª
ĠTech combank
ra w
Ġs áº¥p
am ic
c s
ĠT áº¡m
Ġg ly
l á»¥c
Ġç ¨
n ews
j e
ä ¼
ĠæĪĲ thÃłnh
h Ã³a
ï Ĥ
ĠkhÃ³ m
Ġfol ic
12 8
Ġ09 04
I CO
Ġnh áº¡o
ĠTr áº£ng
ĠZ in
Ġmá»ģ n
Ġvá»© c
19 79
CC I
T oy
m ond
C Ãłng
B XD
p oint
V iáº¿t
Qu áº¡t
G á»Ńi
Ġh uyá»ħn
ĠC á»Ķ
ĠåĽł nhÃ¢n
ĠO ng
Ġn á»ĭnh
ĠKH CN
Ġra dar
Ġngu Ã´i
R au
ĠLo go
2 80
ew ay
im bank
Ġch Ã£i
ĠTh iá»ģu
ĠLe on
ĠK ids
Æł I
ĠL á»«ng
ãģ Ļ
ĠV áº½
N á»ķi
ĠSan chez
ĠTr á»©ng
V L
Ġqu áº¹t
ĠPl an
ect a
s ex
I t
S uc
Ġåī įtiá»ģn
up load
B r
M bps
b en
Ġtr en
Ġb ot
ĠE va
Ġtr Ã³t
Ã §
ĠS Ã´
el lo
ĠçŃī Äĳáº³ng
ĠS ÄĲT
Ġs Ã¡n
Ġ13 2
Ġ01 212
Ñ Ħ
ĠS áº¡c
Ġx iáº¿c
B iÃªn
ĠP ic
Ġngo ai
Ġh áº¡c
ĠNg on
ĠlÃŃ u
åı ĳ
ch áº³ng
ĠFor ex
ĠKho an
Ch á»£
ĠIn vest
ĠW estern
ĠCHÃļ A
ĠQ uáº¥t
h ar
M Ã´i
ĠM Ã¡t
D Ä©
ĠBo eing
w ang
Ġtu r
S on
ĠQ UY
x b
ĠÃ´ xy
ĠL Ãłn
ol in
ĠG ab
Ġl and
ĠJ ones
ä¸Ń å½©ç¥¨
er to
ĠCH áº¤T
b or
it ies
Ġâ Ŀ
áºł CH
C áº·p
t iáº¿n
ch Ãº
ĠL et
ĠAd am
c á»¥
ĠCam bridge
Ġgluc ose
ĠBS T
Ġt áº¯p
Ġnh áº·n
Ġåľ° Äĳá»ĭa
ĠZen fone
ĠTh y
M ac
ĠW ell
ĠÄĲ ÃŃnh
ĠKore a
ĠCry stal
Ġ um
ĠD K
Ġkh Ãłn
Ġ Ã²a
ĠÄĲ áº§y
B G
ĠD á»«a
V Ãµ
ĠCon nect
ie v
OS E
m áº·c
hi ng
as cript
Gi ang
tain ment
Th á»«a
26 4
Ð ·
ĠHy e
Ġ: )
Ng Ã´
S áº¯c
ĠØ§ ÙĦ
Â µ
Ġtr á»©
ĠJ on
f ol
qu Ã¡n
ĠâĢ ŀ
ĠJe ff
ĠHo áº¯c
c ell
ĠTH Iáº¾T
ĠI R
ĠR áºº
ĠT phcm
ĠV egas
ĠEver est
ĠX ingfa
f ess
Ġngu á»Ŀi
Ġm Ã³
357 357
Ġ01212 357357
k k
r ick
ĠBlu es
oh ydr
ĠN Ã©t
Ġ19 66
Ġâ Ī
ĠM N
ĠF ast
å Ĭ
v id
Ġ edit
Ġ13 8
L an
ĠU s
th or
Ġd áº¥p
d Æ°á»Ľi
Ġç ī
k t
M U
Â ¡
T áº§n
G C
ĠB Äĥ
ĠM p
B iá»ĥn
Ġtho áº¡t
as ka
Ġb et
Ãĵ NG
Ġg áº¥m
Ġvá» ĵng
s áº¯c
ĠAmer ica
T im
ĠÄĳ Ã¯
ĠQ Q
Ġlives how
p es
Ġb as
ikip edia
tr uyá»ģn
10 2
S uy
B ar
m oi
ph Ã¡
E l
ĠH ee
Ġl áº¡p
Ġv at
ĠM Ã£n
ĠH ÃĵA
ĳng Ã£
ien d
Tr Ã²
ir in
Ġá» ·
Kh ai
amp ton
ĠSw an
A F
ãģ ¨
s Ã¡ng
Ġtá» Łm
ĠHost ing
Ġl Ã¹m
ĠnhÃł u
v á»«a
ĠY our
Ġgi Ã´
ĠBr ight
ĠTr ip
ĠT en
ĠB our
are z
H Ã³a
Ġth Ãły
Ġn ua
å º
ĠIn f
ĠUn der
Ġb áº¿t
Pl ay
ĠTh Ã¹
ĠJ ess
ib e
Ġs ur
au r
Ġnh Ã²a
Ġn áº¥p
ĠXI X
ĠT áº¯m
âĢĶâĢĶ âĢĶâĢĶ
Ġt ieng
t áº¡m
ĠF irst
Ġ ol
M r
Ġkh Æ¡
Ġep oxy
ĠS Ãło
ar in
Pre vious
ĠS or
ĠCar ol
Ġz oom
Æ¯á»ļ NG
ÄĲ á»ķi
ĠT es
S uá»ĳt
Äĳ Ã³
Ġthá» ĩ
Ġnguy en
el in
l á»Ľp
Ġd Ã¡t
one x
Ġl Ã¬nh
Th á»Ń
Ġphot oshop
h á»ĵ
Ġ12 4
âĢ İ
ĠK áº¾T
ĠR y
2 60
s hip
h á»Ĺ
ĠS Ã¹ng
ĠFerr ari
Ġgh im
ĠC Q
ĠL ite
g b
Ġc ell
s ol
Ìĥ .
c áº£nh
Ĥ vá»ĭ
ĠA qua
n n
ĠSe ason
ĠC ell
ĠScot land
Ġá»Ĳ p
ĠæĪ ĳngÃ£
ĠL or
Ch Æ¡i
Ġbi en
ĠN á»£
ĠH and
Ġp izza
ra ham
ĠTR ANG
ĠB Æ°á»Łi
M art
ĠMon aco
âľ ħ
ph p
Â §
Ġs áº³n
ĠPh áº¡t
N áº¥m
ĠR an
ab eth
ĠE C
Ġd iÃªm
ĠF ant
ĠTh áº¯m
Ġ8 88
M edia
Ġè¬ Ĥvá»ĭ
L ai
n ic
m áº«u
ĠQU AN
§t Ã¡nh
or p
ĠF uk
ĠM DF
l en
Ġç ¬
F acebook
Tr á»įng
ĠÃĲ Ã³
ĠæĢ §tÃ¡nh
Ġl áº£
Ġ ×
in son
ĠSho phouse
ĠFu ji
âľ Ķ
es a
Ġtr á»Ľ
ĠY oo
ĠDo wn
ĠMag ic
ĠVI ET
Ġn áº·c
ĠA venue
ĠG ang
Ġc á»¯
ĠTR ÃĮNH
ĠRub y
Ġmod em
Ġph áº¿t
ĠM áº¡n
ĠAct ive
ĠZid ane
âĢĿ ...
11 5
Ġtru ong
Ġac t
ted othi
ĠGuard iola
ĠColor ado
Ã įt
and o
ĠEr ic
Ġ13 3
at hi
ĠH Æ°u
ĠÄĲá» Ģ
ĠPh áº£
Ġdu c
ĠThu á»µ
ar io
om et
Ġstart ed
Ġ19 64
Äĳ á»ĩ
Ġel ec
p df
ĠH ero
Ð¾Ð ¹
ĠD Ã£
Ġtr Ã¡o
ok o
Ġâ ŀ
! )
Ġng á»Ľ
Ã ľ
Ĥ ¬
F S
vic es
d iá»ĩn
78 9
B ay
s Ã¡t
ĠSp eed
O W
Ġc á»Ļm
B á»Ļt
Ġr Ã´m
ĠÄĲ V
is tr
TT LT
Ġgold mark
ĠTHU áº¬T
Ġgh áº»
Ġ20 22
ĠHun ter
Ġd á»Ĺi
ĠT G
Th is
ch im
ĠVal encia
Äĳ Ã´
Lu áºŃn
ĠEd ucation
ĠgiÃª ng
â ĪĴ
ĠTur bo
Ġk it
ĠK enn
ĠC áº¥n
ĠEU RO
Ġv áº§ng
ag i
ĠÄĲ á»ĵi
11 9
b ong
ot al
ĠM Iá»ĦN
Ġä ¼
R eal
Ġæ ŀ
ĠNG AY
ĠGr an
b ie
ĠIn t
Ġ2 25
ĠM and
ãģ ¾
ĠN ep
ĠEver ton
ĠS Ãºng
Ġcac bon
Ġto ol
ir eless
Ġng Æ°u
ĠS B
ĠD uyá»ĩt
ĠD ual
10 8
Ġ19 71
m b
ĠÄĳu á»£c
ĠB áºłN
Ġchu á»ĵn
ĠT Æ°á»Ľc
ĠB ab
ĠBud d
U ng
ĠNG ÃĢY
th áºŃm
ĠR Ã´
ad i
Ġnh oi
k em
ĠT Ã¢
ÄĲ Ã¡
Ng á»ĵi
U M
ĠSil ver
ĠF ound
asho ggi
11 1
ĠT Ãłng
ĠN áº¥u
ĠÄ ©
IC E
ĠR ain
Ġ16 8
Ġd it
Ġqu Ãłng
19 69
ĠI ll
ĠBrid ge
ai re
7 20
nh at
ĠhÃ£ n
Ġå İ
van ced
g hi
Ġ icon
ĠChu á»Ĺi
ĠÐ ±
Ľt á»©
ĠP ad
th Ã¡nh
Ġg ran
ĠL Æ°á»£c
ĠIm peria
A X
ĠV ay
G roup
ĠÐ½ Ð°
ĠM W
Ġnh á»īnh
Ġ19 77
19 87
ph áº£n
ĠL ike
Ġvi lla
th áº£
ĠT E
ĠV ision
S Ãłi
199 7
Äĳ Æ°Æ¡ng
ĠD Ã¬
ĠOr ig
Ġg áº·m
HÄĲ ND
Ġr Ã¬a
up e
ĠRad io
ĠL Ã£i
ĠX ong
ĠG Ã³p
p in
Ġp a
ĠH I
Ch á»¯a
Con t
ath an
ES S
ĠL ay
d iá»ħn
Ġçľ Ł
d ai
ĠHP V
Ġp ower
or th
Ġl Ã¨o
ĠKh ashoggi
ir i
01 0
kh Ã³
ĠSer vice
r ed
d á»ĭ
Ch apter
ĠRod r
Toy ota
ak es
p ost
ĠAm i
Ġæ Ĥ
ph Ã¹
K á»ĩ
ĠX oÃłi
Ġm edia
ER S
ÐµÐ ¼
Ġgi Æ°Æ¡ng
é ĩ
ĠO LED
r ie
v c
ĠP ier
ĠV Æ¡
ĠN áº¡p
17 0
ĠC oi
ĠI PS
ĠFu j
ĠmÃ£ o
B CT
ĠOr ch
ut nik
ĠG an
ĠL áº·c
V á»ĩ
... ).
Ġst and
ĠPh Ã©p
Ġcont rol
Ġxo ong
h á»į
S G
ĠJour nal
L Ã¢u
d á»ħ
cel and
Ġl eg
Ġl á»©t
ĠN ÄĲT
Ġ20 3
g ing
ĠS áº¡n
Th á»§y
ĠB QT
ant s
å ·
E d
al se
Ġi p
ĠN áºŃm
B u
ĠV PS
ĠM b
borg hini
Äĳá»ģ u
ĠåĽ Ľtá»©
dro p
Ġnh áº¥m
Ġ áº©u
Ġd ell
Ġt Ã¡p
E n
ĠR Ã¨m
ĠF M
Ġn Ã´m
Ġtr Äĥ
Ġé «
ĠCh ai
ĠC ua
Ngh Ä©
ĠD á»±c
id get
Ġviet nam
Ġkh iÃªn
áº¶ C
ĠTÃį N
ho use
Ġr Æ°
Ġh ard
i j
Ch Äĥm
Ġl ife
ĠM D
Ġtr Ã£i
G áº·p
eth er
áº °
ĠAl i
S ub
Ġg Ãłi
ĠÂ °
ĠD iÃªu
¥nh áºŃp
ĠF ocus
Giá» įng
ĠKing dom
Ġlá» £
ĠB oo
ĠJ Ãª
G Ã²
ĠK á»ĭch
ĠthÃ¹ y
0 28
á» ĮC
tr act
ĠTO ÃģN
ĠNh áº¯c
ĠO PPO
ĠCro ss
pl ate
Ġl Ã¡c
Ġlu n
Ġd á»ım
Ġm ol
gi Ã¡c
i os
at ive
19 95
Ġca ffe
Ġè ¿
ĠB áºŃc
Q S
Ġäº ĭ
ĠB ai
ĠF ax
ĠVol kswagen
t á»ĳt
ĠE ther
Ġ end
pl i
Ġ. "
Ġd áº·t
b á»ķn
Ġåħ ¥nháºŃp
l áº¥y
å ¾
Ġch Ã´m
Kinh tedothi
ĠR el
ĠK M
Ġchá»ī n
ĠTS CÄĲ
ĠTechn ology
æ ¸
Ġbo ot
ç »
esl iga
ĠO z
et el
ĠCHá» Ī
ĠC Ã¢
Ġéĸ Ģ
Ġen try
D es
m as
Ġr et
tr anh
ĠChrist ian
ĠL ac
D uy
ĠT Ã²ng
ĠF U
ĠB K
T e
rol l
Ġamp ly
Ġæľ ª
Ġh Ãºng
ff ect
Ġx Ãºi
Ġ80 2
te k
Ġé ¦
- >
Ġ19 46
Ġ15 2
uc ci
Ġæĸ ¹
ĠG mail
writ eln
Ġv acc
quy á»ģn
d uyÃªn
Ġ Ã©o
Ġl Ã¢ng
ĠK am
AR T
F E
Ġb á»±
"," ",
Ġtr ui
Ġthu ong
Link F
Ġ4 20
display LinkF
Ġ09 88
Ġst atus
em b
ĠL oc
Ġso Ã¡i
ÄĲ B
ĠH áº¹n
ĠXS MN
Ġ19 62
ĠLam borghini
) /
Ġto t
Ġk iá»ĥng
Ġ195 6
Ġb á»£
Äĳ Ãª
ĠGen eral
Ġl á»ĳ
ĠV áº£
ĠL Æ¯á»¢NG
ĠCol umb
11 2
ĠS ri
ĠT Æ¡
Ġs áº©y
ur l
ĠPh oto
T uyá»ĩt
Ġç ļ
ĠClass ic
áºª N
Ġäºĭ sá»±
ĠÄĳo áº£n
ing o
Ġk aki
ur ai
ut a
Ġg ood
é Ģ
ĠI a
ĠM iÃªu
Ġus b
ĠNS ND
IT E
ter n
Īh á»±u
ĠV el
Iá»Ĥ N
ĠTr á»ĳng
ĠC av
c áº¥p
ĠN ail
Ġlu á»¹
ĠPC I
ĠCoc a
.... ...
b un
Ġd áºŃt
ĠBe at
Ġl act
ster dam
ĠMua Ban
Äĳ Ãłn
ĠG áº¥u
ok e
ac le
ĠD or
Ġ09 08
Ġnu ong
ĠNap oli
Ġè ¶
ĠWi Fi
ĠO ver
C X
L Ãłng
Ġn it
g am
Äĳ Ã³ng
23 7
Ġæľª vá»ĭ
Ġ195 8
ĠExc iter
ĠG A
l on
Ġn Ãµn
ĠG on
l it
33 3
al an
ĠBloom berg
tr iá»ĩu
g oo
L Æ°á»£ng
ĠSt yle
ĠUn i
æ Ŀ
Ġrem ote
ĠVietin Bank
Ġtr ade
Ġprotect ed
T áº·ng
ĠV oi
gi Ãł
t ien
Ġtag ged
Ġvis it
Ãģ T
Gi áº£
ļ I
Ġgi ay
Ġm Æ¡n
ĠT CN
ÄĲ Ã´
iz u
M L
Äĳ Ãºng
em an
Ġnh en
Ġ( #
ĠLu is
h Ã¡n
ĠB áº¢N
ĠDi rect
Ġb Æ°á»Ľng
3 70
æ ³
Ġx áº¹p
Ngh Ä©a
20 21
Ġæľ ¬
ĠEnter tainment
ĠK evin
Ġph ÃŃch
ĠCh anh
ĠC in
ĠP ers
f ia
Tr ÃŃch
ĠM Ã¹
ĠAb e
B KH
Ġ3 16
com e
ĠAd d
Ġg á»£n
ĠEmp ire
B á»¯a
ĠWh it
Ġh ecta
3 88
v ay
Ġpoly p
Ġmac book
ĠF ut
âĻ ¦
ĠC ON
ĠU PS
Ġæ Į
Ġa e
ĠNg Ã¢m
N á»ģn
on o
ol and
ĠW ed
6 99
ĠÃ ¯
Ġb oss
Ġkh anh
ĠC AM
ĠB Æ¡
Y áº¿u
Ġç ı
ch Ã¡nh
Ġ12 9
f ree
f ull
ĠLo ai
Ġb á»ĩt
D P
ad or
m od
T áº¡p
ĠIn fin
ĠNH TM
ĠÄĳ uá»ĳc
ĠT ung
B á»ķ
ĠB il
ĠB Ã£o
m aster
Tr á»ĭ
ĠEx imbank
form ation
B O
? ...
d Ãłi
Ġæ ģ
I R
ĠS á»°
S áº¯p
ĠtrÄ© u
Ġd em
ĠPh á»ī
Qu ay
Ġnh Ã¡c
AS T
ĠQ uyá»ĥn
10 3
Ġtrá»¥ i
ĠN Ã³ng
m Ã´
ĠÄĳ Ã©o
ĠQ G
ĠCan xi
per t
ĠPT NT
ĠV it
ĠKh uynh
ĠÄĲ ua
ĠHaw aii
b Ã¡c
ag u
11 6
Ġ13 9
ĠèĪ ĩ
n m
ĠM á»¸
ĠM oto
Ġtr Å©ng
K áº»
Ġs tream
Ġx Ã³i
ĠDa ewoo
ĠTo day
à¹ ĳ
ĠT iÃªm
Ġn áº¿t
ia s
D ONG
Ġs he
Ġ under
l áºŃp
Ð¸ Ðº
ä¸ ī
Ġ\ (
8 50
ĠH all
Ġht ml
ĠI celand
ĠS á»£
Ph á»ĳ
ĠK IM
ĠMotor ola
ĠK ate
æ °
ĠÃĲ Ã¢y
ib o
Ġm iáº¿t
t iÃªn
ĠÂ ®
15 4
n om
ĠåĪ ĩ
è ¿
Ġç ´
Ġç¶ ĵ
ĠTor onto
Ġtu Ã´ng
á»Ŀ n
ĠJack son
nh o
V ND
Ġáº¤ p
Î ±
ĠCr uz
ĠnhÃ¬ u
ĠMe an
ĠEl iz
ĠK Ã¬nh
h l
Ġs áº£i
B K
m un
Ġh áº«ng
t Ã¹ng
ĠTh Ã¢
ĠS apphire
ĠTr iá»ĩt
ĠèĪĩ dá»¯
ĠSun rise
Ġåı Īhá»±u
ĠJ BL
ĠMod e
d ao
Ġn ote
m ien
ĠSp ace
Ġhá» Ľ
Y M
Ä «
ĠG H
ĠHá» ¢
w ah
Ġtrai ler
Ġm etro
Ġn Ãłi
ĠC E
ĠDH L
Ġ16 00
VN ÄĲ
ĠG ate
L Ãło
Ġæ ħ
Ġ Ã¹a
ĠPok emon
ĠK os
ĠL T
ĠHá» Ĩ
á» Ĥ
ĠT GÄĲ
Ġp ort
ĠJ ak
Ġqu á»ī
ĠR on
ĠVes pa
ĠCom bo
ĠÄĳo Ã¡i
Ġg et
Th áº±ng
ĠAcad emy
ĠR Ã¹a
,âĢ¦ )
Ġl áº±n
Ġmeg apixel
ĠNGH á»Ĩ
Æ°á»£ i
ĠA sp
Ġso lo
~ ~
k ong
ħ u
ĠTh Äĥm
Nh áºŃp
Ġm Ãłnh
ĠT áº¬P
G á»įi
f u
Ġf ake
v ien
Ġd Æ¡i
ĠN ak
Ph áº«u
ĠR Ãºt
ĠCiv ic
ĠH áº»m
Ġ15 6
ĠNep al
ĠA le
ĠV NG
v ision
do wn
Ð°Ð ¼
ĠÄĳ anh
" ).
le ar
us se
C áº£i
Ġl á»ķ
C á»ķng
ĠHOT LINE
N ay
Ġcon cept
ĠB ent
ĠTh Æ°á»Ľc
ĠL áº¡y
id el
: âĢľ
ĠBund esliga
B áº¿n
ĠB ale
uck er
Ġk V
æľ Ī
Ġnh Ãº
á»Ķ I
ĠR in
Ġre al
d in
ust ic
Ġæĸ¹ phÆ°Æ¡ng
ĠL áº½
19 83
p ly
ĠåĲ Į
igr ave
Ġkh á»ĳ
Ġ ebook
ĠÐ ·
p os
B i
Ġsho pping
2 888
ĠC over
Ġ14 4
Įh áºŃu
qu Ã½
ĠAc cess
Ãģ I
ĠM á»ĺT
ÃĴ A
ĠB ali
Ġc á»£t
Ġn en
Æ¯ NG
23 2
ĠTh is
ĠèŃ ĺ
ĠL á»ļ
Ġç¾ ©
ĠQu Ã¡i
Ġkh Æ°
s ong
Ġm un
ĠOff ic
ĠAn th
Ġá» ¨
le ng
h Ã£y
ĠåĪ Ĩ
Ġw ho
ĠAnton io
al ur
ins tein
Ġnh áº£m
Ġtá» £n
ĠFire fox
ĠT NDN
Ġnh Ã²e
ĠC opy
Ġå¾ ĮháºŃu
ĠðŁ ĻĤ
ĠÄĲ ao
x Ã¢y
ĠNg Ãłn
Ġch áºŃn
c n
Ø ³
ĠAlex ander
Ġun lock
uy a
al aysia
ĠS om
ĠEl ite
Ġmá» Ĺ
p en
H e
Ġh uyÃªn
ĠI l
ch Æ¡i
Ġus er
ĠTH á»°C
v Æ°Æ¡ng
ĠG ÃŃa
ĠV ersion
ĠJÃª sus
Ġnh á»ĳi
er ing
ĠSev illa
TT T
ĠæŃ £
ĠH á»§y
Kh ung
R T
Ġbl ack
ĠCon te
ĠR áº«y
Ġph am
th á»§y
ĠT Iá»ĢN
ig e
fe ng
T á»ĳc
Ġl Ã¯
Äĳ Ãªm
ĠCo ol
Ġç ·
M u
ĠÄĲ áº¶T
Ñ ĸ
Ġ Ã¡ng
ãģ ¯
L Ã´
Ġbuild ing
ĠY ong
Ġkh Ã²
ĠJo e
ĠHill s
19 0
ĠL áº¡
ãģ Į
Ġb áº¹p
ĠB á»ĵng
A U
Ġh p
ĠMess enger
ĠÄĳá» ±
lad esh
Ġgiá» ħu
ĠL ist
ĠH V
S how
æ Ģ
Ġng á»Ľt
Ġæ ²
ho u
ĠXV I
Ġç µ
h n
Ġs ky
ĠB eta
Ġf irst
ph iÃªn
Ġhá» ¯ng
ĠM ade
ĠK id
ĠB U
ĠInd ex
Ġ< <
Ġt v
Th Æ¡
6 26
ĠP ixel
ĠRom an
ĠTr o
ĠS ize
ĠCh anel
Sing apore
Ġx Ã©o
Ġæľ¬ bá»ķn
Ġ13 4
Ġ3 40
ĠAm sterdam
tr ans
Ġwin dow
ĠPr es
Ġb est
Ġr Æ°á»£t
Ġkh á»Ŀ
Ġ" .
á»ĺ NG
ĠéĸĢ mÃ´n
ivers id
ĠQu ick
cá»© u
Ġh áº¹
Ġchá»Ŀ n
Ġh iflex
l Ã£o
Ġe kip
Ġx á»Ľi
Ġk Wh
Ġå Ĵ
ĠMan agement
off ice
ĠC ad
ro i
K iáº¿m
ĠD iá»ĩc
S Æ¡
Ch á»ĵng
V Æ°á»Ŀn
ĠD et
Ġrem ix
ÐµÐ ´
Ġr áº·ng
ĠTH á»¦
ĠåĲĮ Äĳá»ĵng
ĠAd idas
ĠO il
Ġl Ã³
ĠT Æ°Æ¡i
Ġgiá» Ŀi
ph er
Ġv er
ĠV OV
ĠGÄĲ PT
0 50
B TNMT
Ġlo t
Ġ) #
v á»£
Ġo ur
ĠÄĲ áº¤T
ĠÄĲT QG
ĠĠĠĠĠĠĠĠĠĠĠĠĠĠĠĠ ĠĠĠĠĠĠĠĠĠĠĠĠĠĠĠĠ
m edia
m á»¥c
ĠJose ph
ĠLAO DONG
ĠThu Ã½
ip e
es p
Ġnh Ãºc
ĠMaster i
Ġng an
G u
Ġn áº©y
ĠPro tein
ĠAn ti
Ġg ene
t xt
ĠåĪĩ thiáº¿t
ĠH p
ĠåĪ ¥
cast le
Ġd Æ°á»£ng
se ido
ĠH Ãºc
ĠSh er
ĠB N
ĠâĢľ .
t om
ĠD ark
Ð° Ñı
ĠTh á»±
ĠV á»ļI
M á»ĳi
ĠT NG
St ar
ĠTN CN
l ai
ĠVirgin ia
á»¥ a
Ġ Ã¬
ĠG R
ĠP etro
is k
Ð° Ðº
Ġkh Ã¹ng
ĠMo z
ch á»įn
ĠSett ings
Ġs Ãªn
ĠDis play
ĠF us
r ich
Ġè Ĳ
Ġtru á»ĵng
à ¥
ĠN oi
le ft
ĠâĢĶ âĢĶ
Ġhá» ±c
Ġtest osterone
ĠD á»¥
ĠG á»ĳc
Ġg á»įng
ot in
ĠÂ» .
chu áº©n
im i
th á»į
ĠSc ott
ite ch
ĠTH á»¨C
áºł C
Ġcock tail
ĠChá»§ ng
ĠHá»¢ P
c p
Ġæ ĩ
ĠGl ass
con om
Ġhorm on
ĠA TTP
Ġmag ie
ifi ed
qu oc
ĠX Äĥng
B I
ĠT áºłO
nh e
N a
Ġmá»ī a
Ġpro file
ĠK eo
Ch á»ĳng
Ġ14 1
Ġg á»ĵng
w h
ch at
ĠD Ä©nh
ĠD un
Ġp ic
ap er
M á»¥n
ĠTh ink
our ce
Ġth áº£nh
Ġgi Å©
ç¥ ŀ
2 70
Ġv it
Ġä¸ĸ tháº¿
ĠP y
Ġlo c
ĠåĪ¥ biá»ĩt
ĠM áº¶T
ĠA TP
âĢ ²
EL L
ol as
Ġ13 1
W D
F ile
ĠR M
ĠCO D
ĠComm un
âĢ¦ ;
ĠD ak
ĠTr Ã¢u
ĠJ oh
Ġ.. ...
ĠS ign
ĠTH A
Ġph ay
Ġta l
ĠHD R
th ong
Ġ6 000
Ġ195 9
ĠH Ãª
ãĤ Ĵ
ĠN D
Ãģ NG
X i
Ġoff set
Ġnh Ã¡p
h ong
an na
ĠMa ch
ĠPhil ip
Ġ09 1
Ð°Ð ²
ĠUp date
t Ã¬m
ed er
C áº¯t
ph ia
w ar
ĠT áº¾
Ġ25 00
Ġg arden
l ip
B iáº¿n
Ġg ar
Ġdi e
Ġh uÃ¢n
do ch
b iáº¿t
ÄĲ áº£m
ĠX iá»ĥn
ĠK ane
Ġt ong
N AM
ĠGP U
ĠV áº¤N
log an
Tr Æ°a
tr á»ĭ
L y
Ġr á»ı
ĠK iÃª
ou gh
ÄĲ Æ°a
Ġn itr
ĠKh ay
Ġd z
Ġ08 68
á»ŀ NG
ĠBook ing
Ġl Ã²i
Ġc enter
ĠGIÃģ O
ĠAp artment
c ord
ĠPlay er
Kh á»ĳi
ĠN oo
ÄĲ á»Ļc
ÄĲ Ã¡m
ĠÄĲ á»ĩm
Ġæ Ķ
ĠÄĲHQG HN
Â ª
Ġph áº§m
Ġg Ãłu
Ġ9 50
ĠSky pe
ĠDO ANH
G O
ĠmÃ£ ng
Ġd ia
ĠT un
M áº¡ng
Ġå ĳ
ĠB ong
Ġthu c
Ġ5 12
ĠK al
id i
ĠL ONG
ngh iá»ĩp
Ġthá» Ľ
ĠCB CNV
Ġr om
ī ²
ĠA lo
ĠViv o
å Į
áº® T
s Ã¢n
ĠFran ce
ym er
ĠFeder er
ct or
Ġi T
b ac
ĠÄĳá»ĥ u
TH ÃĶNG
Ķng Å©
IC A
ĠCÃģ CH
t n
ĠCH UYÃĬN
Ġch áºµn
G L
Ġh Ã³ng
ĠSc an
?? ??
B á»ı
Ġho áº±ng
m x
el ect
H onda
l ook
ĠV A
á»ĩ p
ĩ Ĵ
ĠK oh
Ġl Ãªnh
Ġh Ã³i
Ġnghi ep
ĠèŃĺ thá»©c
c ert
ĠOx ford
ĠF ind
10 6
ĠÄĲ I
n ie
r ome
ĠP ur
16 8
Ġst ar
ĠAt t
Ġ18 5
ĠK G
á»® NG
H U
Ġcook ie
Ġn Ã²i
um an
Ġl áº¥m
ĠC lo
Ġhe ad
ch áº¯c
ĠVI E
ĠP au
ĠL áºŃy
Ġ ak
Ġthi en
w alk
ia tion
11 3
ĠLib ya
k av
10 4
ĠR est
m ec
v Å©
Ġdi g
Ġx iÃªm
X T
ĠG ro
æ Ĭ
ĠCh arm
ĠUS S
EF L
ĠSp ir
Ġtá»Ń u
Ġc áºŃt
AR E
Ġc á»±a
Ġk now
Ġx sm
ĠJ ol
ĠT á»ĲT
ĠD DR
25 5
è ¯
Ġá» ª
Ġç¾© nghÄ©a
ĠTCT D
, [
l áº¡i
ĠÄĥ ng
ĠN ova
ĠBang ladesh
alog en
rol imex
ĠTr Ã´ng
it su
Ġtuy en
ĠNat ure
Ġs á»©t
S un
U p
D áº¥u
f an
st yle
ĠSav ills
Ġh áº¿n
L áº¡c
Ġ! !
ĠC ali
eral d
US B
ĠM t
Ġäº ĶngÅ©
Giá» ¯
M i
zb ek
Ġ19 61
ĠC ath
ĠÄĲ Ä©a
ĠM uá»ĳi
ĠW ang
UYá»Ĩ N
ĠHaz ard
ĠRo lex
Ð°Ð ·
ateg ory
n áº±m
Ġr iverside
Ġhá» «
Ġ29 0
th uá»ĳc
tr á»įng
Ġv eo
ss on
ĠTes la
en ix
Kh Ã³
Tr Ã¡nh
ri ed
ĠD evelop
ĠKh Ã´
ĠE RP
ĠCh eng
ĠEn d
ĠÄĲ un
ok ovic
**** ****
ĠPer fect
Ġæ ¥
ĠXS MT
C Ã¢n
PT PP
ĠBr ad
ĠFB I
Ġt uáº¥t
ĠSw ift
ĠKH ÃģCH
ĠM ic
ĠNh á»±t
V H
ĠTTC K
ĠW eek
ĠVal ley
qu Ã¢n
11 8
ox in
g s
Ġæ ¯
Ñ ī
Ġph iáº¿m
ÄĲ áº£o
ĠS ay
f ore
d uy
ĠN ÄĲ
tin ental
ĠHel lo
R em
t Ã¢n
m ad
ĠBre xit
á» ¶
Ġm ust
Ġenz ym
f ix
ĠL á»ĬCH
ĠTr eo
ĠH áº§m
Ġcarb ohydr
ph y
ãģ ĭ
ĠBl ade
it ch
s Ãª
nh Ã¬n
ĠF ul
ĠP ack
Äĳ áº¹p
ĠR oss
ĠC Ã´i
ĠNg á»įn
T Æ°á»Łng
V an
ois ong
199 4
Ġå¤©å¤© ä¸Ńå½©ç¥¨
Ġd emo
æĺ ¯
è ½
ĠS ale
b inh
ĠComp any
TT XVN
] ;
D iá»ĩp
Ġ19 55
ĠV Ã¡ch
giá» ĳng
ĠM Å©
Ġå ¢
au d
9 50
l ay
Ġtho m
Ġ09 36
% -
ç ł
M D
Ã Ł
ĠæĦ ı
Ġáº¤ m
T G
ĠAS US
Ġm asc
ĠNg Ãł
Ġz ip
Ġch á»ĩch
Ġt Ã²ng
I s
ĠT w
ĠÃ Ĺ
ol ic
Ġè ĳ
ĠM á»¥n
o T
ĠVn Express
tr á»±c
Ġèĩ ³
Ġgi áº§u
H en
AN O
ĠL TE
ĠH eo
Ġh el
Ġr Æ°á»£i
Ġn Ã©p
ĠPar ad
ak ia
Ġf re
ĠLÃªn in
Ġt ar
ĠL IÃĬN
ĠSt ate
id d
c Æ¡n
Ġæĸ ĩ
Ġr á»¥i
Ġr á»£
¿t iá»ĩn
' :
Ġçķ Į
ĠIr is
Ġä¾ ¿tiá»ĩn
ĠB á»Ĭ
ĠS AO
Ġ19 2
ĠS Ã¢u
ĠF el
h ad
Ġs te
á»¥ m
ĠSim on
Ġhu ong
co py
ĠF ern
ĠKh Äĥn
Ġg Æ°
b á»ĳ
y áº¿u
ĠI v
ĠChu Ã´ng
ĠK P
3 30
Ġsup er
ot er
ĠSp ark
ĠA pr
ĠNg Æ°Æ¡
ĠTR á»Ĭ
ĠNh áº£y
ĠSer um
H áº¡nh
Ġ09 33
eo t
Ng hi
amin ate
ĠB ell
Ġl es
ĠMo unt
ĠPh áºŃn
ĠS ud
ĠEliz abeth
Ġword press
v Ã©
ĠT á»¬
n t
ĠT á»°
Ġc lo
Ph Ãºc
ĠCS S
M Æ°á»Ŀi
ĠVIá»Ĩ C
k or
iv ing
Ġc ase
Ġng á»Ĺng
ĠXU áº¤T
ĠH E
Ãĥ I
ĠAndre w
Ġec op
Ph áº£n
ab ase
è ¡
Ġ09 89
C áº¥p
zbek istan
I m
ĠG ard
Ġex cel
âĸ ª
ĠKho ai
ĠVict or
ĠCle an
ĠVietin bank
Ġx xx
Ġv Äĥ
T uyáº¿n
ĠæĦı Ã½
b ai
Ġr áº¡c
ĠÄĲ áº£n
Ġp orn
ĠCN VC
PL O
ĠÄĲ áº¡m
m at
ĠN á»Ńa
ĠÄĳ Æ°á»£m
ad ow
ĠÄĲ iá»ģm
om on
ĠGam uda
X á»Ń
v á»¥
c ut
Ġn á»Ļm
Ġ Ñĥ
ĠDe f
ĠkhiÃª ng
J I
r d
B Äĥng
ĠB á»īnh
4 10
ĠH áº¡m
æ Ń
app e
ung e
ĠSo áº¡n
t uyá»ĩt
ĠR á»ĳi
ĠT Ãły
ÃĬ M
ç Ľ
áº¤ U
ĠT iá»ĩc
ĠLan ka
3 80
AS S
Ġèĩ³ chÃŃ
nh ouse
ĠM AC
ĠSu arez
ĠTr á»¥c
ed oisong
TP HCM
al ia
ĠWilli ams
F TA
Ġá» ¦
C Ã¡nh
Ġsu Ã¢
c á»±c
k áº¿
Ġs ieu
Å į
ĠF o
th ouse
ĠVP Bank
Ġtá»§ a
22 7
Ġ3 70
ĠTr áº¯c
ĠE L
h h
Ġ Ã³
g ate
ĠS uk
crip tion
ĠçľŁ chÃ¢n
Ġn Ã¡
ĠDu c
âĢĿ ).
Ġm Ãºn
$ .
ĠNh ai
Ġm ob
ĠGal a
Â ¸
Iá»Ĥ U
ĠNew castle
V áº»
ĠÄĲ á»§
ĠEd ward
cm s
å Ĩ
ĠD á»ĩt
ub lish
2 90
Ġbi et
ĠP LC
ust om
Ġn á»įc
kho a
ĠDN NN
Ġkh am
ĠN DT
Ġn á»©ng
ĠM á»ģm
ĠAlex and
ĠÄĲ Ã³n
ĠR ating
ĠTh aco
B Ã£i
ĠChi ang
ĠM iáº¿ng
b Ã¡nh
Ġan alog
c anh
Ġh áº»o
Ġn á»Ľt
ĠElec tron
Qu á»³nh
ĠGi Ã´
Nh iá»ĩt
ĠCh at
Z U
ī é
ĠB ou
ĠZ e
ĠMar x
Ġi Cloud
ck y
aly t
low er
ĠB Ã´i
ĠS ad
Ø ¨
ĠHá»Ĺ n
Ġv ao
ĠcÃº n
Ġk n
im et
12 00
C Ã¡p
R oy
Ġc Ãµng
ĠW HO
y es
Ġto ken
uts al
b iá»ĥu
u ise
Äĳ á»Ļi
Ġ ãĥ
Ġv Ã³n
ĠÂ ©
ĠMos kva
pl us
ĠS ap
è Ĥ
th iá»ĩn
ĠCh iÃªn
Ŀ nh
Th ang
áº½ m
ĠCh oi
ir ates
ĠKh Ã¡
c in
ĠF OR
ĠB ot
ĠK in
áº° NG
10 7
ĠÃļ y
Ġl ien
M en
enn a
Äĳ áº·t
ĠT áº£n
Ġthá»ī u
ĠD ÃĤN
ĠÄĲ ÃĤY
ĠN CT
Ġm áº£
g em
Ġp anel
ĠCA D
Ġtr ader
Ġhá» ¡i
ch á»§ng
Ġl Ã³a
ut t
Ġac count
v áº¡n
c at
ĠLim ited
Ġcu á»ĵn
M t
ĠNg á»±a
d iá»ĩt
Th Ã¹ng
Ġr inh
á»Ĳ ng
ateg ories
Ġr Äĥm
Ġ09 12
h d
ĠS AM
Ġ á»«
ĠN iÃª
ĠN L
ver t
ico id
ĠSal ah
im b
Tr iá»ģu
ĠCon s
ĠE T
ĠIn sp
Ġa xÃŃt
Ġdi eu
Ġno el
ch á»ĵng
ĠK ent
L Ã²ng
ĠC áº¡p
ĠC ort
ĠTr an
" ><
Ġph om
nghi ep
ĠC áº¦N
Ġ er
Ġr ed
ĠLion el
re f
ur r
et ho
h á»ĵi
Ġf ace
Ġæ ł
Ġc or
Ġph Ã²
tr uyen
ĠCh Ã¨
ac et
ĠW ild
Ġl ight
ab o
l á»±c
Ġ09 16
ĠL á»©c
D Æ°
ĠQ R
ĠR iversid
å İ
ĠE sp
ĠSur face
ĠSte phen
ç ľ
g es
ĠRep ort
ĠNg oa
ĠA xit
ĠDj okovic
ĠO g
ĠAP I
ĠB D
Ġan y
ĠSer bia
ĠW W
Ġl Ã²a
ĠLu kaku
ĠE P
Ġl at
ĠH ans
Ð¸ Ðµ
ĠL ew
H áº¡n
Ġm Ã³m
ĠHold ings
ĠE vent
ut en
ĠPh áº¡n
ĠR áº¡ng
ro ad
C Æ¡n
Ġ14 7
Ġå ¼
ĠÄĳ áº§n
t ÃŃch
ĠH ub
áºµ m
ĠB áº¡t
ĠCr ime
13 5
Æ¡ c
Ġlives tream
n á»ģn
ĠB ull
Ġ14 8
Ph Ã¹
Ġi Pod
ĠS ter
Ġr ub
uck s
Ġb iáº¿m
m á»įi
Ġn ylon
ĠTr ue
ua ge
Ġgi Ã£y
Ġsy stem
Ġw a
22 2
TE CH
Ġsl ot
l á»Ļ
ĠL C
kho edoisong
ch áº¿
Ġs ulf
ĠI mp
t á»ĭnh
el o
ĠTar ot
kh ÃŃ
X Æ°á»Łng
Ġc ream
Ġng Äĥ
ĠEU R
Ġson y
iac ute
ĠAM D
H Ãłm
Ġ-- >
tr áº§n
ĠAl tis
ĠFound ation
Ġ19 40
to ck
ĠV ic
ĠK ir
Ġlá»ĭ m
199 6
Ġ2 15
Ġs s
Ġ Æ
ĠR á»Ļng
' m
Ġæ »
... âĢĿ.
Äĳ á»įc
it hi
Ġå £
nh Ã³m
m Ãª
å ĩ
ĠNH áº¬T
ĠNh áºŃm
H uyá»ģn
Ġh em
A ir
ĠU zbekistan
ĠN ow
ĠD Æ¯ÆłNG
Ġwh at
ĠÂ ±
ox ide
ĠE ner
K iÃªn
Ġr á»©t
è §
ĠNh au
ãģ Ĩ
Äĳ Ã¡
Ġh ien
ÄĲ N
ĠW olf
Ġng á»ķn
ĠTR Ãį
Ġso l
An d
¶ ÄĳÆ°Æ¡ng
Ġ à¤
In ter
= âĢĿ
p et
ĠVP F
Ġèı ©
win dow
ĠTIáº¾ T
ĠB á»į
an th
ĠGI áº¢I
ĠMetro pol
ĠTr Ã¡ng
t ot
ĠPh un
ch iá»ģu
ul es
á» ĸ
ucker berg
ch Ã¢u
ĠDN S
T iÃªn
Ġth áº·ng
m ing
ĠAl an
M Ã¡i
ĠPh nom
ĠD áºªN
Le ave
ĠHill ary
ĠGi l
ipp o
ĠT á»ĵn
ĠT ÃĤN
ĠHá»į p
ĠC ay
V á»ı
d at
Ġkh Æ°á»Ľc
ĠG iáº¿t
kin s
ĠA Z
ĠOpt ion
g roup
ĠHy dro
ĠF amily
os ph
Ġhy undai
tr l
ĠÐ ¡
ĠGr aph
ĠHe art
une i
! ?
Ġv Ã¡i
Ġlá»¥ i
b Ãºt
Ġr áº¯m
Ġs ushi
ĠN xb
ent e
ĠSi em
Ġl Ãµng
Ġr Ã´ng
Ġthu oc
ame x
Cl ip
ĠH anh
ro ugh
ĠAl aska
ĠKh iáº¿n
ĠR yan
ĠCh Ãł
Ġtr á»ģ
Ð¸Ð ¹
nh Ã£n
od o
ĠT UYá»ĤN
ĠD er
â Ĺı
Ġelec tron
ĠB urn
av i
en o
Ġ3 10
ĠD D
Ġw ax
Â ¶
ÄĲ Ãª
Ġ Ãºc
N ext
ĠD ien
n s
Ġd áº¹t
ĠEd en
ĠN ASA
Ġgh áº¹
Ġt uá»ĳt
Ġthá»ı m
. ]
ĠN ev
Ġngo áº·c
TT TT
Äĳ á»©c
ho i
X anh
Ġg áº«y
er on
Ġ14 2
ĠÄĲ Äĥ
Ġ195 7
ĠÄĳ Ã¹m
Ġn eed
W S
Ġw c
av es
Äĳ á»©ng
Ġal u
Ġçķ ¶ÄĳÆ°Æ¡ng
ĠÃģ ng
eth anol
/ -
ig u
Ġk il
Ġw idth
ĠD Æ°a
rus h
Ġ3 01
ĠT iáº¿c
Ġd á»ģn
X L
ĠD im
ĠTo ol
Ð ¹
Ġc re
ĠSun wah
ĠCast ro
ĠHo áº¡ch
Ġc á»Ł
Ġåħ Ń
int age
ĠLib er
ĠÄĳ Ãªn
Ġr Æ°á»Ľi
Ġcar ot
ĠCh uá»ĳi
K L
Ġx Ã¹m
Ġin t
0 80
or ama
ĠR ON
Ġr Ãº
ĠC oll
ĠP B
st ant
ĠG reat
ĠAl t
ĠMar ie
h cm
19 54
ĠKy oto
w c
Ġu á»ĥ
ĠColumb ia
n ien
th Ã¡i
å ±
ĠK á»¸
Ġc á»Ĺi
Ġpro ject
ĠL K
ĠGam ing
ch ure
ĠAmi A
L c
ol ution
r ac
Ġè ĸ
Ġp oker
ĠCH U
Ġ14 9
ind ex
r Ãºt
ĠA re
ĠSh ang
ĠGIá» ļI
am ford
ro g
ĠJenn ifer
Ġï ¼
ĠTh Ã¡ch
Ð¾ Ñģ
Ġl ag
ly cer
Ġlo Ã¡t
th áº¯ng
av on
ĠC Ã²
ĠN Ãºt
Ca fe
f unction
ĠU AE
Ġav atar
H áº±ng
Ġèı© Bá»ĵ
k ov
ĠB ÃĢI
at eway
Ġin d
Ġd Ã´
ep p
4 90
Ġr áº£
l t
c Æ°á»Ŀi
ag an
Ġr uá»ĳc
ĠÄĲ Æ¯á»¢C
ĠÄĲ O
Ġnh Ã¡o
BH XH
R Äĥng
qu es
Ġtu á»Ļc
ĠK N
ĠKh Ã¡n
CH C
asp ers
ĠL Ã´ng
v áº«n
Ġh ieu
ĠNh am
ĠHe ad
Ġgh á»ģnh
Ġ| |
O B
ĠÄĳ áº±m
Ġtho ang
Ġres et
ĠN est
Ġ4 30
ĠP OS
Ġ und
ĠI NT
Ġm ov
199 3
ĠthÃŃ a
Ġtu Ã¢
Ġ15 8
ĠKh Ã¢u
ĠCle ar
k ÃŃp
Ġtu ong
Ġx Ã©n
T Ã³c
ĠY ÃĬU
Ġr á»£p
M áº¯t
ĠF ur
ĠL áº¯c
ĠP enn
ĠCorp oration
ĠRoll s
Ġtr end
4 80
ol et
gi Ã¢y
Ġgi oi
Ġæ ¸
R ao
sen se
R ob
ĠV Ã¡n
iv o
L ife
Äĳ un
ĠRO M
ĠæŃ£ chÃ¡nh
ĠN y
Ġhe he
ĠLand mark
ĠK et
ĠLan e
»kh á»©
ĠK um
Ġlu m
Suc khoedoisong
ĠH ÃĴA
ĠJack pot
ĠF ans
Ġ14 3
Ġt ip
ĠLip o
D e
qu áº£ng
Ġus d
ot ic
Ġéł Ń
Ġt Ãłnh
ĠM áºłI
Ġo x
Kh ÃŃ
Ġser vice
k V
Ġr outer
Ġåİ »khá»©
m ore
h á»Ļp
ĠD Ã¡n
Ġ13 7
ĠK pop
ĠLu Ã´ng
ĠKH O
Ġr áº¡
ĠCh Æ°á»Łng
ĠKh en
ĠH ak
ÃĥÆĴ ÃĨ
Ph Ãºt
w orld
omat ic
dr ess
ĠV áº¿t
l im
Ġæ ¨
ĠAd words
ĠÄĳá»Ŀ n
C ard
Ġc Æ°u
ĠA G
ĠCoun ty
h p
ĠK L
ĠRead ing
ĠL N
ĠS F
á»ĥ nh
V ai
55 5
c enter
ĠTr ÃŃch
Ġs it
ĠT Ã¡n
ĠV G
ĠC áº¦U
ĠSoft ware
U y
ĠQu oc
F r
Ġæ ı
. </
p ark
Ġh ist
ĠS ent
Bl ack
ĠÄĲ Ãºc
d uong
ĠB alo
col n
ĠCH DC
ex press
ĠMa j
ĠZ uckerberg
O K
Ġg áº¡c
ĠSaf ari
3 10
G Æ°Æ¡ng
Ġå ¡
77 7
Ġo b
ĠLU áº¬T
ĠS ens
Ġho k
ĠL atin
XH CN
Ġre ad
c ute
ĠthÃº y
Ä© u
ĠCh en
á»ħ u
Ng Å©
A ll
T Ã¡t
ĠE c
ĠT áº§u
ĠPan ama
Ġæ ¼
ĠN A
ĠF al
ĠGen eva
th ÃŃ
Ġnháº½ o
ĠB oss
ĠNG UYÃĬN
p n
Ġn Ã¢
ĠéłŃ Äĳáº§u
AT E
ĠK iÃªu
p al
ĠHO A
ĠE un
ĠJ ay
Æ¯ á»Ľc
[ ...]
Ġs á»§i
p or
ÄĲ áºŃu
f urt
tr á»£
ĠK om
Ġ3 90
Ġh is
Ġeng ine
ĠV Ã¢
V Æ¡
âĢľ ,
ĠChap ter
ĠT iki
Ġph iá»ĩn
Ġgu á»ĵng
ĠH ard
Ġx iÃªu
k ÃŃch
ĠB ir
ĠH ab
t Ã´n
Ġfe et
A sia
Ġvá» ĵ
il ter
ĠH á»ģ
Ġhi hi
D Æ°á»Ŀng
S c
Ġba king
ĠÄĲ iÃªu
Ġt iá»ģu
ĠdÃ¹ i
Th áº¥t
ĠchÃŃ p
å¼ Ģ
Äĳ au
Ġc ross
ĠMer kel
ĠPh Ã¡n
Ġmod e
ĠHo p
á¹ Ń
. âĢĭ
ĠX ÃĤY
Ġ14 6
ĠUV B
Qu á»¹
ĠÄĳ Ã¡t
Ġhá» Ľn
g us
Ð» Ñı
th uc
ĠTO EFL
Ġ15 3
n iá»ĩm
ĠEther net
ĠTIáº¾ P
th an
ĠP CT
Ch á»¯
ĠâĢľ âĢ¦
Ġ Ãº
tr áº£
ie z
oc o
EW S
ĠH in
B et
Ġ17 8
D á»ħ
ĠG CN
Qu á»·
h iá»ĩu
ĠVÃĢ O
nh áº¡c
Ġsu ong
Äĳ t
ĠmÃ´ tÃ´
UB G
M áº¥t
Ġ09 37
fess ional
Th áº£m
z an
es ar
ĠTR á»Į
ĠAd vanced
ĠJ ust
ng á»Ļ
in ner
ĠM Äĥng
ĠB á»¥t
Ġ5 20
ĠJak arta
B áº¥m
Ġp atin
ĠLo w
Ġgi Ã²ng
ĠéĢ ļ
che on
Ġgr and
ĠX EM
Thu Ãª
K E
ol ate
D ÄĲ
Ġhá» «ng
Ġf uck
å¥ ĸ
un o
ĠC isco
alur onic
Ġso ur
. âĢĻ
ĠNad al
ĠJol ie
lu áºŃn
ĠÄĳ t
ĠV Ãłm
Ġ09 34
ĠJe ju
ĠC Ãły
ĠI van
ĠM Æ°u
ĠA j
Ġc c
10 80
ĠC CB
lo pp
Ġ16 7
ĠHD PE
Ġå Ģ
ĠLa z
ĠH Iá»ĨU
G old
Ġçļ Ĩ
av y
ĠB QL
ĠNG O
ĠNg áº¡o
ann y
ĠÃĲ á»ĵng
ĠW ave
ye ong
ĠR h
ĠMi ura
Ġla v
ord s
Ã© e
ĠBr unei
ch ange
ĠPr ess
ĠFant asy
co u
ä¸ į
Æ°á»Ľ m
P Y
ĠX s
l as
ĠtÃ¹ m
Ġv Ã¹
Ġhá» Ľt
ĠP IN
Iá»Ĩ M
B R
ĠNH áº¬N
ĠM ik
b ul
it ude
ĠNgh Ã©
Ġb al
eb ra
se arch
Ġs áº¯ng
ï¿½ ?
ĠR eb
Ġhero in
Ġn Ã¡u
T I
ĠManh attan
Ġç· £
ĠP ink
Ġb s
ĠJ ane
Ġph in
OT O
ĠM is
ĠBL HS
ĠDy nam
Ġb áºŃp
ind er
Ġvacc ine
Ġh áº¥n
ĠH ik
ĠGi ov
d Æ°Æ¡ng
ĠM ult
ĠL Ã¡t
ĠA IDS
66 8
ĠLog istics
ĠM X
ho ang
m icro
Ġç¬ ¬
Ġro om
Ġç¨ ®
tr áº»
0 24
ĠP att
ĠNam e
25 65
Ġso t
h á»Ļ
xx x
ĠçļĨ giai
l ao
Ġc nc
åĽ ¾
le ep
ĠS witch
ĠW ikipedia
B ET
5 20
C ol
ĠS Ãª
Æ¯ U
ĠS lov
ĠSun ny
Ġnh Ã²m
ĠParad ise
ĠIn ax
ĠLy on
Ġè¦ º
Ġt Ã¢u
ĠJ ar
H Æ°ng
ĠT ia
ĠH Y
ĠTNG T
Ġph Äĥng
ĠS QL
Ġp e
Ġmua ban
N Äĥng
ĠD R
Ġtr áº«m
ĠTu á»³
ĠTh iá»ĩp
ĠJun ior
Ġth iá»ĥn
ĠD Ã¡ng
ĠC Äĥng
â Ī
ĠM BA
ĠM Ãłng
ĠBank ing
n os
Ph a
Ġ Å
19 88
4 40
ĠK oi
L H
Ġ ang
ĠB á»¥i
Ġw ay
ĠP os
ĠD z
Ġth Æ°á»Ľt
ĠHO ÃĢNG
ĠResid ences
Ġcol or
Ġop en
S u
ĠiT unes
Ġv áº¹t
ĠMax Mobile
ĠComp uter
B us
c ac
Ġ15 1
áº® NG
ĠHo w
ĠnhÅ© n
ĠD áº£i
Ġ2 12
th Æ°
ĠReview ed
ĠT otal
Í ģ
ÃĴ N
ĠV ers
ð Ŀ
Ġb ÃŃnh
ĠF ilm
f ort
\ )
au se
v ua
Ġx á»ĳt
ĠN ÄĤNG
ĠSh im
ĠNik on
Ġwh ite
T áº¡m
Ġs áº¡p
ĠX Ã³m
14 55
Ġg Ã¡p
lo y
ĠS hip
im age
ĠAd vent
amb oo
Ġqu áº¡
Ġ Æ°Æ¡
s un
M aster
Ġth iáº¿c
ĠH ad
Ġ. âĢĿ
nh áº±m
ĠE ast
ĠD ANH
l ib
p ic
ĠKH U
ĠP ul
Ġac c
Ġsk ill
ĠB kav
ĠMb appe
å ¯
ĠÄĲ Æ¯á»ľNG
us alem
M á»Ļc
d á»¥c
ĠL iá»ģu
ĠÄĲ á»ĳt
D áº¡y
Ġb ol
C Ã¡n
Ġtá» ħ
ick s
ux e
Ġch á»Ľm
Äĳ en
N Ã´ng
Ġng Ã¢
ĠBec kham
Ġn á»©a
Ġ17 6
Ġb áº¹
to wn
ĠKho Ã¡i
ĠF idel
l ar
Ġsilic one
up er
Ġst ud
( '
ĠTá»Ķ NG
ĠÄĳ Äĥm
á»£ ng
ĠL ak
ĠÐ Ł
ĠÐ ļ
ab e
Ġ6 60
ĠDis co
ĠM á»ĭch
aspers ky
S cript
l at
Ġqu áº·c
ine a
car at
thi s
Ġsup port
ĠL áº·p
ŀ tÃ¹ng
ĠP ure
ĠTr á»©
ĠR C
ĠTR áº¦N
an et
Ġèģ ŀ
Ð¸ Ð¼
Ġtr an
Ġch áº¡c
ĠKore an
³ t
Ġd Ãł
V Æ°á»£t
ĠY áº¿t
s á»©c
ĠP av
ĠOp era
h m
v Ã²ng
S mart
b b
giá» ¯
ĠÄĲ Iá»ĢU
l us
ðŁ Ĵ
s Ã´
qu ot
Ï Ģ
Th á»©c
l Ã¢m
ĠA ff
g Ã²n
ĠâĻ ¥
v á»įng
C Æ°
á» ²
ic ation
Ġn anh
\ /
ĠðŁ Ĵ
g oogle
ĠA er
ĠChar lie
B áº¥y
: ...
S al
ĠM E
ĠFranc is
T á»©
Ġdá»¥ m
v ip
Ġcl ub
Ġç¨® chá»§ng
Ð ¶
ite ct
Ġè µ·
K Ã½
Ġw on
ĠPro duc
ĠGr am
art z
Ġch ar
Ã¨ ng
ĠHu Ãª
Ġmag iÃª
Ġb reak
ĠthÃŃ m
Ġmasc ara
G Ãł
Äĳ Ã´i
ãĤ Ĭ
ĠJu an
ĠTH E
ĠBH TN
ĠTr Ãło
11 7
ĠB ad
ĠSp r
ar us
ng on
is try
ĠDi esel
B log
ĠCh áºŃu
ĠTe en
Ġd v
Ġt Äĥn
ĠS us
ĠMcC ain
l á»Ŀi
ĠV B
Ġgh á»ģ
ĠTH áº¾
c umin
ob ay
ĠT F
20 5
Ġm arket
ĠI g
Ngh á»ģ
Ġdes ktop
Ġf un
ng Ã´i
ip an
c ia
Ġas p
Ġm á»ĳng
com p
ai se
Ġwhi ch
19 30
Ġd iáº¿t
M M
Ġ2 19
ĠS ÃģCH
ĠF at
F e
c or
Ġnh ieu
Ġçı ¾
ãĤ ĵ
Äĳ Ãło
Ġå¾ ŀtÃ¹ng
ĠCrime a
ĠR Ã´m
ĠK Ä©
KV ÄĲ
an te
ĠH á»±u
ĠT á»ĳn
Ġç Ī
N iá»ģm
30 4
ĠDe ad
ĠLÃ£ m
G á»Ĺ
Ġwh en
k it
ing ham
ĠÃĲ áº£ng
áºł NG
H an
S te
ro v
ĠGI AO
ib ar
ÄĲ á»£t
ur ch
ĠÙ ħ
Nh Ã£n
Ġlay er
Ġk á»īnh
ĠE N
Ġv áº±ng
Ġph áº©y
ĠD eb
ÄĲ S
ĠMar vel
Ġ18 9
s l
ĠM K
ĠSc ar
Ġin fo
Ġå· ²
Ġchu Ã´
Ġ15 4
Ġl á»įi
ÄĲ inh
r Æ¡
N á»ĵi
v ÃŃt
N m
ĠU Y
ĠNh á»ĭp
UY áº¾N
k et
ĠTH IÃĬN
v ang
p eo
Ġtr Ã¡t
ri er
Ġ att
B ox
ĠLin coln
Ġl áº£ng
ãĥ¼ ãĥ
ĠB Ã©o
Ġèµ· khá»Łi
ĠTh er
Ġr áº¯t
Kh áº£o
ĠéĢļ thÃ´ng
RO UP
ĠTH á»ľI
Ġl á»¯ng
ĥn Ã£i
â Ĺ
ent a
Al bum
L G
T á»Ľ
T Ã¡i
Ġi u
ĠCh ay
Ġ09 78
% );
Ġb low
Ġn á»ĭt
ĭ th
ĠB O
y pe
ĠB á»ģn
ĠB Ãºn
ĠÄĲ ÃĶNG
ch Æ°Æ¡ng
ĠCr edit
us a
ĠL Iá»ĨU
ho Ãłng
Ph Ã³ng
t áº¿
act or
Ġä¹ ĥnÃ£i
D á»ĭp
V S
ĠS em
Ġin st
W A
z he
ĠL X
iz er
Ġæ µ
Ġe very
ĠÐ ³
ĠMul ti
Ġb Ã¢ng
ĠK ay
B o
Ġå·² dÄ©
K N
Ġin dex
ĠL is
Dr ive
as ia
Ġn inja
ĠAl bert
ĠG Ã¬
ĠKy o
n á»ķi
Ġl á»įn
Ph á»¥c
and ah
ĠQU áº¬N
Ġprotect ion
Äĳ á»ķi
Ġac et
tr Æ°á»Łng
it as
Ph ÃŃ
ĠK ÃĿ
ĠM om
Ġhá»į at
02 1455
ĠAb d
ĠDec al
Th áº¡ch
ĠBro ther
ĠC Æ¯
w p
Ġn Ã¡y
C R
sh are
ĠÄĲá» Ĥ
ĠG ear
ĠæĻ º
Ġv intage
23 3
Ġ0917 021455
kho e
T L
ĠB G
ĠDr iver
Ġb ill
Ġph áº©n
ĠS á»ĳt
ÃĶ n
ĠAnd y
ĠC and
Ã© s
ot ti
Ġc áº§y
S ho
ĠD E
Ġco ffee
ĠPet rolimex
ãĤ ¹
Hy undai
Ä¨ A
Ġç·£ duyÃªn
! âĢĿ,
¢ ¨
ì Ŀ
ĠAV G
F ord
ĠAnth ony
Thu áºŃn
ĠÄĳá» ħ
ĠAss oc
in am
Ġlu ong
19 90
Ġch á»±c
ĠSouth ampton
1717 17
ĠH áº¥p
ĠU K
ĠEm irates
ĠCarl os
B NV
p ick
Ġ20 5
U E
n iÃªn
ĠT ÃįNH
ĠE PS
ut an
Ġ0907 171717
ĠL igue
ath on
Æ¯ á»ŀNG
ĠG in
Ġká»ģ m
O ff
ĠE instein
Ġ09 66
ĠF L
ĠW onder
ent ai
M iá»ħn
ĠV ong
ÄĲ Ã³ng
ĠC ot
Ch áº¡y
TT O
Ġ: âĢĿ
Ðµ Ðº
p ing
ĠN á»ĩm
d au
Ġg on
ðŁ ĺ
eb er
en tral
4 20
ĠN ations
ĠH áº³n
Ġth iá»ģu
( (
ĠD áº¡o
ĠAN TT
ĠÄĲ Iá»ĤM
ĠL E
il k
ĠRang e
ĠC ash
Ġlo ok
Ġcat walk
ĠA A
ĠGi Ãłng
ĠmÃ¹ n
ĠPH Æ¯ÆłNG
f ps
Ġtho áº¯t
ĠX Ãĥ
Ġq Ãºy
r á»ĵi
ĠSt amford
Ġm atch
Ġgiá» ±t
âĢ¦ âĢĿ,
Tag ged
od er
Ġho use
ĠMart ial
Th uá»Ļc
Ġm al
k an
E VN
ĠW ireless
Ð¸ Ð»
ĠCHDC ND
ĠR onald
az ine
Ġn Ã¯
Ġx á»ĳi
r ist
é ģ
ĠHi ro
ines e
3 01
ĠLat inh
Ġthu at
C are
M Æ¡
ĠCH XHCN
ng á»¯
ĠS áº¡ch
Ġ09 75
oy a
I X
Q P
ĠM á»¤C
ĠPr ivate
b reak
Ġ20 2
ĠTr Ã¢
ĠCH LB
Ġä½ ı
Ð¾Ð ±
ÄĲ á»Ĺ
ĠâĢ¦ ..
Ġsl ide
. /
ĠMus k
ĠR um
iz z
ĠJ ang
ick er
anc y
cap tion
ĠJer usalem
ast in
Ġl áº·t
Ġm á»įn
H uy
Ġ19 47
ĠLU áº¬N
Ġçı¾ hiá»ĩn
Ġtr Ã¢m
G AP
ĠÄĲ KVÄĲ
ĠK lopp
v áºŃn
uk et
ĠCB RE
Ġè ²
ĠAb b
ĠCan nes
ĠB attle
S tr
Ġ19 49
rah im
ĠB Ã¬
P ay
kh á»ķ
T áºŃn
ĠE conom
ĠKH OA
ĠRes earch
Ġngh Ãªu
ĠLe ad
thanh nien
00 2
ob a
TH PT
D Ãłnh
Ç İ
u u
Ġm Ã©
ĠTh á»ı
Ġtr áº¥u
t iáº¿t
AM C
Ġhá»Ł i
Ġ195 3
Ġca che
á¹ ĩ
Ġdig ital
Ġm ade
ĠOpt im
ÄĲ áº§m
Ġè§ Ģ
ĠSe ung
ect ion
Ġki em
H áº¿t
en do
Ġpass word
ĠðŁĺ Ģ
n ers
ĠK elly
uá»ĳ m
ĠNh áº¹
ĠDi or
ĠI pad
19 70
i y
L Äĥng
Ġsing le
ĠTr ail
ĠMuaBan Nhanh
Ġy en
Ġs ap
ĠV Ã£n
in ter
R Ã¨m
Ġin verter
Ġ16 4
G áº¡ch
Ġchu n
ĠTH á»Ĥ
Ġcu on
ĠK iss
Ġtu m
IT Y
S S
AR D
cou ver
t es
Ġb áº·t
Ġb ec
ĠR E
ĠNH M
Ġv áº±n
ch Ãło
Ġl et
ĠCh al
ĠCh áº©n
ĠTR á»°C
ĠG áº¯n
Tr áº¯ng
u tra
å¿ «
h en
ĠFrank furt
ex e
ens ion
ĠÄĲ TC
ĠG á»ĳi
th ai
ĠShop ee
Ġreg ister
Äĳ Ã´ng
ĠÄĲ S
op hi
Ãĵ C
ĠAsia d
Ġè¦º giÃ¡c
G alaxy
Ġv ina
Ġto áº¡i
ame work
ons ai
ĠCit izen
ĠB Æ¡i
th y
11 4
ĠL Äĥk
ĠPok er
Ġk ien
ĠC Æ°á»Ľp
ĠNh áº¡
ĠR ac
Ġè £
l ia
ĠT ext
Ġcomp act
ĠPho enix
ĠTh anks
im ages
ng á»¥
Ġso p
ĠM F
f ig
ĠCP I
ien ds
Ġæĸĩ vÄĥn
ĠH á»Ľn
Ġr im
Ġp Ã´
ĠS W
ĠInst it
Ġth Ã³t
ĠS ÆłN
Ġc ore
ĠçĶ ¨
Ġæ İ
Ġph Ã¹ng
un ch
24 9
Ġtra ffic
ĠGiá» ĵng
ĠÃĲ Ãł
ĠP UBG
Ġsp ort
l ang
g as
ĠÄĲ Ã¨o
al ty
ĠO c
Ġa f
ĠDel hi
ou ch
3 40
Ġ16 6
ĠCH UNG
Tr ÃŃ
ur u
ä ¿
âĨ Ĵ
ĠGuard ian
L Ãłn
ĠB ass
d Æ°
19 63
ĠC MT
ĠO t
Ser ies
Ġ( "
ĳ ī
Ġåĸ Ħ
æ ķ
ĠPier re
n on
P D
ĠC á»ĺNG
ĠÄĳ Ã¹n
n ia
Ġcarbohydr ate
Ġview s
os o
og o
ĠCH Ãį
Ch á»¥p
ĠSe attle
C ty
el low
us et
) {
ac ter
Ġh iep
...... ...
ĠCar bon
Ġchu m
l Ã¡
Ġh Ã¡ch
ĠÃĲ iá»ģu
ĠA TV
Î ¿
ĠK iev
K ey
ĠKh iáº¿u
ĠTIáº¾ NG
Ġv Ã¡nh
ĠMar c
ch ai
Ġ16 2
ĠM Ã¢m
ĠåħŃ lá»¥c
ĠC out
Ġon ly
gi ay
am an
ĠBul g
Ġcu rc
ĠSc ience
" -
Ġg ui
Ġ17 7
P al
Ġ Ã¡y
is ia
s ec
Ġkho m
Ġ24 5
D onald
th iáº¿u
Ġm om
ĠâĢ İ
Ġb á»Ľ
ĠSil va
ĠAc rylic
Ġs and
ĠPan el
ĠVi rus
Ġbl ue
F M
Ġq á»§a
Ġvi ec
L am
st one
ĠA H
On line
h Æ°Æ¡ng
ĠÄĲ ÄĤNG
ĠM Ã¬
ĠT á»ıi
ĠSlov akia
ĠK iá»ĩm
ĠRog er
U RL
Ġt er
Ġs logan
atch back
ĠNh ÃŃ
ach e
3 68
Ġhá» īnh
ĠCM C
Ġm Æ°á»Ŀng
... ".
Ġr est
Ġç ¤
ĠDá»° NG
Ġd ance
Ġ17 4
h Æ°
Q uyá»ĥn
| |
Phi l
ĠF X
ĠIm age
Ġé »
W B
ĠB ak
p an
t ao
ho áº¡t
Ġb áº¹n
od ia
áº¤ Y
) âĢĿ
m Ã¹a
u f
ĠB Iá»ĨT
Ġk q
y to
çĶ Ł
D áº¡o
ul ina
ĠTh áº¥u
IS T
è Ģ
ÄĲ á»Ļt
Ġf ans
Ġchu ong
ĠComp osite
iag gio
ĠI ron
ĠF S
Ġ0 77
Ġpost ed
v áºŃy
ĠTo ken
kh Ã¡c
Ġac er
ĠCar n
M er
b ut
Ġd Ã³
Ã© r
ĠçĶ¨ dá»¥ng
ļ t
ĠS R
ĠSp e
ĠB P
ĠCH Æ¯ÆłNG
à¸ ²
zhe imer
ĠF oot
ĠKenn edy
w all
ĠH av
ĠF all
ĠBern ab
C I
Ġthe y
Ġtá» Ŀi
Ġback ground
ĠSm ile
âĢĭâĢĭ âĢĭâĢĭ
D ec
G on
Ġgi áº«m
3 000
ĠSt alin
Ġno Ã£n
Ġtr ack
áºł M
AC K
Ġhá» £t
m elen
Ġopt ion
ĠRic oh
l á»ĭch
ĠAir bus
ĠTh Ã³i
Ġåł Ĥ
Ñģ Ñı
ĠHit ler
qu est
melen ki
ãģ £
ĠTe a
áº¶ NG
ĠKh áº¥u
Ġdu oc
ĠW el
ĠTÃŃ m
m es
25 6
Ġhá»ķ n
b el
Ġsu Ã´
ĠAn alyt
ĠSoc ial
Ġho tel
nh áºŃp
l ich
ai d
b id
Ã »
ĠCS DL
ĠK V
M on
Ġcomp uter
v ia
Ġth á»ĳ
ĠhÆ¡ p
Ġc rom
Ġd Ã²m
ĠP ET
17 5
ĠN á»ĳt
Ġl ast
Ġgh áº¹o
T ÃŃch
ĠTo a
ĠT Ãºy
Ġ15 9
Ġæ ®
' '.
Ġg Ã´n
Ġè ±
ĠGe a
N Ãª
é Ļ
ĠM iá»ĩng
ĠMot ors
h áº¡t
ĠMun chen
k iá»ĥm
å Ŀ
ĠG á»ĳm
Ġmake up
Th á»¥y
c áº£i
ĠKh á»§ng
C áº©m
k ÃŃnh
Äĳ Ã¨n
y ahoo
m ong
ĠS á»£i
Ġf in
so le
Äĳ Ã¡ng
ĠGa al
D H
rit ing
ĠPh á»Ł
Ġthe ir
ĠVinac onex
Ġ09 15
B Ã¡t
ĠLight ning
Ġ5 40
ÑģÑĤ Ð²
Ġra p
ĠNh áº¡n
ĠSt one
ol la
ĠçķĮ giá»Ľi
ĠGer man
ĠH ey
Ġsex toy
Win dows
ĠU BM
ĠQU áº¢
Ġno w
Ġå ģ
ĠåłĤ ÄĳÆ°á»Ŀng
10 9
Ġlá»į ai
Ġt Ã¯
il o
ĠAn to
ĠTh iÃª
Ġ09 68
ãĢ Ģ
ĠE sc
ĠLu cky
Ġb Ã©t
Ġ19 48
________ ________
ĠI oT
b á»Łi
et ti
Ġæł ¹
ĠX box
ĠPN J
ĠN as
Ġs á»ģn
ĠEr ik
Ð° Ñģ
th áº§y
24 2
c raft
ĠV M
n Ã¢ng
ĠVÃĢ NG
ĠTh iá»ĩt
ĠU t
ĠA eon
ĠW hi
ĠC AS
Ġal pha
ĠH iá»ĥm
le g
x o
G Ã³c
gi áº¥y
ĠC áº¢
s cr
ĠF riday
ĠT áº¯t
Ġ09 83
Gi áº¥c
ĠÐ Ĵ
Ġ ic
Ġqu Æ¡
S hi
Ġ ot
Ġqu Ã¡ch
Ph á»ĳi
s á»ķ
Ġ27 5
ĠHong kong
Ġs ome
ĠÄĲ ak
ĠElec tric
Ġso a
ĠA FC
ĠAug ust
ĠC PTPP
Ġb áº¥p
ĠT ed
Ġg áº¡
Ġco up
Ġsour ce
R ec
Ġkhu Ã¢n
ĠÄĲ Ãģ
ĠCh am
ĠX iÃªm
Å «
Ãļ C
qu Ãł
Ġch Ä©a
Ġq Ãºa
ĠC au
................ ........
Mod el
c á»Ńu
ĠAm en
ÄĲ á»ģn
ĠEar th
. :
k á»·
. <
T Æ°á»£ng
ep ub
6 29
ĠtrÃ¬ u
L Ã²
199 1
Ġho áº¯c
r ack
ĠBernab eu
B Æ¡m
R es
) ?
Ġæł¹ cÄĥn
r ap
ĠLu ang
Ġè ³
Ġt et
Ġå ½©
ph e
Ġs ne
ĠKS ND
Ġs Ãł
Ġ15 7
Ġbo ard
ĠAn a
ĠL evel
at on
van ia
D M
k á»¹
ail s
Ġ17 1
Ġtr Ãª
Tr á»ĭnh
ĠRob erto
ĠÄĲ Ã¢
ĠGi ft
ĠMass ach
Ġr áº§n
Ġç ħ
ĠPe nh
ithi um
00 5
Ġto c
ľ ¸
ÐµÐ ¹
y ang
ĠPh ill
t ag
Ġvan i
Ãį CH
ĠÄĳá» ī
âĢ¦âĢ¦ .
Ġn Ã¡i
45 6
Ġm ed
ĠDel ta
K iá»ģu
ĠNgh Ãª
Ġp oint
ER A
ĠAl ice
Ġgá»Ŀ m
Ġm usic
Ġc er
ien co
F PT
ĠL ast
ĠCarol ina
g reen
ĠF ish
13 8
çł ģ
U K
ĠS ON
Ġt Æ°Æ¡m
ĠK CB
Ġc Ãĥ
v it
5 000
ĠD B
Ġ áº¯ng
ĠSp utnik
ĠN áº¡i
Ġngh ÃŃa
ĠF ai
ĠTo k
s w
ch á»¯
Th iá»ģn
Ġ ãģ
Ġchá»ĭ t
ĠKho ang
ĠPr im
ĠV CB
Ġxu Ã½t
L R
pr c
Ġkh Ãª
v á»ĳn
ĠM ake
ĠP ow
t uá»ķi
BG TVT
ĠCh ao
tr Ãº
ĠR oland
eb le
se ille
Ġä½ı trá»¥
G en
lu áºŃt
Ġso ft
gr aph
Ġph Ãºng
Ġsho ck
IS A
Â ´
ĠD ance
ĠSh ark
Ġform at
ĠAv atar
s ide
Ġp iston
ĠTh or
Ġtrá»ĭ a
A ng
Ġ6 30
19 68
ĠL ung
ĠPent ax
il de
Ġs andal
ĠCo ast
ĠXV III
ig ar
] :
al aya
Ġz ombie
G reen
ĠK Ã©t
23 5
ĠT iá»ħn
ĠDe ep
ER T
Ġáº¢ o
ĠWay ne
ĠKh ong
ĠB ella
m uá»ĳn
ĠT ÃģC
Ġfol low
Ġç¶ĵ kinh
Ġngh áº¿ch
t áº§m
ĠN á»Ļp
il lo
Ġvá» ±
ĠÄĲ oa
A c
ers ey
Ġ09 18
Ġtr uc
m áº¡ng
Tr á»©ng
Ġyá»ĥ u
Ġd Ã¬m
m ap
ĠSum mer
ĠSn ow
3 90
Ġsch ool
Ġ18 4
ĠOr ange
è ¦
ĠTh áº¥m
ĠN ich
ĠK X
th áº£o
Ã ¦
ĠTr end
ĠHai r
ĠOri ent
ĠYo on
all as
Vn Media
he ng
M Æ°a
Ġ6 40
2 65
ĠN exus
Ġw o
iag ra
ons top
Ġth uyÃª
h uy
ash in
ĠSer vices
ĠCa fÃ©
ĠÄĲá»ģ u
ĠS áº»
VN CH
V Ãłng
ĠL ad
bour g
Ġèģŀ vÄĥn
Ġgran ite
d ang
BL ÄĲTBXH
u ke
Ġb all
ĠMeg apixel
Ġm á»ĭch
ĠV á»Ĭ
h áº¿t
T BTC
Â ³
Ġb Ã´n
ĠS Äĥn
20 2
Ġb el
ĠN áº¯p
kh a
Ġh ut
Ġim age
ak ura
Ġ2 88
ĠE asy
L aptop
Ġç¬¬ Äĳá»ĩ
Ġ23 5
ĠG ucci
ĠMat th
th ers
MA X
ĠBec amex
Ġs Ãº
Ġâ Ĺı
ĠHu go
Ġå¤§ åıĳ
l ake
ĠVen ice
D áº«u
b ot
m Ã³n
ĠL h
ĠOut look
Ġd áºŃu
ĠThu á»³
ĠVe am
Ġtr Ã¹n
Micro soft
ĠL áºłNH
ua cute
v Æ°á»£t
au n
ĠBrit ish
ĠV OA
ĠTu c
Ġ ................................................................
if a
ix on
Ġ16 3
Ġvá» ĥ
ĠX áº¡
ĠC reat
ĠG host
SD ÄĲ
Ġ17 9
b Ãª
Ġâľ ĵ
Ġw ar
S QL
Ġngo áº£nh
b ucks
M c
x cÆ¡
Ġ2 99
M Ã´n
ĠbÃ¬ u
ĠB áº¡o
for man
th á»«a
ĠH OSE
Gi Æ°á»Ŀng
ĠUBM TTQ
Th iá»ĩn
ĠGab ri
TC T
H H
copy right
ĠSer gio
ĠRÃ´m a
C LB
Ġd ate
ĠM á»¥
Ġç Ĳ
Ġx Ã³
Ġcurc umin
Ġg Äĥm
ĠOlymp ia
. +
tr Ã¹ng
Ġï »¿
ĠNg áº¯m
ĠJ azz
Ġnh áº©m
n ang
á»Ī NH
ĠNH ANH
Ġsal es
ĠKr em
T i
tho Ã¡t
ĠE ye
ĠPet ers
Ġg Ã³a
ĠTr ain
Ġ09 69
ĠGP MB
ĠC Æ°á»Ľc
Vinh omes
h áº£i
ĠY emen
Ġmu c
Ġl áº¿t
30 5
AN K
Ġ16 9
ĠH M
Ġ16 1
C Ãłi
as ha
ip utra
ĠVan couver
ĠC trl
et on
á»Ĳ p
id ent
ĠI U
Ġw ant
Ġset up
ĠShi seido
ĠCh annel
ĠSS L
ĠåĲ ĳ
Ġng áº¥y
ĠJo on
ĠæĻº trÃŃ
ind s
Y áº¿n
Äĳ o
uset ts
Ġ* *
t c
Ãĵ I
ĠèĢ ģ
Ġv Ã¨o
Ġng Ã´ng
ĠB phone
ÐµÐ ²
40 4
b iÃªn
ĠF air
th ang
b om
Ġ Ãºa
g Ãł
ĠR T
ĠLÄĲ BÄĲ
Ġkh ach
ç «
ĠW B
Ġæ° ´
ĠT iá»ģm
sch ool
x ml
ĠCh eck
iet y
ĠTh uyÃªn
f ast
ĠS ER
ace ae
l ike
ĠÄĲ ÃĢO
anc ial
h áºŃu
en ko
ng uyá»ĩt
ĠNH á»®NG
ĠP ed
ff er
ĠMas k
Ġ22 2
am oto
Ġâľ Ķ
æ ŀ
r as
Ġv Ã¨
ĠHo áº£
ĠJess ica
tr ib
Ġ9 90
Ġ> >>
Ġdo ll
Ġte ch
Ġæĩ ī
IM G
n in
Ġt Ãło
ĠH á»§
13 9
M in
Ġth ere
fer ence
Ġb á»īnh
ĳ c
ĠL Æ°á»¡i
Ġro ot
ĠVP N
c á»Ń
e h
Ġch iá»ģn
Ġm am
ĠLÅ© y
Ġart icle
ĠSpec ial
tr Ã¬nh
ĠAM G
Ġt itle
es co
Ġser i
ĠG O
ĠQ T
5 60
ĠPr int
ĠTHÃģ NG
ĠLH P
ĠPh uket
ĠH UY
ĠSaf ira
ĠMak ita
Ġb enz
Ġè ©
P ark
Ġthá»ķ n
äº ¬
Ġdi em
ĠCh Ã¢m
ng uá»ĵn
ĠV id
ĠKh uyáº¿t
ĠChe fs
ĠF E
ngh á»ĩ
T áº§m
ĠtÃ² an
N á»Ĺi
Ġæķ Ļ
ĠN Ã£o
iss ion
Ġgi áº£o
Ġè ī²
ĠSt ory
ĠCh áº¡p
ĠB áº°NG
le v
ĠChris to
M ess
Ġr iá»ģng
ĠM M
Ġ18 1
IN A
ng Ã¢n
qu in
Ø ©
Ġn s
Ġæ· ¨
Ġc Ã²m
Ġæľ Ī
Ġd á»ģ
ad d
Ġngh en
atin um
ph ÃŃa
ut ta
Ġxá»ķ m
A g
Ġph Å©
T Æ°á»Ľng
25 3
ĠBV TV
ĠPom peo
åľ ¨
ĠS ite
Ġcu á»Ļi
Ġs ms
Äĳ Ã¡p
ĠBo ot
p us
ĠKh Ã¡t
ĠView s
Ġ9 11
Ġ17 2
s Äĥn
Ġb il
Ġâĸ º
ĠÄĲ áºŃp
er i
Ġbá»ĳ t
s ing
Ġo ther
Ġ20 50
Ġhu áº¿
ĠS Ã³i
Ġta ke
K g
Ġt Ã³t
th ur
pr ice
nh Ã£
ĠÐ °
Ġc ast
Ðµ Ñģ
ĠH ist
Ġbá»ĭ u
t á»Ļi
ĠM G
ĠV Ã¡y
Kho áº£n
Ã ĸ
Ġtr á»ĵi
ĠM g
ĠSp am
o ung
ĠZ ika
ĠåĲĳ hÆ°á»Ľng
s ha
Ġh Ã¹
Ġæ» ħ
X ung
urr ency
s Ä©
Ġlu an
ï¼ ¥
Ġsop cast
ĠMan or
ĠBlog ger
b áº£ng
ĠF ore
é Ľ
ÄĲ áº©y
Ġho oc
Y O
ĠPro gram
ĠHS G
ĠVI B
anc er
ĠBar b
ĠGl uc
n em
ĠCM OS
c áº¯t
Ġåľ ĵ
ĠY an
In d
In ternet
ĠCle ans
Äĳ áº£o
ĠT á»¥
Â ¬
ĠW ol
ãĤ Ĥ
R á»ĳi
ĠSer ge
Ġhá»Ń ng
ĠP ere
ĠAl zheimer
áº¨ N
m or
Ġl Æ¡i
Nh áº¥n
pl it
ĠE CO
IN K
Ġv Ã´ng
ĠGeor gia
ĠS á»¬
it ime
ĠÄĲ Ã©c
ĠD Å©
agu ar
yl and
$ /
ãĤ ¤
ĠIb rahim
BÄĲ S
á»į p
L i
ĠS áºµn
Ġç ®
ï¼ °
ĠX Ã³a
Ġé £
äº īé
Ġ Ċ
ĠP it
L AND
ar ma
ĠCh ol
Ġin box
V D
l Æ°Æ¡ng
c á»Ļng
Ġpart y
Ġinch es
L á»Ĺi
ĳ t
Ġm Ã³i
ĠE OS
u it
l Æ°á»£t
Ġlo anh
ter te
ite x
l á»ħ
Ġ5 70
ĠR ica
19 46
am aha
ut i
12 6
L X
Ġcl ient
iez mann
Ġm áº£y
ĠA ve
es is
Ġk á»ģn
ch in
ĠY ok
5 70
Ġtr uáº¥t
Ġthi u
ĠT ÃĮNH
orm al
un i
ĠVin mec
Ch iáº¿t
ĠVer andah
Ġregister ed
l ive
à ¯
avon oid
äºīé ľ¸
ĠF ac
ï¼° ï¼¥
Ġ20 8
Ġå »
x Ãª
Ġ3 33
la w
ï¼°ï¼¥ ï¼®ï¼¡
Nh Æ°á»£c
as m
ĠTH áº¤T
á»Ĩ NH
Ġ21 7
f ly
Ġch rome
ĠVHTT DL
20 3
Ġmon th
Ġngo c
Ġbe en
D oc
å ½
Ġxu á»ĥ
if ul
gus on
t Ã¡i
7 68
ĠI CT
yl vania
ĠG AS
as il
ai g
Ġæ·¨ tá»ĭnh
ia go
Ġth Ãºng
ĠTu áº¿
h ung
co idan
Ð¾Ð º
Ġho w
Ġqu áº·n
ĠCen tre
Ġt au
ĠM iller
ĠR á»ĳt
ĠPro tect
ĠVin City
t ual
Ġæ»ħ diá»ĩt
Ġnet work
ĠGi g
ĠA ston
ĠAr c
p toc
per ty
Khu Ã´n
m á»©c
Ġæ ĵ
Ġsun shine
Ġ19 3
ĠN it
eb u
oo c
RE A
Ġphá»§ i
ĠMay a
uk u
ster y
[ âĢ¦]
s elf
ĠB ow
ĠV ent
ĠY eon
+ )
... ),
h Ãłm
att i
B TTTT
ĠD ul
e er
ĠSc r
D D
ĠRet ina
H ar
ĠH z
ĠSal on
ĠT á»±a
iz on
ĠMac ron
! ).
ĠSte ven
ä¹ Ī
ĠVI C
Ð¾Ð³ Ð¾
Ġd áº«y
ĠH L
æľ ī
ĠS á»ī
W HO
sk t
Ġ9 60
á»ĭ u
ĠR oc
Ġf older
ĠC áº¡n
68 6
ĠO tt
ĠZ oom
Ġg áº«m
Ġam pli
M Ãły
bur y
IS ION
Ġè§Ģ quÃ¡n
ĠL em
ĠâĢĿ .
ĠTitan ium
al es
ĠC CHC
t áº§ng
Ġ3 75
Ġsá»± c
B áº¡c
ĠK O
ĠCV T
Ġnh Ãºm
av an
Ġå Ĩ
d iá»ĩu
13 3
ĠBuff ett
Ġ09 14
Ġl ua
Ġ23 4
Ġtrá»¥ y
ĠD TS
al d
c Æ°
ĠL oi
ĠN Ãªu
Ġèĸ ©
Įh Ã²a
Ġè§ £
Ġå¸ ¸
Ġh Ã³m
Ġå¹ ´
f en
ãĥ Ī
ĠæķĻ giÃ¡o
Ġhá»¥ i
am ol
b á»ī
Ġs w
Ġto uch
Ġèī² sáº¯c
ĠAdvent ure
Ġxu áº©n
Ġt ich
ĠK aspersky
un k
Ġlá» ĥ
ĠE o
ĠåĴ ĮhÃ²a
U L
Ã¨ re
ĠCur cumin
ĠR ong
hi eu
nd ai
ĠM áºŃp
ĠTrans it
ĠR X
ĠFans ipan
ĠMar seille
ĠG TX
ĠÄĲ Ã¡y
è ´
Ġt áº¹o
Ġè ¼
ĠDu terte
á»¨ NG
ĠÃĲ oÃłn
ĠM ath
Ġc á»Ļc
igh ter
ĠO hi
ĠCoc o
ĠlÃ² e
ĠMer c
th áº¥y
P VC
p ons
ĠL Æ°ng
B Ã¹i
M áº¡nh
ĠR ak
ĠJo ong
ĠTo w
Ð¾ ÑģÑĤ
ĠåĪ Ŀ
h al
t ÃŃn
en ch
Ø ¹
ĠL I
TBTC O
ĠT win
Ġkh Ã¯
Ch Ã¡nh
Ġc ang
igue z
Ġcan on
ĠBro ok
ĠBus an
¡t áºŃn
Ġ17 3
ock et
Ġnh om
ĠInsp iron
Ġnh Äĥng
á»Ĳ N
Ġ- ----
ĠD W
ĠF ED
over y
Ġcan vas
Ġpas tel
ĠÄĲ N
ĠÐ¾ Ð±
Ġr iÃªu
âĢ¦âĢ¦ âĢ¦
ack er
Ġton er
× Ļ
Ġ20 4
Ġph ung
d áº«n
Ġmá» £
TT S
ĠMassach usetts
ĠF our
å ĵ
Ġch uá»ĳc
ĠGi áº·t
ĠçĽ ¡táºŃn
Ġç §
ĠOr der
Ġph iá»ĩt
ĠCh in
20 8
ĠBro ad
L ao
Ġp eople
Ġph Ãłng
ol lo
ol t
Ġçľ ¼
T á»Ļi
ĠTh iá»ĥn
ĠNg oan
Ġl uyÃª
it on
t á»§
Ġ4 40
ĠMA X
ĠM ond
Ġngo Ã¡y
Ġt Ã©t
ĠD up
14 5
ĠL il
ĠG á»«ng
nh Ä©
Ġm ÃŃch
19 89
ĠRam os
Ġl iáº¿ng
Ġquy á»ĩt
et ta
Ph Æ°á»Ŀng
á ĥ
ĠY i
Ġcu c
ĠPot ter
ĠÄĳá»ī a
Äĳ á»ķ
ĠMod ric
âĻ ¥
ĠÃ ĵ
ĠUn it
ĠS ag
Ġçİ ĭ
eg r
ĠM ica
forman ce
Cl ick
ĠL ing
à¸ Ļ
at su
ĠcÃ³ p
4 30
12 9
Ġchi u
ĠH ind
ĠB Ãło
Ġâī ¥
ak y
ĠN Q
ĠK or
um er
l uat
Ġde al
Ġp o
ĠQu Ãªn
ãĤ ī
ĠCont ent
Ġf b
ç¥ŀ äºīéľ¸
ĠX Z
ak o
d B
ĠNGH Ä¨A
Ġf ashion
ĠÃ ģm
Ġå® ļ
ĠÄĳ áº©u
ĠÄĲ áº¾N
id ay
Ġ3 25
ĠA DS
ĠAnto ine
3 99
ĠSh ell
L á»Ļ
ĠM ig
ĠF arm
M áº¹o
Ġfl ag
Ch á»Ŀ
en ic
Ġc Å©i
ĠCT Y
ĠMed ic
d ata
Ġ os
Ġm eo
Ġecop ark
l ot
ĠL P
Ġå¯ ¦
ĠFer guson
Ġng Äĥm
Ġ Ñĩ
Ġé ¢¨
ĠSV ÄĲ
H g
tr áº¯ng
w idth
ĠSte el
Ġ á»Ľn
D an
Ġho en
ch á»©
35 5
ĠåĸĦ thiá»ĩn
L ock
Ġbu n
. âĢ¦
Ġ09 32
im o
Ġ30 5
ĠKaw asaki
C á»§
ain s
ĠviÃª c
ÃĢ U
Tu áº¥n
T Ã¡o
Ġh Ã²i
oc olate
Ġå¸¸ thÆ°á»Ŀng
ĠLe ar
ĠTe h
q lo
ï¼°ï¼¥ï¼®ï¼¡ ï¼®ï¼¡
ĠB amboo
ĠR ou
iv ia
Ġ7 77
ªth iá»ģn
ap y
ot un
Ġ7 000
Ġç ¿
g t
Ġæ ¶
ĠWil son
22 8
Ġnhu á»ĩ
ĠUn lock
Ñ į
AS H
ĠT ong
ut ions
e a
ĠTN XP
Ġt ieu
ib bon
æ ł
esp ace
í ķ
Ġthá» «
H Ãºt
Ãļ c
ĠSar ah
Ġc á»¯u
Ġ20 23
is to
li u
Qu Ãł
Ġnew s
Ġçľ¼ nhÃ£n
á»ī a
OS T
ĠD h
Ġcu oc
Ġsp ec
Ġcaffe ine
ist ar
ĠWin dow
Ġmang an
Can ada
Ġ4 60
J ohn
ĠB áº¡
ad min
ĠGar eth
Ġç¦ ªthiá»ģn
Â ł
ĠSu ite
l ife
Î ¹
Ġ3 15
Ġnh Ã³t
ilia te
ĠLu ca
Ġgi áº»
Ġ ................................
ĠX Ã³t
Ġph á»Ľi
Ġl á»įng
6 60
z ech
et ic
f ire
Ġå¿ µ
ĠL D
ĠK ag
Ġta c
ĠHÄĲ H
ĠTh ong
U ND
ĠDo c
ĠS ams
ÃĤ u
ĠBr uss
ĠÄĲ u
ĠÄĳ Ä©
ĠGr iezmann
ĠG ateway
ÄĲ o
ĠWar s
á¹ ĥ
ĠS ig
iá»ħ ng
Ġå¯¦ tháºŃt
Ġxu ong
Äĳ á»«ng
ĠÏ Ģ
á» ĢN
Ġèĸ© TÃ¡t
lo or
Tp HCM
ĠG reg
ĠJ r
ĠJ oy
Ġ09 86
ĠNC KH
OL ED
ĠH uá»ĳng
ĠD á»įc
ĠClin ics
u an
ĠM Ãºa
ĠSO FL
ĠF TA
qu áº£n
âĢĿ [
d al
stan bul
Roy ce
Ġ25 5
ĠM á»¡
ĠGard ens
Ġè§£ giáº£i
Ŀnh á»¯
ĠB Ã¢n
F l
k Wh
ĠH áº¢I
ĠG aza
se an
ÄĲ áº¥y
Ġ2 24
ĠBu ffet
ific ation
ĠV est
ĠHS K
For ce
ĠF ive
ĠA ge
aut iful
nh ap
ĠLo áº¡n
+ .
Ðº Ð¸
ĠNgh iÃªu
Ġki wi
Ġl Ã¡y
ĠTr ading
D áº«n
Ġv áº³ng
ĠSt ation
ian t
ĠTR ÃĬN
ĠTM V
tr Ãł
ĠB un
G E
as i
ĠV CCI
ç º
ho d
16 5
Ġr á»¯a
ĠB ung
con s
el ts
ĠTe ka
ou k
Ġ? âĢĿ
G áº¡o
ĠK B
Ġback drop
I E
ĠK ao
ĠmÄ© m
ĠVen us
Ġæ°´ thá»§y
ĠKh á»ī
ĠDo uble
ĠH Iá»ĨN
ĠæľĪ nguyá»ĩt
ĠWh at
Ġcáº£ u
ian ce
al ine
Ġcáº£ o
ĠMu á»Ļi
Ġéĩ ĳ
Ġ9 000
ĠÄĲ áº©u
ĠS und
p k
ĠK IA
Ġ18 3
Ġchi ps
ĠMi y
ĠM ia
ĠM áº¿n
Ġkh Ã¨
h Ã¡t
ĠL B
20 4
ĠMar cel
et ty
ĠGi uá»Ļc
ic es
ĠBr om
Ġ195 2
ĠXV II
ĠY ear
áº¦ M
ĠQC VN
ĠAb u
D Ãłn
Ġ21 8
S ony
Ġr Æ°Æ¡
ĠQU áº¢N
ĠPower Point
48 5
± th
Ġx Ã¢
em ia
Th áºŃp
ous ine
ĠS co
Kh Ã¡i
s ho
ĠH em
ĠG áº¥p
ĠJava Script
Ġqu áº¡nh
Ġ ......
yl ic
ĠStan ford
Ġä¾ Ŀ
av id
ĠCit i
V Ã¡ch
ĠH ann
ĠCA TP
19 72
13 1
ĠH Ãĥ
b Ã³ng
ĠCl ark
Ġn uc
Ġláº» n
Ð°Ð ¹
Ġ á»Ŀ
ĠY a
Cá»¥ m
ĠQU ANG
m t
Ġåħ «
ĠVai o
in ing
ĠG ol
W ork
V áº¡n
© phá»¥c
xcÆ¡ va
ch t
ĠE F
ict ion
Ġd á»Ļng
BC K
ĠTh áº¥p
Ġhon da
ang nam
ĠH oney
n Ãª
ĠC irc
ĠA E
ph in
âĸ Ī
ĠBent ley
Ġn ic
re w
Ġhot girl
ĠStart up
Ġb oi
Ph u
ĠçĶ ļ
Ġph áºŃp
tr Ã¬
ĠL ex
ĠPat rick
ĠCNVC LÄĲ
ĠèĢģ lÃ£o
ĠStar bucks
ĠTr á»Ĺi
To Ã¡n
pt ion
av er
m áº¯t
ĠJ ur
mien phi
quy áº¿t
ĠÃ Ħ
Ġch á»ĵm
ĠC orn
am o
ÃĤ n
Ġbo ong
ķ ·
ĠHy per
ĠM FC
AN A
ĠPh am
Ġæ± Ŀnhá»¯
Ġå¿µ niá»ĩm
Ġth Æ°á»£c
Ġn Ãºc
Ġn iÃªu
Ġ25 8
Ġru á»ķi
Ġåı Ĺ
ĠFut ure
Ġé¢¨ phong
ĠT NT
ĠçĶļ tháºŃm
Ġh entai
D B
ĠPhilipp e
ĠSI ÃĬU
Ð¸ Ñĩ
Ġ use
Tr ans
ĠÙ Ī
ĠÃĶ tÃ´
ĠY un
Ġcort icoid
X K
Ġcar o
ĠP iaggio
ĠMar co
Ġ8 20
ĠT á»ĪNH
ĠVietnam ese
Ġ09 85
ĠCoun try
ie f
ri que
âĺ ħ
Ġster oid
c ium
Ð¸ ÑĢ
ĠPatt aya
Ð°Ð ´
ĸ thá»§
ian e
A ss
Ġhe art
Ġn Å©ng
Äĳ áº¿
Ġä¾Ŀ y
et ing
uc tion
Bus iness
ç Ļ
Ġph á»ħu
ĠWar ren
13 2
ĠVá»ĭ t
ĠRa j
Ġng Æ°á»Łng
ĠMir ror
ĠTh erm
á»Į I
xt gem
ĠH B
ĠCh á»Ľ
Ġo xit
Ġéĸ ĭ
ĠÄĲV TN
Ġå¤ ĸ
e ic
Ġs apphire
ĠCh áº¥m
Ġban d
im es
Ġcac ao
36 9
ĠTK V
Ġ100 00
ch am
ĠJ SC
ĠPh Ã¨o
Ġæ ©
ãģ ı
Ġg reen
ĠM áº¡
Ġc áº¡m
Ġlu c
4 60
ĠNg áº¡c
H oÃłi
ĠØ ¨
W e
Ġ09 11
ĠN umber
R onaldo
Ł ³
ĠCam b
ĠG re
Ġ á»Ľ
ĠBa hr
min ster
B Ãºt
ĠN M
ĠI E
tr avel
? ",
F an
ĠH erm
Ġ09 44
G l
ic y
Ġs Äĥm
Ġp df
Ġbe nh
ĠO ct
ĠÄĲá» Ĵ
Ġfor ex
ĠQue ens
ç ¾
ĠA ur
land er
ĠArch itect
ĠE ra
ĠO M
Ġå¤ ļ
Ġjav ascript
ĠåĮ Ĺ
x á»Ń
Ġs g
at ra
ĠN ice
l ab
Th á»ķ
ĠAn ime
ĠMS I
Ġd ev
Ġmob ifone
Ar t
Ð¸ Ð²
ut hi
ãĤ Į
ĠH ao
3 15
L ive
U V
Ġp al
ĠD Ãª
th Ã´n
Ġch áº¡nh
ĠVN M
he ad
Ġ6 20
Ġ á»¥
ĠPl ace
Ġå®ļ Äĳá»ĭnh
Ġkhuy Ãª
r ong
01 5
th uy
à¸ £
ĠSe iko
Ġd iÃªn
R o
Ġ21 6
Ġä» ĸ
Ġch á»Ļp
Ġ18 7
Ġåį ĥ
ĠcÃ³ i
ĠK un
ĠJ oo
ĠChar l
ł ´
ĠX ay
c Ã²
Ġf unction
ĠS ATA
) âĢĿ.
ĠNP K
im ax
A s
Ġoff ic
æĹ ¥
Ġl Ã¡n
88 0
ĠéĽ ¢
ãĥ »
thi ng
Ġr á»ĩp
19 73
áº½ o
ĠâĢ¦ )
Ġv Ã³i
ĠVi ber
ĠSX KD
b lock
Ġm áº§n
ĠSu nhouse
Ġtr Ã©t
Ġcá»© a
T Æ°á»Ŀng
W N
Ġc Ã¹a
ĠKrem lin
E Y
Ġlog ged
m Ãłn
ĠMay o
Ġsi ro
Ġbol ero
ĠGiov ani
12 7
I B
ĠR áº¯n
eg al
Ġn ight
ĠZ ero
Ġåħ ī
h and
Tr á»ĵng
Ġgames how
C ong
Ġl ac
Ġt Ã³e
ĠS uáº¥t
Ġin f
et y
ĠN Ã³n
ĠH as
ĠG MT
t itle
ĠFr ont
ĠåıĹ thá»į
ĠN Äĥ
OT A
C TC
ç Ĳ
Ġlo ai
on n
æī ĭ
Ġ áº¥t
Ġch Æ°á»Ŀng
ĠG y
6 90
ĠCH ÃĤU
U C
Ġ( *)
ĠNh iÃªu
b áº¡ch
ĠO R
d it
ĠI f
6 80
C amp
Ġnh áº±ng
ĠE qu
Ġ13 00
Ġ4 10
Ġ20 9
Ġ Ì£
ow ski
ĠMar ch
ĠT á»ĭ
ĠK le
E book
Ġs ide
ĠèĲ ¬
ĠÄĲ iáº¿u
14 3
Ġåľĵ viÃªn
Ġ ul
Ġ5 60
ĠPH á»¤
vn Äĳ
AR K
AC E
ĠS á»ŀ
ĠUnivers e
Ġ2 11
Ġå° ļ
ĠP il
Ġnh Æ°á»¡ng
Ġ14 00
ement s
Ġp ay
Ġal o
K G
ar on
t uc
ĠL Ãºa
ĠSo ul
ĠIn doch
° Äĳ
n Ãłng
ĠC ÄĤN
Ġh Ã¡m
giá» ¯a
åĽ ½
le c
ĠÐ ľ
chá»ĭ u
Ġnguy Ãª
TV QH
Ġb áº±m
âĨ Ĳ
ĠÃī p
om y
Ġh Ã©c
Ġb á»§a
ĠWhit ening
ĠA ND
Ġæľ ĥ
ĠD X
v á»ĩ
ĠI sa
ĠHum an
Ġch Ã¹n
ĠCor olla
em ay
ĠrÃ¬ u
ĠåĪĿ sÆ¡
Ġnh ao
13 4
Ġn á»ĩn
Ġå® ¶
Ġban k
ĠInstit ute
ĠÄĳÃª nh
ĠBahr ain
ĠInfin ity
Ġm it
Ġå¹´ niÃªn
t Æ¡
Ġng Ã¡p
ĠSp ot
Ã¡ Âº
Ġvideo s
ĠSH OP
ter y
Ġl in
ĠYang on
ch iÃªu
ĠT ÃĶ
ĠD allas
Ġtr c
ĠM L
Ġkho áº£i
ĠX en
ĠThu áº¥n
ĠB Ãłnh
Ġ7 30
èĤ ĸ
r ix
Ġgi Ã£i
ĠOp al
S an
b ok
Ġx á»ĳc
N okia
S y
ĠBro w
ĠP PP
ĠC áº©u
ĠCr uise
l Ã£nh
? âĢ¦
ĠP ra
ĠÄĲ ÃĢ
Ġ8 000
Ġå¦Ĥ NhÆ°
98 7
st ore
ĠNg á»¥c
k w
N ews
ĠMap s
ĠT as
ĠHy brid
ĠTun isia
T ÃŃn
Ġå Ķ
ĠHD Bank
ĠAng kor
Ġal t
/ ?
t ung
ĠéĽ ²
ĠUB KT
0 70
ĠC ustom
ĠG X
Ġl ens
v iv
Ġ20 6
Ð¸ Ð¸
Ġblog spot
u lo
h Ã²a
ä¼ ļ
ĠTr ust
Ġtu áº¿
ÄĲ áº¯k
od es
ĠIP O
ĠV AMC
Ġg uá»ĳc
Ġå½ ¼
ĠD ut
" ?
20 22
Ġl á»§ng
r at
ãĢ į
Ġéĸĭ khai
: âľħ
ĠD oll
act ion
d Ã¢y
ĠS eb
Ġm áº¡p
Q Ãºy
gi are
Ġlo p
Ġ09 05
ä¸ Ĭ
ĠN Æ°á»Ľng
ĠéĽ¢ ly
b uild
T áº©y
ĠDu ong
Ġc rop
æĹ¶ å½©
ĠMov ie
8 90
Ġr on
Ng Ã´n
Ġc are
ĠI stanbul
ĠEuro window
Ġcu t
tr Ãºc
tim ate
b ro
ĠAc count
Ġå°ļ thÆ°á»£ng
ment s
ĠTHÃģ I
Tr i
ĠComp act
ĠT á»¨C
13 6
Ġde f
ï»¿ ï»¿
ick ey
car bon
18 5
ĠRom ania
Ġæľĥ há»Ļi
ĠH Æ¯á»ļNG
Ġy ear
ĠR áº¡p
Ġin to
Ġ195 1
ï¿½ï¿½ ï¿½
qu o
Ġtag s
ĠSÃłi gÃ²n
ĠInd ia
ĠPro fessional
ĠGall ery
r áºŃp
Hot line
Ġd eb
Äĳ áº£m
G R
Ġé ¤
ĠCl au
ĠL á»«a
ĠSil k
ĠChampions hip
ĠLá»ļ P
ĠG áº¡c
am en
Ġid ol
R eu
Ġm Ã¡nh
c ab
Ġä¿ ®
Â £
n oi
M á»Ļ
T ao
ĠCy ber
9 60
ĠAr iston
ĠV Æ°Æ¡n
ĠPh áº¿
ĠPeters burg
C EO
P ower
Ġ5 55
tr ai
ĀĀĀĀĀĀĀĀĀĀĀĀĀĀĀĀĀĀĀĀĀĀĀĀĀĀĀĀĀĀĀĀĀĀĀĀĀĀĀĀĀĀĀĀĀĀĀĀĀĀĀĀĀĀĀĀĀĀĀĀĀĀĀĀĀĀĀĀĀĀĀĀĀĀĀĀĀĀĀĀĀĀĀĀĀĀĀĀĀĀĀĀĀĀĀĀĀĀĀĀĀĀĀĀĀĀĀĀĀĀĀĀĀĀĀĀĀĀĀĀĀĀĀĀĀĀĀĀĀĀĀĀĀĀĀĀĀĀĀĀĀĀĀĀĀĀĀĀĀĀĀĀĀĀĀĀĀĀĀĀĀĀĀĀĀĀĀĀĀĀĀĀĀĀĀĀĀĀĀĀĀĀĀĀĀĀĀĀĀĀĀĀĀĀĀĀĀĀĀĀĀĀĀĀĀĀĀĀĀĀĀĀĀĀĀĀĀĀĀĀĀĀĀĀĀĀĀĀĀĀĀĀĀĀĀĀĀĀĀĀĀĀĀĀĀĀĀĀĀĀĀĀĀĀĀĀĀĀĀĀĀĀĀĀĀĀĀĀĀĀĀĀĀĀĀĀĀĀĀĀĀĀĀĀĀĀĀĀĀĀĀĀĀĀĀĀĀĀĀĀĀĀĀĀĀĀĀĀĀĀĀĀĀĀĀĀĀĀĀĀĀĀĀĀĀĀĀĀĀĀĀĀĀĀĀĀĀĀĀĀĀĀĀĀĀĀĀĀĀĀĀĀĀĀĀĀĀĀĀĀĀĀĀĀĀĀĀĀĀĀĀĀĀĀĀĀĀĀĀĀĀĀĀĀĀĀĀĀĀĀĀĀĀĀĀĀĀĀĀĀĀĀĀĀĀĀĀĀĀĀĀĀĀĀĀĀĀĀĀĀĀĀĀĀĀĀĀĀĀĀĀĀĀĀĀĀĀĀĀĀĀĀĀĀĀĀĀĀĀĀĀĀĀĀĀĀĀĀĀĀĀĀĀĀĀĀĀĀĀĀĀĀĀĀĀĀĀĀĀĀĀĀĀĀĀĀĀĀĀĀĀĀĀĀĀĀĀĀĀĀĀĀĀĀĀĀĀĀĀĀĀĀĀĀĀĀĀĀĀĀĀĀĀĀĀĀĀĀĀĀĀĀĀĀĀĀĀĀĀĀĀĀĀĀĀĀĀĀĀĀĀĀĀĀĀĀĀĀĀĀĀĀĀĀĀĀĀĀĀĀĀĀĀĀĀĀĀĀĀĀĀĀĀĀĀĀĀĀĀĀĀĀĀĀĀĀĀĀĀĀĀĀĀĀĀĀĀĀĀĀĀĀĀĀĀĀĀĀĀĀĀĀĀĀĀĀĀĀĀĀĀĀĀĀĀĀĀĀĀĀĀĀĀĀĀĀĀĀĀĀĀĀĀĀĀĀĀĀĀĀĀĀĀĀĀĀĀĀĀĀĀĀĀĀĀĀĀĀĀĀĀĀĀĀĀĀĀĀĀĀĀĀĀĀĀĀĀĀĀĀĀĀĀĀĀĀĀĀĀĀĀĀĀĀĀĀĀĀĀĀĀĀĀĀĀĀĀĀĀĀĀĀĀĀĀĀĀĀĀĀĀĀĀĀĀĀĀĀĀĀĀĀĀĀĀĀĀĀĀĀĀĀĀĀĀĀĀĀĀĀĀĀĀĀĀĀĀĀĀĀĀĀĀĀĀĀĀĀĀĀĀĀĀĀĀĀĀĀĀĀĀĀĀĀĀĀĀĀĀĀĀĀĀĀĀĀĀĀĀĀĀĀĀĀĀĀĀĀĀĀĀĀĀĀĀĀĀĀĀĀĀĀĀĀĀĀĀĀĀĀĀĀĀĀĀĀĀĀĀĀĀĀĀĀĀĀĀĀĀĀĀĀĀĀĀĀĀĀĀĀĀĀĀĀĀĀĀĀĀĀĀĀĀĀĀĀĀĀĀĀĀĀĀĀĀĀĀĀĀĀĀĀĀĀĀĀĀĀĀĀĀĀĀĀĀĀĀĀĀĀĀĀĀĀĀĀĀĀĀĀĀĀĀĀĀĀĀĀĀĀĀĀĀĀĀĀĀĀĀĀĀĀĀĀĀĀĀĀĀĀĀĀĀĀĀĀĀĀĀĀĀĀĀĀĀĀĀĀĀĀĀĀĀĀĀĀĀĀĀĀĀĀĀĀĀĀĀĀĀĀĀĀĀĀĀĀĀĀĀĀĀĀĀĀĀĀĀĀĀĀĀĀĀĀĀĀĀĀĀĀĀĀĀĀĀĀĀĀĀĀĀĀĀĀĀĀĀĀĀĀĀĀĀĀĀĀĀĀĀĀĀĀĀĀĀĀĀĀĀĀĀĀĀĀĀĀĀĀĀĀĀĀĀĀĀĀĀĀĀĀĀĀĀĀĀĀĀĀĀĀĀĀĀĀĀĀĀĀĀĀĀĀĀĀĀĀĀĀĀĀĀĀĀĀĀĀĀĀĀĀĀĀĀĀĀĀĀĀĀĀĀĀĀĀĀĀĀĀĀĀĀĀĀĀĀĀĀĀĀĀĀĀĀĀĀĀĀĀĀĀĀĀĀĀĀĀĀĀĀĀĀĀĀĀĀĀĀĀĀĀĀĀĀĀĀĀĀĀĀĀĀĀĀĀĀĀĀĀĀĀĀĀĀĀĀĀĀĀĀĀĀĀĀĀĀĀĀĀĀĀĀĀĀĀĀĀĀĀĀĀĀĀĀĀĀĀĀĀĀĀĀĀĀĀĀĀĀĀĀĀĀĀĀĀĀĀĀĀĀĀĀĀĀĀĀĀĀĀĀĀĀĀĀĀĀĀĀĀĀĀĀĀĀĀĀĀĀĀĀĀĀĀĀĀĀĀĀĀĀĀĀĀĀĀĀĀĀĀĀĀĀĀĀĀĀĀĀĀĀĀĀĀĀĀĀĀĀĀĀĀĀĀĀĀĀĀĀĀĀĀĀĀĀĀĀĀĀĀĀĀĀĀĀĀĀĀĀĀĀĀĀĀĀĀĀĀĀĀĀĀĀĀĀĀĀĀĀĀĀĀĀĀĀĀĀĀĀĀĀĀĀĀĀĀĀĀĀĀĀĀĀĀĀĀĀĀĀĀĀĀĀĀĀĀĀĀĀĀĀĀĀĀĀĀĀĀĀĀĀĀĀĀĀĀĀĀĀĀĀĀĀĀĀĀĀĀĀĀĀĀĀĀĀĀĀĀĀĀĀĀĀĀĀĀĀĀĀĀĀĀĀĀĀĀĀĀĀĀĀĀĀĀĀĀĀĀĀĀĀĀĀĀĀĀĀĀĀĀĀĀĀĀĀĀĀĀĀĀĀĀĀĀĀĀĀĀĀĀĀĀĀĀĀĀĀĀĀĀĀĀĀĀĀĀĀĀĀĀĀĀĀĀĀĀĀĀĀĀĀĀĀĀĀĀĀĀĀĀĀĀĀĀĀĀĀĀĀĀĀĀĀĀĀĀĀĀĀĀĀĀĀĀĀĀĀĀĀĀĀĀĀĀĀĀĀĀĀĀĀĀĀĀĀĀĀĀĀĀĀĀĀĀĀĀĀĀĀĀĀĀĀĀĀĀĀĀĀĀĀĀĀĀĀĀĀĀĀĀĀĀĀĀĀĀĀĀĀĀĀĀĀĀĀĀĀĀĀĀĀĀĀĀĀĀĀĀĀĀĀĀĀĀĀĀĀĀĀĀĀĀĀĀĀĀĀĀĀĀĀĀĀĀĀĀĀĀĀĀĀĀĀĀĀĀĀĀĀĀĀĀĀĀĀĀĀĀĀĀĀĀĀĀĀĀĀĀĀĀĀĀĀĀĀĀĀĀĀĀĀĀĀĀĀĀĀĀĀĀĀĀĀĀĀĀĀĀĀĀĀĀĀĀĀĀĀĀĀĀĀĀĀĀĀĀĀĀĀĀĀĀĀĀĀĀĀĀĀĀĀĀĀĀĀĀĀĀĀĀĀĀĀĀĀĀĀĀĀĀĀĀĀĀĀĀĀĀĀĀĀĀĀĀĀĀĀĀĀĀĀĀĀĀĀĀĀĀĀĀĀĀĀĀĀĀĀĀĀĀĀĀĀĀĀĀĀĀĀĀĀĀĀĀĀĀĀĀĀĀĀĀĀĀĀĀĀĀĀĀĀĀĀĀĀĀĀĀĀĀĀĀĀĀĀĀĀĀĀĀĀĀĀĀĀĀĀĀĀĀĀĀĀĀĀĀĀĀĀĀĀĀĀĀĀĀĀĀĀĀĀĀĀĀĀĀĀĀĀĀĀĀĀĀĀĀĀĀĀĀĀĀĀĀĀĀĀĀĀĀĀĀĀĀĀĀĀĀĀĀĀĀĀĀĀĀĀĀĀĀĀĀĀĀĀĀĀĀĀĀĀĀĀĀĀĀĀĀĀĀĀĀĀĀĀĀĀĀĀĀĀĀĀĀĀĀĀĀĀĀĀĀĀĀĀĀĀĀĀĀ ĀĀĀĀĀĀĀĀĀĀĀĀĀĀĀĀĀĀĀĀĀĀĀĀĀĀĀĀĀĀĀĀĀĀĀĀĀĀĀĀĀĀĀĀĀĀĀĀĀĀĀĀĀĀĀĀĀĀĀĀĀĀĀĀĀĀĀĀĀĀĀĀĀĀĀĀĀĀĀĀĀĀĀĀĀĀĀĀĀĀĀĀĀĀĀĀĀĀĀĀĀĀĀĀĀĀĀĀĀĀĀĀĀĀĀĀĀĀĀĀĀĀĀĀĀĀĀĀĀĀĀĀĀĀĀĀĀĀĀĀĀĀĀĀĀĀĀĀĀĀĀĀĀĀĀĀĀĀĀĀĀĀĀĀĀĀĀĀĀĀĀĀĀĀĀĀĀĀĀĀĀĀĀĀĀĀĀĀĀĀĀĀĀĀĀĀĀĀĀĀĀĀĀĀĀĀĀĀĀĀĀĀĀĀĀĀĀĀĀĀĀĀĀĀĀĀĀĀĀĀĀĀĀĀĀĀĀĀĀĀĀĀĀĀĀĀĀĀĀĀĀĀĀĀĀĀĀĀĀĀĀĀĀĀĀĀĀĀĀĀĀĀĀĀĀĀĀĀĀĀĀĀĀĀĀĀĀĀĀĀĀĀĀĀĀĀĀĀĀĀĀĀĀĀĀĀĀĀĀĀĀĀĀĀĀĀĀĀĀĀĀĀĀĀĀĀĀĀĀĀĀĀĀĀĀĀĀĀĀĀĀĀĀĀĀĀĀĀĀĀĀĀĀĀĀĀĀĀĀĀĀĀĀĀĀĀĀĀĀĀĀĀĀĀĀĀĀĀĀĀĀĀĀĀĀĀĀĀĀĀĀĀĀĀĀĀĀĀĀĀĀĀĀĀĀĀĀĀĀĀĀĀĀĀĀĀĀĀĀĀĀĀĀĀĀĀĀĀĀĀĀĀĀĀĀĀĀĀĀĀĀĀĀĀĀĀĀĀĀĀĀĀĀĀĀĀĀĀĀĀĀĀĀĀĀĀĀĀĀĀĀĀĀĀĀĀĀĀĀĀĀĀĀĀĀĀĀĀĀĀĀĀĀĀĀĀĀĀĀĀĀĀĀĀĀĀĀĀĀĀĀĀĀĀĀĀĀĀĀĀĀĀĀĀĀĀĀĀĀĀĀĀĀĀĀĀĀĀĀĀĀĀĀĀĀĀĀĀĀĀĀĀĀĀĀĀĀĀĀĀĀĀĀĀĀĀĀĀĀĀĀĀĀĀĀĀĀĀĀĀĀĀĀĀĀĀĀĀĀĀĀĀĀĀĀĀĀĀĀĀĀĀĀĀĀĀĀĀĀĀĀĀĀĀĀĀĀĀĀĀĀĀĀĀĀĀĀĀĀĀĀĀĀĀĀĀĀĀĀĀĀĀĀĀĀĀĀĀĀĀĀĀĀĀĀĀĀĀĀĀĀĀĀĀĀĀĀĀĀĀĀĀĀĀĀĀĀĀĀĀĀĀĀĀĀĀĀĀĀĀĀĀĀĀĀĀĀĀĀĀĀĀĀĀĀĀĀĀĀĀĀĀĀĀĀĀĀĀĀĀĀĀĀĀĀĀĀĀĀĀĀĀĀĀĀĀĀĀĀĀĀĀĀĀĀĀĀĀĀĀĀĀĀĀĀĀĀĀĀĀĀĀĀĀĀĀĀĀĀĀĀĀĀĀĀĀĀĀĀĀĀĀĀĀĀĀĀĀĀĀĀĀĀĀĀĀĀĀĀĀĀĀĀĀĀĀĀĀĀĀĀĀĀĀĀĀĀĀĀĀĀĀĀĀĀĀĀĀĀĀĀĀĀĀĀĀĀĀĀĀĀĀĀĀĀĀĀĀĀĀĀĀĀĀĀĀĀĀĀĀĀĀĀĀĀĀĀĀĀĀĀĀĀĀĀĀĀĀĀĀĀĀĀĀĀĀĀĀĀĀĀĀĀĀĀĀĀĀĀĀĀĀĀĀĀĀĀĀĀĀĀĀĀĀĀĀĀĀĀĀĀĀĀĀĀĀĀĀĀĀĀĀĀĀĀĀĀĀĀĀĀĀĀĀĀĀĀĀĀĀĀĀĀĀĀĀĀĀĀĀĀĀĀĀĀĀĀĀĀĀĀĀĀĀĀĀĀĀĀĀĀĀĀĀĀĀĀĀĀĀĀĀĀĀĀĀĀĀĀĀĀĀĀĀĀĀĀĀĀĀĀĀĀĀĀĀĀĀĀĀĀĀĀĀĀĀĀĀĀĀĀĀĀĀĀĀĀĀĀĀĀĀĀĀĀĀĀĀĀĀĀĀĀĀĀĀĀĀĀĀĀĀĀĀĀĀĀĀĀĀĀĀĀĀĀĀĀĀĀĀĀĀĀĀĀĀĀĀĀĀĀĀĀĀĀĀĀĀĀĀĀĀĀĀĀĀĀĀĀĀĀĀĀĀĀĀĀĀĀĀĀĀĀĀĀĀĀĀĀĀĀĀĀĀĀĀĀĀĀĀĀĀĀĀĀĀĀĀĀĀĀĀĀĀĀĀĀĀĀĀĀĀĀĀĀĀĀĀĀĀĀĀĀĀĀĀĀĀĀĀĀĀĀĀĀĀĀĀĀĀĀĀĀĀĀĀĀĀĀĀĀĀĀĀĀĀĀĀĀĀĀĀĀĀĀĀĀĀĀĀĀĀĀĀĀĀĀĀĀĀĀĀĀĀĀĀĀĀĀĀĀĀĀĀĀĀĀĀĀĀĀĀĀĀĀĀĀĀĀĀĀĀĀĀĀĀĀĀĀĀĀĀĀĀĀĀĀĀĀĀĀĀĀĀĀĀĀĀĀĀĀĀĀĀĀĀĀĀĀĀĀĀĀĀĀĀĀĀĀĀĀĀĀĀĀĀĀĀĀĀĀĀĀĀĀĀĀĀĀĀĀĀĀĀĀĀĀĀĀĀĀĀĀĀĀĀĀĀĀĀĀĀĀĀĀĀĀĀĀĀĀĀĀĀĀĀĀĀĀĀĀĀĀĀĀĀĀĀĀĀĀĀĀĀĀĀĀĀĀĀĀĀĀĀĀĀĀĀĀĀĀĀĀĀĀĀĀĀĀĀĀĀĀĀĀĀĀĀĀĀĀĀĀĀĀĀĀĀĀĀĀĀĀĀĀĀĀĀĀĀĀĀĀĀĀĀĀĀĀĀĀĀĀĀĀĀĀĀĀĀĀĀĀĀĀĀĀĀĀĀĀĀĀĀĀĀĀĀĀĀĀĀĀĀĀĀĀĀĀĀĀĀĀĀĀĀĀĀĀĀĀĀĀĀĀĀĀĀĀĀĀĀĀĀĀĀĀĀĀĀĀĀĀĀĀĀĀĀĀĀĀĀĀĀĀĀĀĀĀĀĀĀĀĀĀĀĀĀĀĀĀĀĀĀĀĀĀĀĀĀĀĀĀĀĀĀĀĀĀĀĀĀĀĀĀĀĀĀĀĀĀĀĀĀĀĀĀĀĀĀĀĀĀĀĀĀĀĀĀĀĀĀĀĀĀĀĀĀĀĀĀĀĀĀĀĀĀĀĀĀĀĀĀĀĀĀĀĀĀĀĀĀĀĀĀĀĀĀĀĀĀĀĀĀĀĀĀĀĀĀĀĀĀĀĀĀĀĀĀĀĀĀĀĀĀĀĀĀĀĀĀĀĀĀĀĀĀĀĀĀĀĀĀĀĀĀĀĀĀĀĀĀĀĀĀĀĀĀĀĀĀĀĀĀĀĀĀĀĀĀĀĀĀĀĀĀĀĀĀĀĀĀĀĀĀĀĀĀĀĀĀĀĀĀĀĀĀĀĀĀĀĀĀĀĀĀĀĀĀĀĀĀĀĀĀĀĀĀĀĀĀĀĀĀĀĀĀĀĀĀĀĀĀĀĀĀĀĀĀĀĀĀĀĀĀĀĀĀĀĀĀĀĀĀĀĀĀĀĀĀĀĀĀĀĀĀĀĀĀĀĀĀĀĀĀĀĀĀĀĀĀĀĀĀĀĀĀĀĀĀĀĀĀĀĀĀĀĀĀĀĀĀĀĀĀĀĀĀĀĀĀĀĀĀĀĀĀĀĀĀĀĀĀĀĀĀĀĀĀĀĀĀĀĀĀĀĀĀĀĀĀĀĀĀĀĀĀĀĀĀĀĀĀĀĀĀĀĀĀĀĀĀĀĀĀĀĀĀĀĀĀĀĀĀĀĀĀĀĀĀĀĀĀĀĀĀĀĀĀĀĀĀĀĀĀĀĀĀĀĀĀĀĀĀĀĀĀĀĀĀĀĀĀĀĀĀĀĀĀĀĀĀĀĀĀĀĀĀĀĀĀĀĀĀĀĀĀĀĀĀĀĀĀĀĀĀĀĀĀĀĀĀĀĀĀĀĀĀĀĀĀĀĀĀĀĀĀĀĀĀĀĀĀĀĀĀĀĀĀĀĀĀĀĀĀĀĀĀĀĀĀĀĀĀĀĀĀĀĀĀĀĀĀĀĀĀĀĀ
Ġsá»© a
qu Ãª
ĠSp ring
he an
ĠèĲ¬ váº¡n
ĠT ÃĶI
Ġbas ed
ĠM es
Ġ19 7
Ġback up
G Ã£
ĠGi Ãłn
ĠSab eco
uch i
Ġv ac
is ol
to ber
ĠBel arus
lu Ã´n
áº¨ m
ç §
ĠTH O
iz ona
Ġå¤ĸ ngoáº¡i
ĠK er
Ġpre fix
Ġ5 30
sh ima
Ð¾Ð ¶
Ġamin o
h er
Ġh Ãºc
ĠM oney
ĠR iv
ĠÄĲT DÄĲ
ĠCHá» ®
é Ŀ
ĠT BT
c áº§m
Th Ã¡p
Ġg ÃŃa
ĠR uss
ĠMal d
15 5
ĠS fone
tr áºŃn
pro p
B á»Ĺng
d áº¡
k ien
ĠKar l
Ġc áº¡c
ĠRodr iguez
ĠT á»¥i
Ġa x
01 2
ĠN Ã¹ng
ar en
ĠAC E
Ġå¾ ©phá»¥c
r ang
ĠFlor ence
c ach
Ġsa ch
nh á»ı
ĠNhu áº¿
ĠEd it
u zu
ĠW an
asc us
Í Ģ
ĠSal es
ĠÄĲ oÃłi
ĠJ aguar
Ġèĳ Ĺ
ĠÎ ±
ĠB ug
S et
ĠId lib
14 8
ĠBC TC
Ġc v
ĠF ont
Ġ09 79
g est
ail and
Ġlá» ³
rus alem
gi ang
V Ã¡y
C anh
i ed
h Ãºt
OR E
Ġd im
ĠK iá»ģn
ĠG ary
ĠH ir
ĠR ank
ĠPr om
ii i
Ġ inh
ĠQu á»Ľi
h uyá»ģn
ĠBruss els
ĠS tream
ĠR ing
Ġbro chure
ĠN á»Ł
01 9
Ġd evelop
Ġå½¼ bá»ī
ÄĲ iá»ĥn
y Ãªn
ĠH áºŃn
D O
r el
ĠGi Ã³ng
ĠC iputra
Ġph uy
H OT
r ao
19 82
Reu ters
Ġac rylic
Ġjust ify
ĠG mobile
Ph Ã¡
Ġl á»īnh
Ġvin aphone
r ite
K W
Ġá»Ķ n
ĠTr Ã²n
ĠéĽ² vÃ¢n
Ġb ep
ĠKur d
ĠL á»į
ĠPan orama
k ara
Ġl á»ĭnh
ug eot
nh iá»ĩt
ĠR ick
Ġtá»ĭ t
ĠFor ce
Ġm ess
Ġr Ã¢y
Ġ á»©a
x s
M á»±c
ĠL áº¡n
Ġnh Ãłi
Ġvá»± a
oo st
ĠBa ch
Ġal so
Ġ19 1
Ä¨ NH
V al
Ġf ood
ĠMy stery
ĠBe ats
p ng
ĠÃĲ á»Ļ
d Ãłnh
ac char
at form
ĠDes ire
0 40
6 30
s top
Ġp ad
ĠthÃª nh
s Ã¡ch
et ch
ptoc urrency
Ġv Ã³
ĠBulg aria
qu áº§n
K R
Ġá» Ĵ
Ġ ãĤ
Ġngo i
ĠHil ux
C G
ĠD ora
K y
ĠB áº¿
ĠT ec
ĠÄĲ áº¶C
å¿« ä¸ī
Ġn áº¥ng
Ġ$ (
D E
Ġs witch
att a
ïģ °
Ġph Æ¡
Ġl iá»ģm
r ics
ĠPart y
r ary
29 4
= \"
K Ãªnh
Ġng áº¥n
Ġp at
âĢ¦âĢ¦ ..
M W
ĠUnivers al
ĠTh un
os amine
ĠL isa
Äĳ áº¥u
ĠNat ural
H TT
ĠèĳĹ trÆ°á»Ľc
Ġpoly ester
Ġng áº©m
ĠNew ton
Ġden im
Äĳ áº£
ĠQ S
ĠHS BC
Ġm áº§y
ĠJohn ny
ĠBr ian
Ġng áº¡n
kh áº©u
ÄĲ Ã¢u
Ġ( ...)
er ox
int uc
Tr á»Ļn
ĠC ES
ĠA st
ĠZ ebra
n en
19 47
Ġlu áº©n
Ġ18 2
Ĩl iá»ħu
Ġé¦ Ļ
l Ã´ng
Ġb á»ĩn
Ġp et
d ec
Ġä¿® tu
ĠCruz e
Ġco un
ĠK ali
ĠM SN
iv ity
ak s
ĠLH TN
s ylvania
Ġhá» ĥn
ĠV oucher
Ġpen alty
Ġgi áº¿m
ĠD t
ist ic
ĠUV A
ĠC ienco
ĠAnalyt ics
Ġkn ock
t ec
Ġr á»ĳng
ĠFU LL
N Ãºi
S am
Ġä»ĸ tha
Ġ09 84
ĠKH XH
ĠLiber ty
ch á»£
Ġh Ãªn
ĠMar sh
ĠSouth ern
b Ã¡ch
ĠB AO
ĠL áº¡ch
L oÃłi
M alaysia
Ġlá» «
Ġqu áº¹o
ĠA sean
ĠE TH
S Ã´ng
j ack
de f
ĠTH á»ĲNG
j amin
Ġ18 6
Ġè ½
ĠtÃŃ p
Ġt t
Ġy ahoo
oo s
out ique
Ġäº Ĩliá»ħu
S ch
Ġho at
ia z
ide a
ĠK Iáº¾N
ĠP AN
Ġpro duc
ĠB ing
Ġto anh
it ol
5 10
pr ise
Ġbá»ĩ ch
ip er
19 60
Ġç ¸
M Ã¹i
ĠDes ktop
ard s
ĠÐ »
Ġpl asma
ĠN á»ĵng
ĠLo u
Ġs x
ĠN in
ĠH ap
Ġd áºŃm
ustr ator
D á»¥ng
ĠP TTH
ĠF R
F ree
12 4
Ba ong
ĠL ÃŃnh
ord e
ch iáº¿u
ĠB ase
Ġj o
Ġgio Äĥng
Ġgi ft
Ġb io
r avel
Ġ20 7
IV E
R á»Ńa
ÄĲ áº¿
Ġho e
60 3
ah n
ĠTh uy
ĠA ung
d el
ĠR J
Ġbe at
Ġr ia
ĠS r
Ġcu te
Ġ28 2
ab it
0 20
Ġh ÃŃch
Ġ11 00
ĠVietNam Net
ĠN ixon
ĠV Ã²i
ph áº¥t
ph uc
ĠTB N
Ġ19 41
ĠGrand e
Ġnh uá»ĳm
Ġmá»ı m
Ġ6 36
Ġç ĸ
# #
ĠDan ang
Ġ3 99
Ġdat abase
ĠÄĲ iá»ĥu
Ġan ti
Ġ[ +
á»¢ I
fol low
Ġd áº£
Ġng á»ĳn
ed om
ĠTV B
Ġtem plate
at ilde
ĠI F
Ġplay er
Ġkh á»©a
ĠTr Äĥm
ĠB is
ĠCB NV
Ġå®¶ gia
Ġdá»¥ i
ĠG ROUP
ĠA CC
Ġl ia
it ary
Th á»£
ĠB le
G Ã³p
Ġ19 6
ĠCu á»ĵng
Ġåħī quang
Ã ĺ
tr eme
ess a
Ġph ap
ĠG ad
Ġé ĺ
Ġå¦ Ļ
Ġso und
ĠSp ider
19 5
eg o
Ġph il
ĠM R
ĠT Ã¹
Ġo zone
an tra
ib an
ng uy
ĠCh Ã¡o
ĠDam ascus
ng o
Ġblow job
C al
ĠAM OLED
ĠÄĲ ÃŃch
á»Ł m
ĠNgh á»ĭch
12 2
Ġ09 9
K ong
é «
Ġf ac
ub er
uis er
ĠMas an
× ķ
ĠT ap
H á»įa
6 20
Ġ5 80
Ðº Ð°
ĠGen er
irm ware
Ĭ ±
Ġ áºµm
ĠJ os
æ ²
ÄĲ á»ĩ
ph á»§
ĠKh an
han oi
h iá»ĩp
« m
Ġtr á»ģn
ĠÄĳÃ³ m
c á»±u
ĠS ah
ĠnhÃŃ m
Ġp u
ĠX oa
ĠDo w
ell ig
Ġè« ĸ
T axi
g ie
ĠC ase
tr Æ°á»£ng
Ġgh iá»ģn
ĠGI áº¢M
Ġgar age
ch áº¥p
00 7
k l
Äĳ iÃªn
nh iá»ĩm
ui wap
ĠAr izona
H Æ°á»Łng
Äĳ oÃłn
Ġ09 82
Ġth g
upload s
c ake
x uá»ĳng
Ġch á»Ļ
$ $
ad el
ĠK ath
Ú ©
Ġt áº¹t
ho ut
? ).
áº ²
Ġpixel s
ĠH Æ¯NG
Ġç į
ov ich
ĠÄĳá» Ł
H á»Ļ
Ġ12 80
ĠShin zo
ĠT MT
hi hi
ĠVis ual
Ġå½© ç¥ŀäºīéľ¸
ĸ tuy
ud d
d Ã²ng
Ġoff ice
Ø§ Ø
... ;
3 21
Ġåħ« bÃ¡t
Z A
ĠC ass
ĠX uá»ĳng
2 99
Ġè İ
Ġm t
ch y
} ,
Ġ0 888
ĠDo ug
Ĩl Ã½
ec rack
B áº§u
vis or
ĠRem ote
ĠI mm
ĠçĲ ĨlÃ½
a q
ÄĲ Ã³n
Ġt el
Ġh iá»ģm
Ġx Ãºm
Ġ07 88
C ola
O p
ĠK ind
Th áº¯ng
ĠTh at
IS O
7 30
Ġu Ã½
Ġstand ee
hi ro
ur umi
Ġèª ŀ
ĠW ho
ass o
ar es
press o
H R
ĠQ UYá»ĢN
l b
ĠSC TV
T áº¡
gi oi
ĠnhÃ¢ t
ĠC zech
ipp ines
ĠSá»Ĳ NG
et in
Ġxá»ī a
Ġnit Æ¡
yc in
c Ã¢n
p u
Ġx á»©c
ĠFr ed
B ang
ĠPHÃļ C
ĠKH I
ĠYe ah
Ġl Æ¡n
2 15
d ie
tr eo
is er
ĠéĽ ĸtuy
ĠMi u
ĠTow ers
Ġæ ´
ĠB ee
ĠNg oc
4 70
ph ap
ĠMS T
Ġkh em
Å Ĥ
Ġin cl
ĠMag azine
ĠY aris
ĠCH á»¨C
ĠTHá»Ĭ NH
T á»©c
a j
Tr á»«
ĠM ate
th ao
ĠTo ols
ĠO FF
s Ãłn
Ġs v
Ġr Ãºng
Ġh alogen
Ġ09 35
ĠN onstop
Ġ19 39
Ġs ign
co p
ipp on
Ð½Ñĭ Ðµ
W eth
å¿ ĥ
ĠUn ion
Ġ6 66
ĠPenn sylvania
K I
Ġg áº«u
ĠH unt
Ġå Ł
el ing
ĠUn ic
of i
Ġcl or
ĠNg á»įt
ĠN Y
V R
k ai
7 80
0 60
S EO
ĠH á»ĳ
Ġæŀ ľ
V ang
ĠçĻ ¼
ĠPH á»Ĳ
nh u
Ch inh
ĠHim alaya
Ġr á»¥c
ĠVin as
Ġdo an
OO D
0 30
Ġr uy
Ġhy brid
Ġ088 699
ĠåĪĨ pháº§n
sh ot
Ġ08 288
Dr agon
Ġtr y
ĠL ap
Ġ ........
ĠD iv
E ng
K m
nam espace
Ġä¸ Ķ
lu x
ĠS kr
ĠPl atinum
Ġ03 2565
ĠFi esta
micro soft
th umb
Ġéģ İ
ĠM áº£nh
v y
ĠC otton
ïĢ Ń
ĠGirl s
ĠH á»¡i
Ġ50 388
Ġs em
ĠAn ne
Ġh ino
Ġpol ymer
âĢ °
ik en
01 6
ot es
Ġè Ħ
ĠÄĳ ung
ed o
Ð ¡
åŃ Ĳ
) [
u j
th áº±ng
BKH CN
ĠTh eme
ĠDel uxe
N Ã©t
al ines
AL L
Ġc Ã¡ng
Ġr ight
Ġ09 19
ĠSan yo
ĠïĤ ·
v ai
ĠW P
M Hz
Ġå¦Ļ diá»ĩu
i ji
ĠHÄĲT S
ĠSerge i
ĠB ÃĢN
ĠV áº¡c
St ation
Tr uy
Ġ9 999
v ing
Ph Æ°á»£ng
Ġh atchback
ĠV á»Ĩ
s ua
od ep
ĠÄĲ uÃ´i
Ġm ass
Ġ" ,
ey ser
ĠS ug
Ġxsm b
t á»įa
Æ°á» ¡n
ĠTr ee
akh stan
Ġg Ã¡o
ĠXU ÃĤN
ĠT au
ĠAd s
Ġqu á»Ł
ĠL aminate
Tr á»¥
ĠViet GAP
ĠDong feng
ĠD Æ¡i
ĠRo om
ĸ hoáº·c
ĠÄĲ eo
ĠGabri el
ĠHon or
Ġchips et
H áº¡ng
ĠVG CS
ag ne
Ġpr es
ĠD M
ÄĲ áº·ng
M Ã£i
Ġv á»ĳi
mer ce
c Ãł
ĠR GB
ul ator
24 5
99 99
ĠSS I
ĠK ap
ĠK ans
. âĢľ
w en
u o
Ġkh á»ĥnh
Ġbus iness
Ġä¸Ķ tháº£
ĠS áº¿p
ĠS ave
Ġä¸ ĥ
ĠS amp
Ġè«ĸ luáºŃn
Ġtru áºŃt
ĠMich el
ĠK erry
Ġthá»¥ y
â ī
ĠU P
ly n
ĠHer bal
7 60
P ort
em as
ĠX A
ĠNH A
ach er
Ġ38 9
Ġl áºµng
ĠPere z
ĠOr acle
Ġk ar
em s
ĠRa fa
æľ º
ch Ã¡y
ĠK yl
Ġph áº¯t
Ġcross over
Ġr á»ĭch
.. )
tr an
h ard
ĠM XH
ĠMar itime
åĲ Ī
ur ing
Th ai
ĠMi ami
ĠM Ã³c
ĠOrgan ic
le ague
ipp le
Ġch Ã¯
ill on
! ...
Ġp ara
Ġå ĵ
ĠM IN
Ġw ater
RE E
ĠÄĲ Æ°Æ¡
ĠTr Æ°a
ĠNg ao
ĠWal ker
C ry
( *)
ĠD ip
do gan
per ial
Ġèªŀ ngá»¯
77 9
ĠL Æ°á»¡ng
ĠPh iáº¿n
ĠPH ÃĤN
IT A
Ġl á»§i
ĠL if
l Ã©
im al
th áº»
ĠNg áº£i
ĠIn cheon
ĠQu Ã¡t
^ ^
ĠR ash
Ġá»ī a
B á»ĵn
ĠP ict
ĠK áº¹o
ĠÄĳáº½ o
ĠCat al
L Ä©nh
çī ¹
B ÃģN
G el
ĠD iana
Ġcá»© t
LV H
Ġéģİ quÃ¡
ĠT á»ĥ
ĠL á»°C
v inh
áº¤ M
ĠD á»«ng
ĠDevelop ment
ĠCa esar
de hy
ĠDom in
ĠFit ness
ol is
ĠR us
ĠCH UYá»ĤN
ĠGiÃª rusalem
Ġder by
th on
ng ers
Ġ26 5
Ġph iÃª
Tr áº¡m
ĠéĢ ²
k iá»ĥu
Ġch Ã¬nh
ĠI ce
Ġf t
ĠPhan tom
Ï ģ
ĠX ANH
N á»Ńa
s am
ĠTH Iá»ĨU
ĠPl asma
g el
ĠnhÃŃ p
t em
5 30
Ġho Ã³c
Ġto y
ĠGi Äĥng
ĠÄĳ Æ£
ĠCar ter
14 4
ĠOrch id
Ġ ê
ĠT ul
b and
Ġk oi
Ġ6 80
for ce
ĠD á»įn
BC A
ant ic
ĠM organ
ĠG ent
ĠVol vo
ĠOP EC
Ġx áº¹t
Ġtr á»Ľn
Ġm Ã³p
ĠL V
ĠMon ster
Û ©
Gi áº£ng
Ġg Æ¡
ĠB á»¥ng
ĠB IM
ĠLe ave
² dá»¥c
Ġs treet
Ġå¾ ·
ĠTai wan
ĠSat an
ĠHá» ĴNG
ĠçĻ¼ phÃ¡t
ĠPV D
S uper
Ġd d
Ġ8 10
om er
Ġflag ship
ĠS Y
Ġkhu Ã¢ng
ĠB E
ĠW D
ĠTab let
Ġ á»ĳt
Tr a
Ġå¤ļ Äĳa
C AD
s d
ĠC od
B itcoin
H áº³n
9 80
en er
ĠDu áºŃt
ĠWat ford
ĠCab in
nem outh
ĠWest minster
ĠNg á»±c
ĠTH EO
T ime
ĠAlex is
Ġs top
ĠPH áºłM
Ġáº ¾
¥c Ãº
Ġco ol
Ġs Ã©c
op ia
ĠTRá»Į NG
7 90
Ġåı ¥cÃº
ph uong
ĠAss ist
s burg
s plit
Ġv Ã³t
Ġsu it
m and
ome z
ĠDisco very
ĠPep si
v iÃªm
Ġp os
12 1
ad at
ens or
ĠG á»£i
Ġ26 8
6 40
ĠCR M
ĠCh á»«ng
Ġo h
Cafe Land
Ġå¦ Ħ
Ð°ÑĤ ÑĮ
Ġ: -
ĠLat itude
Ġma xi
ãĥ ĥ
Ġh ap
Ġgi Å©a
ĠÄĲ iÃªn
s áº¡ch
N E
land s
s te
ĠG OL
ĠÄĲ áº¯p
ĠX Ã´i
ï¼ ī
Ġé« Ķ
28 5
l ate
Ġcu ong
T ok
ĠD F
A t
ĠAl ger
ĠP ence
Ġnh Ã³
ĠÄĲ áº¡p
File d
S ky
ĠTr Ãº
ch uyen
Ġf ind
Viet tel
G Ã¢y
L uyá»ĩn
l á»Ļt
ĠK g
ĠI DC
eb r
18 9
ĠTR Iá»ĤN
ĠÄĳá»± Æ¡c
ĠXo ay
ĠChá»£ t
ÐµÐ» ÑĮ
ĠP izza
ĠInter con
ĠEver on
Ġg mail
ĠH art
09 0
Ġnh á»Ļng
Ch im
ĠPH ONG
F ull
t á»ĳ
Ġth áº©n
Ġs á»Ľ
Ġgolf er
ut athi
Ġx uat
S m
ĠPh áº¥t
Ġp i
Ġå¦Ħ vá»įng
oc al
9 20
è ĩ
i am
Ġ à¸
Ġng áº¯c
Ch anh
][ /
ĠDo ctor
ĠæĪ ĸhoáº·c
ĠX oan
áºł Y
ĠAth ena
ĠNo Ã£n
ĠL ÃĬ
ĠDa e
Ġpic nic
ĠTIáº¾ N
Ġp ur
ĠVin school
V áº£i
Ġkh áº¡c
ĠçĽ¸ tÆ°á»Ľng
Ġcu st
19 8
á»Ł ng
ĠJ osh
te en
Ġtr ig
ĠV as
01 8
X Æ°a
Ġcu r
ĠTeh ran
Baong hean
p on
ay roi
ĠC ord
E co
Ġé«Ķ thá»ĥ
Ġl Ã¨
S Ã¡u
ngh iÃªm
og n
ĠFin ancial
Ġth ink
7 70
åħ ¬
P O
ĠP O
land o
ĠLi u
ĠCh ocolate
Ġdet ox
Ġ22 1
Ġéļ ¨
N ov
en pick
ä¸ ĭ
ĠX R
ĠIsa ac
6 88
è ¨
Ġthi ng
ĠÃĲ áº¥ng
Ng uy
ĠBl anc
C á»Ń
ĠVIN A
ĠTI ÃĬU
g gy
Äĳ Æ°a
Ġs á»ı
ĠSc reen
rem ix
ĠB ond
Ġch á»Ļt
ag or
Ġt Ã¨
ĠJ ason
ĠHO ÃĢN
CH I
o on
tr á»Ł
ty pe
m au
ĠTr á»Ļm
ĠHuy ndai
ĠFr esh
ĠVIET NAM
ir th
ĠAl ban
ĠbiÃª t
P a
th uat
ID IA
ath u
Ġh áº¡p
ĠT AY
Äĳ an
M iá»ģn
v ong
ī cá»Ń
Ġâī ¤
ĠR ho
ĠHo c
ather ine
Ġf oot
Ġl áº¡ch
j ar
ÃŃ c
Ġ: "
æ¸ ¯
H ang
Ġh im
âĢľ âĢ¦
ĠEl antra
ĠB eck
ĠAd r
â Ķ
Ph áº¥n
ĠTal ent
19 2
N uÃ´i
Ġ4 70
Ġtrá»ĭ nh
ĠViet Jet
Sai gon
ĠSub aru
Ġtr áºŃp
ĠÄĲ ÄĲ
Ġngh iá»ħm
ĠIM F
ĠT et
ĠÂ» ,
oo per
ĠN Ã¢u
Ġåı Ĭ
thu áºŃn
Ġaf ter
ĠP ublic
ĠR ot
ĠS ide
ĠJ erry
Ġáº¢ NH
ĠMac au
j ust
ĠY es
Ġch Ã¡c
ĠthÆ¡ ng
kh ong
ĠViÃª t
Ġv ector
tr ick
ĠÄĲ áº«n
ĠNG á»ĮC
ĠAm ply
Ġam azon
Ġm ak
ĠSel ena
ĠTop az
Q C
Ġm id
13 7
14 9
Ġéļ¨ tÃ¹y
is free
ĠEm man
ĠW omen
19 86
Ġt Ã¢ng
Ġèģ ²
in st
Kh áº¯c
ĠUE H
ĠS ep
ĠSiem ens
ĠÄĲH SP
ĠCat alog
Ġc áº¡ch
Ġç ģ
ĠJu ve
ĠT ank
ĠAc cord
6 10
T em
ĠK as
ĠD ah
ĠLuc as
ĠS áº§u
ip al
ph ÃŃ
Ġch uy
ĠMich igan
ĠM am
Cont ent
. âĢĿ.
ĠT á»ĩ
Ġto ang
ĠCont ainer
iss ot
our s
å® ¶
H Ã²n
Ġhá»Ľ p
Ġp or
ĠAsp ire
ĠB ey
Ġo il
av in
ĠH Ã¡ch
ĠmÃŃ m
ĠB LÄĲ
áºª U
ĠCh Ã¬a
h z
ĠM áº§u
ĠBh utan
eo l
S ung
as ed
a ff
S M
ĠéĤ Ħ
ĠAngel ina
ĠPe ugeot
ĠF ield
Ġåįĥ thiÃªn
R ed
ĠC á»¨
Ġol ive
ĠcÃ³ t
N i
ĠC oop
tr á»Ŀi
OR T
tr uong
ĠRob usta
pro duct
3 75
15 2
Ã¼ r
Ġs Ã¢
Ġs rc
ĠP eople
ĠÃĲ á»ĭnh
AM E
Kho ai
ĠL Ãµi
Ġm uá»ĳt
ĠP on
Ġcon cert
ĠOn t
5 40
Ġqu Ã¡nh
Ġv ote
ĠMc Donald
int endo
âĸĪ âĸĪ
ĠMid d
b Ã©
v d
Ġr áº·n
ĠX áº£
22 9
Ġnh á»¥y
Ġnick name
Ġch lor
Ġ09 77
ĠBen jamin
Ġ19 4
ĠOrig inal
Ġp vc
ĠåıĬ cáºŃp
U ZU
ĠV ime
ĠAn alog
ĠK BNN
B á»ģ
Ġh ad
ĠQu Ã¢
Ġå Ĥ
Î µ
ĠPh á»ıng
Ġal ign
Ġasp irin
Ġb h
CS XH
f alse
Ġhá» £i
ĠMill enn
pert ies
ĠMich elle
Ġd iáº¿m
ĠL L
ĠX Ã¡m
M ag
act ive
Ġel astin
So ft
Ġr áº¡o
ĠMod ule
Ġs á»įt
ãģ į
m el
ĠD á»ĭp
T á»ĳng
ĠDS LR
Ġb onsai
ĠL áº©u
ĠA NT
ĠH Cl
ĠTho Ã¡i
ĠR ex
ĠMald ives
ĠD mit
ĠCH QS
ĠR FA
U D
« h
Ġsne aker
Ġf utsal
ĠC I
tr ict
ĠSt yl
âĢĿ ),
nh á»Ľ
ĠÄĲ iá»ĩu
C AM
q q
A W
ĠS GD
ĠATV S
ĠF lex
ĠW EF
Ġz en
b ell
t ab
Ġh s
Ġb áº£nh
Ġ30 2
ist s
16 6
st ick
Ġsoc ial
ĠQu in
thu Ãª
Ġph Æ°Æ¡
ile y
ĠéĤĦ hoÃłn
ĠG omez
qu id
su it
ĠL á»±u
14 1
scr ibe
Ġnh á»Ń
Ġèģ ĸ
Ġm Ã²i
ĠhÃ² an
---- --
ĠEd itor
ov ern
ĠH au
t áº¡ng
Ġkh ua
* ,
áº¬ U
x áº¥u
ĠC ebu
Ġïģ °
d áº§u
ĠMon tre
ĠS ac
ĠG Ãµ
Ġ6 25
ĠEb ola
ĠN em
ĠKen ya
Ġ98 1
Ġr á»©a
ĠB AN
Ġè Ĺı
K o
Ġs dt
ĠH ur
© ¬
ĠAg u
C Ã¡t
ĠBurn ley
L en
Ġ19 42
") [
z el
Ġm er
ĠVin cent
Ġçķ °
ĠB ose
Ġæ Ĭ
ĠKy ung
u ary
N Ãło
raz y
Ġcr Ã´m
Ġå¢ ĥ
Ġchi eu
AL O
ÑĢ Ñĥ
Ù ģ
ĠS top
Ġgame play
ĠP and
ĠK ab
ĠÃĤ M
ĠL á»¥a
Ġ7 68
Ġâ Ĺ
ÄĲ á»£i
P DF
Ġl uat
ĠLaz io
Ġè½ ī
Ġth Å©ng
epp el
8 60
Ġbu r
ĠFin al
ĠC Ã³c
b ow
Ġ19 44
ĠMur ray
ĠIbrahim ovic
ĠâĿ ¤
ĠL eb
ïĢ ©
Ġå¡ µ
ĠVI D
m os
Ġs áº¿n
ĠC ub
,... )
r ence
ĠE ti
Ġam i
z alo
ĠS Ãªnh
Ġd á»Ńng
ĠTim or
ĠH Ã²
00 4
Ch elsea
Ġå §
ĠN á»®
ĠFin als
Ġh ÃŃp
ĠK el
ĠBig C
ĠS ara
B inh
Äĳ á»Ŀi
38 6
19 67
AT ION
ens is
Ġç¥ ĸ
ĠB áº¡i
ĠHo Ã¡n
Ġw ed
ĠÄĲá»Ĭ A
el son
le ct
LV T
ud ential
Ġf ly
å¸ Ĥ
y ou
ĠS á»Ľm
am el
Ġïĥ ¯
ĠP ao
Ġven eer
ĠM iz
u th
Ġtr uÃ¢n
ĠUl timate
é ¦
h inh
ĠPar agon
he el
Ġis uzu
P er
sen al
qu ir
ĠQu anh
ear ning
D avid
Ġx oi
yo ung
ĠBour nemouth
Ġå Ŀ
Ġæ¬ ²dá»¥c
ĠJ P
Ġst ore
Ġth Ãło
c Å©
Ġå¢ĥ cáº£nh
ĠÄĲ ÆłN
ĠPH á»¤C
ãģ ĵ
¡ thá»©
s q
ĠB á»įc
00 01
ĠT áº»
14 2
So fa
D el
ĠTN R
ĠCon cept
A BC
M Å©i
å Ĵ
Ġé ľ
Ġå¡µ tráº§n
ph Ã³ng
ĠE cos
ĠO re
19 65
ĠS AT
KV A
Ġçķ° dá»ĭ
Th Ã³i
ĠT Ãłn
ai do
5 01
Ġhá»¥ c
m á»ģm
ĠB áº¯p
ĠS Æ°u
b Äĥng
S á»©
ush ima
N áº¡n
K i
ĠT áº¶NG
gi Æ°á»Ŀng
Ġæ¥ Ń
ĠGS M
ĠJ ersey
Ġl Ã¹
ĠPrin ce
Tr ail
Â ¹
ĠY O
ĠCÄĲ CS
8 10
od ium
ĠÄĲ Ãĥ
ĠNH áº¬P
Ġad apter
ĠHU D
L á»ĳi
ĠLan c
Ġn umber
ĠB áº§n
Ġéĸ ĵ
n ew
ĠH CÄĲ
Ġx á»Ł
C Æ¡m
L ee
22 1
30 3
Ġhel p
ro t
ĠET F
z on
ĠS iber
ĠLang uage
Ð°Ð» ÑĮ
Ġ21 4
Ġch am
ĠR áº±ng
qu Ã¡i
ĠD rop
ĠDO JI
ĠAss ad
Ġ23 2
ĠBÄĲ BP
Ġth Ã¡
ĠM áº¯c
ĠX Ã¡ch
Ġc y
AR A
ĠQL DA
thi et
iff el
ĠC Æ°ng
Ġc Æ°á»Ŀm
ch au
ĠU ser
ĠBo ard
6 78
M ark
ĠAp ollo
ĠT ien
S UNG
Ġgia c
th á»ĳng
¢ kÃ½
ĠK á»²
ãĥ «
Ġ! âĢĿ
Ġn m
CO N
å¼Ģ å¥ĸ
A uto
Ġthá»į c
é Ĺ
ed s
s uy
23 8
äº Ĩ
Ġç¥ĸ tá»ķ
ĠS ix
Ġpl an
áº ´
5 80
ĠHam burg
it ive
is i
Ġç« ĭ
ĠDav is
H E
Ġæī ĭ
h ua
ĠK Iá»ĨN
ÂŃ ÂŃ
Ġmix er
ĠGel ex
it in
ĠF O
Ġri u
ĠVIá»Ĩ N
ĠHÄĲT V
8 40
ĠSa ch
ĠAb raham
cl ass
th á»ĭt
Ġ09 87
ith at
A Bank
H GÄĲ
âŀ ¡
X a
Ġå¾· Äĳá»©c
; &
B ack
s á»ĳt
ĠÄĲ C
amil ton
ĠD á»¤C
ĠBenz ema
Î ½
ĠMua ban
ĠSel ect
ĠC AN
Ġmicro SD
â ķ
áº ¼
30 8
ĠMatt is
av ia
sp ace
ĠQU áº¢NG
Ġ3 45
U A
N ote
20 6
Ð ŀ
ĠF eb
Ġs Äĳt
Ġè½ī chuyá»ĥn
ĠÄĲá» Ķ
itex co
l áº¡
Ġé ķ·
======== ========
16 9
t est
ĠK áº½m
Ġli oa
) ",
id en
K TS
ĠNa OH
ĠBlack berry
M ich
Ġr Ã©o
ip le
Ĩ Äĳ
âĢĻ -
nh i
IN O
ĠS J
IF I
Ġs Ãª
ĠTh ailand
æľ ¬
CN TT
ĠOhi o
Ð¾Ð» ÑĮ
é« ĺ
Ġæ¥Ń nghiá»ĩp
ĠL á»ľI
Ø§ ÙĨ
ĠE ffect
ĠæĹ ¢kÃ½
Ġsand wich
Ġ09 43
ĠĠ Ġ
ĠAr thur
ĠUni qlo
Ġlo unge
ĠVL XD
ĠCro wn
ĠChristo pher
Ġa way
ĠKit ty
ĠXX I
pr ing
ĠP ir
blog spot
ĠÄĲ áºłO
ph on
ĠNh Ã©
Ġè ·
ĠFor est
ul ich
å¤© å¤©
ĠCTC K
h iá»ĥn
m á»¹
ĠA vent
Ġx n
ĠN U
ĠNic olas
2 11
Å© y
ĠEuro pe
ĠFern ando
ĠTao bao
ĠEner gy
Ġ8 40
M áº¡c
Ġph uá»Ļc
åĲ Ĺ
m obi
ĠTh under
15 00
full and
K M
ĠÄĳ áºŃn
Ġph ui
N á»ĳi
ess ion
C Ãº
qu i
ĠCh au
ĠKh á»Ľp
ĠNh áº¥p
ĠY uk
Ġç Į
K Y
Ġr Æ°Æ¡ng
ĠB ird
ĠCh Ã¬
ĠK C
Ġho ney
ĠåĲ Ī
ĠN FC
ĠM ol
Des ign
ĠR ey
ĠC Ãºng
Äĳ Ã¬nh
Ġv áº¡c
ĠM bps
L á»Ļc
ĠN ana
ĠÄĳá» £
ĠPro duct
phen ol
áº² NG
Ġæ¸ ħ
ĠÄĳ Ã¬a
ĠAU D
ĠK ard
st and
ĠÄĲ A
ĠHo e
20 7
] ]
Ġcont act
Â ¥
ĠTh á»Ł
ĠE PA
Ġw ell
Ġm oto
ĠLu Ã¢
asu ke
Ġè ¾
J o
V a
ĠR Ãł
ĠKho Ã¡
(" -
ĠKh Ã³i
ĠX M
cua dor
Ġtr Æ°á»Ŀn
N á»¥
ĠÄĲ á»ĲI
á» Ħ
Iáº¾ U
ĠnghiÃª p
ĠçĶ ±
Ġg ot
Ġthu Ã´n
ĠDora emon
Xi aomi
T á»ıi
U TC
ng á»ĵi
ĠKaz akhstan
ĠGet ty
s um
ĠÃ ĺ
Ġphu ong
ĠNg áº¯n
33 9
ĠCout inho
ĠCh erry
ĠR ah
Ġco c
ĠD P
ĠF ol
Ġch á»ĭch
ino is
ĠÐ¾ ÑĤ
Ġc itr
p ass
Ġpost date
in er
19 76
b ike
ª t
ĠSl am
30 2
Ġl áº¯t
Ġx uyáº¿t
Ġnu Ã´ng
5 90
che ng
ĠMet al
("- ")[
Ġch eo
17 8
ĠK DL
d áº¡y
Ġr Ä©
thu oc
f un
ĠphÃ¹ n
eth ane
ĠS Ã¡p
ĠF ix
b ase
Ġpan asonic
ĠÄĲCS VN
B ig
Ġá»¨ c
ĠTh á»ĳt
Ġâ ĩ
Ġfl an
ĠFran co
ĠStan ley
ĠH á»ħ
Ġp rom
ĠK Ã¨o
eth ao
ĠK ool
ĠthÆ°á»Ŀng g
ĠZ hang
ĠAc cent
2 18
ĠW is
ĠL INH
h áº¡ng
ĠI ng
ank a
Ð Ĳ
ĠéĢ² tiáº¿n
Ġk a
b áºŃt
ph áº©m
Ġg Ã¡
de al
Ġæĩī Æ°ng
Ġr Ã²i
ĠCh á»©a
24 6
rid ge
ĠIns ider
Ġn tn
ĠHÄĲ LÄĲ
ĠIntercon tinental
K Q
or es
Ġâ Ħ¢
ĠTh ÃŃnh
ĠChal leng
ott om
ĠPhot ocopy
Ġ ÑģÑĤ
ĠO d
ĠSal a
T áº¯m
ĠB á»Ļc
ĠLink s
H á»¡i
ĠM Äĥ
ĠM atch
ut es
f il
k W
Ġas us
ĠBudd ha
Ġç«ĭ láºŃp
Ġ07 626
ĠTuc son
ĠR Ã¨n
ĠHar m
ĠCap t
Ġä¾ Ĩ
nh ac
ĠC ac
ĠPl ac
b á»ķ
17 9
ĠLeon ardo
19 85
Ġh al
ĠT ennis
Ġqu áº©y
Ġn á»ı
Ġx áº¡c
ch eck
Ġlact ic
ĠI con
utathi one
k ul
ĠF ried
Ġbo ots
Ġit s
ĠSm all
Ġmin ibar
g áº·p
Em ail
ĠG au
ke i
68 9
ĠCh urch
Ġkh Æ°Æ¡ng
ĠEti had
ĠTr á»«ng
ĠF und
ĠLM HT
ĠEmman uel
ĠV J
Ġèģĸ thÃ¡nh
B Ã´ng
t ap
Ġr ÃŃu
g Ã¡i
Ġc Ã¹m
vers e
ĠEm erald
ĠG Äĥng
ĠPh Ã¡c
yl ene
Ġ28 5
and i
áº® P
ĠTP CN
d á»¥
ĠTh inh
AS EAN
ĠH AI
ĠB iz
á»ª NG
B ong
le e
ent ina
ĠMan s
ĠPap ua
Ġly m
Ġ( *
er g
28 6
åŃ ¦
orde aux
Ġä¸ĥ tháº¥t
Ġe ar
Ġïĥ ŀ
ĠAgu ero
Ãī P
ĠVin ashin
Th Ãº
Ġvn d
ĠV áº¬T
j s
Ġk W
M Ã´ng
Ġt ips
Ġb eo
ĠVIE TT
iff any
p re
ĠArab ica
ĠSh ort
ĠCh á»Ń
Ġæ¬ ¡thá»©
ĠBe eline
R oom
ol m
ph á»ķ
EO N
Ġth ÃŃt
ĠL ives
ĠL á»£n
Ġ4 90
ĠÄĳ Æ¡m
Ġp ublic
ĠT ÃĤY
id ge
ĠRob in
ĠCÃģ O
ĠSN SD
ĠN áº·c
ÑĤ Ð¾
Ð¸Ð ·
ĠF il
19 20
th al
30 9
ire ct
Ġä» ¤
And roid
ĠInvest ment
Ãļ NG
d áº¥u
Ġp ap
Ġè£ ı
CTC P
ch Ã¡u
ÄĲ an
ĠGI AN
ĠTh Æ°Æ¡
Äĳ á»§
Ġngo áº±n
Ġs ac
D ep
Ġs elen
ĠGu inea
Ġed ge
st ation
ĠN EW
ĠN X
Ġæŀľ quáº£
Ġth Ã³p
ãĢ Į
ĠTh Ãªu
ink i
Ġth Ã¯
ĠG lo
Ġtr ue
ĠAg oda
% ...
Ġh um
Ġgiá» ¥
ĠK ro
ĠPh at
ĠIn tr
C áº§m
ĠCá»« u
C AO
gi es
ĠçĶ± do
h ao
ĠN áº¿p
ĠE iffel
ne ider
æĹ¶ æĹ¶å½©
ĠR at
Tr Æ°Æ¡
ĠKh Ã³c
ĠFu coidan
l á»Ľn
ĠPoly ester
Ġt wo
ĠS Æ¯
eb e
19 66
ud i
Ġl Ãµa
D inh
p lex
ĠKho áº£nh
ĠEx change
d ich
IG HT
E uro
Ġm Æ¡i
Ġf ound
ĠTH Æł
Ġ19 43
ĠCh Ã¹m
C Äĥng
ĠT áº¢I
nh h
ĠJ ew
Ġm Ãµm
am ax
Ġster eo
l is
m al
Ìģ :
20 9
F X
ĠTravel us
ĠOpt ions
t Ãª
ĠTh Ãł
ĠR Æ¡i
ĠBi eber
ishi ng
Ġwo uld
Ġel ect
ab ook
H Ã´
AT GT
áº¤ y
ĠOnt ario
L U
ĠHat eco
ĠèŃ ī
Ġè£ı lÃ½
ĠTal iban
ĠV ung
ĠÐ ł
á» ĴNG
ĠDi ode
M s
Ġtr áº±n
ont um
t áº¯t
ĠC EN
Th Æ°á»Łng
ĠQL TT
Ġtab le
ĠMe izu
ĠRash ford
Ġfl avonoid
Ġnh Ãłnh
ĠP ig
ĠCr ack
Ġk on
00 8
Ġma ch
le ic
2 16
t Ãºi
ul ose
Ġex p
Ġä»¤ linh
ĠN intendo
Th á»ıa
18 6
ĠSam uel
at ur
Ã «
ann i
( );
ĠMil k
Ġe ver
å ¦
ĠM Y
ĠAd sense
ĠGi Æ¡
ob ic
bun tu
p art
ch or
Ġf ire
D Æ°a
Ġä¾Ĩ Lai
ro a
ĠIS UZU
ĠSent osa
ĠON E
H ack
ĠN ippon
45 5
ub ota
x áº£
ĠL á»¢I
' ).
ĠâĢ¦ âĢ¦
ĠKe angnam
ĠC á»§ng
£ h
ĠTr Æ°á»£t
ini um
xx xx
Ġng áº¡nh
b Æ°á»Ľc
ĠK amp
ĠÄ ĤN
Ġr Ã³c
ĠEd u
Ġéĩĳ kim
ĠTal es
ĠSON Y
ĠA ero
âĸ ¬
V ay
Ġh ic
C AR
ĠS ell
Ġéĸĵ gian
Ġtr iá»ħn
ĠBill board
ĠNV IDIA
ĠV ac
ĠçĻ ¾
Ġ21 3
ĠG Ãłnh
19 74
sch emas
h áº§u
ĠC NH
c áº·p
å® ĺ
ul u
enz o
ĠL ook
ĠÂ ¼
ĠSe ag
ĠAf ter
ĠK ol
ĠD UY
ĠèŃī chá»©ng
l av
ĠR outer
ĠE Z
ĠB au
Ġsec ond
ĠTR A
ĠGod s
ĠB áº®C
ĠK ung
ÄĲ áº¥u
B á»ī
ĩ cÃ¡
Ġv Æ°á»£n
Ġd iÃªu
es te
ĠG MP
B Ã¡ch
ĠSter ling
ĠRac ing
h in
Ġb im
ic one
ĠSam urai
ĠFo am
ĠH iáº¿m
ID E
ĠIP v
Thu áºŃt
cl ick
ept ember
Ġcho áº¡ng
ÄĲ em
Ġç® ĩcÃ¡
Ġtr eble
ĠTho áº¡t
$ ,
Th Ã©p
x Ã¡c
ĠApr il
ĠMach ine
W P
Ġth ep
ĠCo upe
TV I
ĠPh Ã¬
Ġqu áº«n
á»ī u
ĠSy n
B lock
ĠSh u
ĠG E
og ue
Ġtr á»įi
Ġx ingfa
ĠB od
Ġnh á»¯
Ġ5 10
ĠCh áº£o
Ġvi e
Hu á»³nh
Ġqu Ã¨
ÄĲ Ãłm
Gi Ã³
ĠLe go
ĠMoham ed
h á»ĵng
23 9
Ġph áº©u
ĠÃĲ a
Ġ? .
ĠCh un
ĠF act
ĠY oshi
Äĳ áº§y
Tim es
æ ±
ĠR B
Ġ Ìģ
ĠMin zy
ĠW ap
33 33
0000 00
Ġkh áºŃp
Ġ01 6
ĠæŃ »
å ī
Ġg áº¡n
ĠG LC
K O
N e
ĠR áº±m
oa ch
ĠVin alines
ĠMoon light
ĠS ee
ĠDom ain
b Ã¢y
ĠFr om
25 8
Ġéĩ į
ĠC art
ĠMar cus
Ġnh áº©y
Ġlink s
ĠZ ippo
x ay
qu are
ĠE H
ĠIm perial
ĨÄĳ Ã£n
ĠL Æ¡
Æ¯á» ł
en os
US A
ĠDo ve
25 2
ĠDe ath
E CH
man i
ĠB Ã³
ill us
Ġå® ī
æ³ ķ
Ġ23 9
ĠBright on
æ Ķ
æ Ľ
Ġra ck
ĠTh iáº¿n
ÑĢ Ð°
sai gon
ĠK TX
ĠX Ã¬
Ġéĩ ĭ
Ġ22 9
Ch áº£
row ser
ĠÆ¯ U
ĠXK LÄĲ
ĠElectron ics
Ġr Ãºc
ĠN PH
Æ£ Æ¡ng
Ġk ich
ĠHO áºłT
Ġhard core
Ġg á»Ł
15 1
ĠTh áº£
ĠE cuador
å° ı
acet amol
is en
Ġy ears
Äĳ á»īnh
ĠÐ Ŀ
B áºŃt
ĠLu ke
H iÃª
Ġr ich
ĠTr Ä©
ĠGi ay
D ell
ĠV s
fr ac
ĠB itexco
Ch á»Ĺ
Ġ22 6
ç Ī
ĠE Q
Ġap pl
ĠSud an
Chu á»Ĺi
um n
ff y
pl ete
ĠDV B
ig ital
ĠAll en
Ġr áº£o
ĠBon i
VP CP
ĠLO áºłI
ĠB rah
it hout
Th áº¥u
z os
ĠCh áºŃm
Ġh Ã¨m
ĠTo an
ab en
Ġä½ ĨÄĳÃ£n
Ġ3 35
Ġr ÃŃch
Ġr ua
Ġre f
h el
Ġm ost
Ï Ħ
m d
tr etho
Ġag ain
n Ã´
Ġc Æ¡i
Ġnháº¹ t
ĠD anny
ĠKh uyÃªn
le ans
ĠH amilton
z ig
ĠVi enna
ĠE A
p ack
á ŀ
ĠS lo
ĠPhÃŃ m
Äĳ á»ĳt
Ġæ Ł
ĠTM S
h Ã´m
ĠR ow
ĠU áº©n
Ġéł Ī
Ng Äĥn
Ġk en
ĠEl on
ĠngÆ° Ã²i
ĠAP P
ĠW E
º thá»ĭ
ĠD ate
ĠOr lando
ĠT su
Ġc ot
qu ay
Ġan ten
ĠCat alan
ile ver
ĠD au
ng Ã£
ĠFl am
ĠR ach
ĠBat man
ĠJav ascript
00 6
ad es
Ġn áº¡m
Ġd pi
ÄĲ á»ĩm
w ide
th ic
ĠCath ay
Z E
ch ua
ig i
ĠSwan sea
ĠåĲĪ há»£p
ĠB CÄĲ
ĠHo kk
ĠVime fulland
ĠEco Sport
end ing
Ġ22 8
Ġt ank
ĠM ind
ĠClin ic
Ġb á»ĳng
ug r
H iá»ĥn
g ester
P ar
Ġç ł´
oc a
t Æ°á»£ng
in ol
ĠE LL
â Ĥ¬
ĠSy m
ĠM ÃŃt
ac in
th Ã´i
ter est
ail able
ĠB ra
ĠæĤ Ł
I ND
Ġh au
Ġpl astic
el u
Ġm ult
ĠOpt oma
c as
Ġá» ¶
b anh
ĠCar ina
ĠDuc ati
ĠF one
ĠSing le
ĠèĹı táº¡ng
M ÃģY
V u
ON IC
ĠG rey
ĠI B
. *
Ġr ank
ĠH CB
ĠB s
Æ¯ A
ĠèĪ īcá»Ń
IM E
ail break
Ġ35 5
t iá»ĩn
ĠH ib
to an
FO NT
Ġæı Ĳ
ĠK eppel
Ġp le
Ġp ack
ĠAd el
ĠCar ib
ĠæŃ» tá»Ń
66 5
é ĺ
im edia
H Ãłi
H Ã¹ng
od ge
ĠKn ight
×ķ ×
Ġæ¸ħ thanh
M ade
Ġh Ãºp
per ience
k us
Ġch erry
Ġ- ...
ĠR á»ħ
m id
he he
Ġ35 00
Ġx iá»ģng
u ce
Ġnh áº£n
ĠEr dogan
ĠT err
ĠH á»ĳi
âľ ĵ
Ġte aser
Ġnh oÃłi
ĠC áº¯m
ĠÄĲ áº¡n
ĠX ML
Ġtr Æ°á»£c
ĠæĤŁ ngá»Ļ
ĠCharm ington
Ġká»ĩ ch
ÃĪ N
ĠL á»¤C
ĠPH áº¢I
s is
ĠShin ichi
m áº¡nh
b ody
ĠG eyser
Ġ9 25
15 3
ÐµÐ ³
æ° ´
ĠMov enpick
°Äĳ Ã¡o
ĠK PI
ãĥ ©
lam y
ĠColle ction
Ġph osph
Ġ27 9
aur ant
Ġch Ãłnh
ĠÄĲ Ä©nh
ĠKh áº¿
Ġm s
ĠM MO
Ġè ®
R ad
R eview
y r
ĠM ED
ĠM Ãĥ
Ar senal
² ¾
ill in
ĠInd ustr
Ġ[+ ]
eo r
kh á»ĳi
Ġk ing
v s
ĠÄĳ Ã¡c
9 88
ĠM AY
ĠNH Æ¯
ĠStar s
Chu á»Ļt
ig en
TO P
A b
!!!! !!!!
B E
16 7
ĠSpir ulina
ĠåĪ °ÄĳÃ¡o
ĠC á»ĵ
e en
ĠM Hz
ĠR al
Ġph ang
Ġ19 38
Ġnh áº¡i
sp ital
æĸ ¹
ë ĭ
áº¾ P
Ġ Ñį
Ġo c
ĠÄĳ Ã¡u
á»° A
Ġr Æ°á»Łi
es to
ĠÂ Ń
ina wa
Ġåı ¤
ĠPass port
Ø ´
NV V
Ġl Ãº
Ġx Æ¡i
eg ui
b ull
Ġqu áº±n
H V
Ġçİĭ vÆ°Æ¡ng
M iáº¿ng
ĠÄĲ ÃĶ
Ġcook ies
Ġ09 72
c g
Ġp ick
ĠC TV
50 2
Ġis o
ĠNS T
ĠT issot
th Ãº
15 6
F R
c uá»ĳi
ĠMor ata
ĠADS L
: .
H L
if l
ĠPark er
ĠPh uong
Ġbe auty
nu oc
ĠW idget
P an
Ġx á»Ļc
ĠU X
Ġs apa
Ġleg ging
ĠTHU ÃĬ
K CN
Ġt ele
ĠB áº¤T
n ar
Å ¡
ĠMi G
Ġlo e
Ġ ethanol
ĠDN NVV
Î ¼
Ġåħ Ī
Ð½Ñĭ Ð¹
ĠTá»ķ n
ĠAu thor
aa aa
ĠNav ara
Ġch á»£p
ph yl
ĠSai Gon
ĠSch ol
cd n
F ood
j aya
Ġx Ãµa
{ {
Ġ23 6
j k
Æ ¬
Ġg all
op ro
ĠSh aw
ĠOcean Bank
Ġk iá»ģng
ĠL ag
L iá»ħu
Ġf o
ĠPhil adel
tu á»ĩ
Ġ< /
ĠRep ublic
enn y
it em
ĠMount ain
L uc
Ġd Ãºi
Ġ[ "
n ull
t ro
æ ´
ĠN ine
ac a
Ġçł´ phÃ¡
ĠC G
ĠTr Ã¹
i esta
Ġthá»§ a
T Y
Ù Ĥ
oy o
N B
Ch ar
Äĳ Ãłm
ĠEn rique
ĠmÅ© m
n ot
ĠTh s
ÄĲ Ã¬nh
ĠCHU áº¨N
ĠZ one
Ġ09 81
ĠÐ½ Ðµ
ĠBr ent
ĠIm ages
ĠBas ic
ĠAlger ia
ĠÄĲ á»ĳ
ĠJ S
19 80
vn league
TN O
ĠTHá»¦ Y
ĠH AN
ĠCon stant
t á»ĭch
ui l
ĠM ÃĶN
B en
qu at
ĠH AC
ĠSAM SUNG
ĠSir i
ĠHa e
Ġæ µ·
ĠngÃ² ai
ĠV E
R á»Ŀi
ĠthÆ° c
ĠT erry
AG E
ap ark
ĠJ ob
ul i
27 9
ĠGar ena
ĠSto ke
X áº¿p
ĠTr ack
ng á»§
ĠKh áº£m
B iá»ĩn
Rem ix
ĠCh er
Th á»īnh
Kh á»ķ
Ġc entral
th uong
xy nos
he ight
ĠçĻ ½
S ec
h uong
ĠM ÃŃa
J ack
Ġvá» £i
Ġ Æ°á»¡n
Ġgiá»¥ a
TC H
Ġth Ã²ng
ĠV im
18 1
ĠSh adow
ĠBac carat
ĠB ry
im ation
Ġgi en
ĠR ams
ĠW riting
d l
ĠPau lo
Ġ19 36
TC HQ
L OR
b sp
ĠS tein
cl ip
ĠBas el
ĠKh al
Ġ9 80
Ġéģĵ ÄĲáº¡o
f ish
n Ã´ng
ĠW o
D á»¯
it ton
Ġ24 4
yc le
Ġng Ã¡o
Ð¾Ð ¿
d áº¡ng
T á»ī
ĠLen in
M at
æ ĥ
ĠM á»µ
ĠQu Ã£ng
28 9
ĠSol o
å ĳ
Ġlo cal
imb ab
ĠL PG
ĠAk ira
ĠCh Ã¢
dong san
Ġ3 38
44 4
m oney
in ar
B it
Ġo a
Ġ24 9
14 7
ĠB á»ĨNH
ant i
ugr ave
ĠPhiladel phia
: (
M b
Ġc ome
ĠS AI
ĠY uri
Ġ30 8
ĠSen se
3 45
ĠâĢ Ļ
Ġcá»¥ p
h iá»ĥu
ĠL m
ent ino
ĠSol id
- "
ĠR Æ¡
ĠPor to
Ġ3 19
Ġmu oi
N L
ĠK obe
ĠMu Ã´n
ĠB Ã³i
th á»ķ
Ġb ina
Ġ29 5
Ġopt im
P K
ĠG iáº¿ng
Ġr ai
Ġo wn
33 8
ĠÄĳá»į t
o ther
ĠS AN
ad dy
Ġbu á»Ļt
Ġç¥ ŀ
ĠCour t
ood y
pl ace
Ind onesia
Ġé ¾
ĠN á»Ĺ
ĠZ ombie
ĠAN Z
ĠT áº¥u
Ġnh áº£nh
Ġthi ch
Ġ ago
is te
us er
ĠA W
Äĳ á»ı
ĠJim my
ĠD UNG
ht m
IS S
à¸² à¸
ĠCh ua
Ġgh Ã¬
ĠP anda
00 9
ĠT v
ĠC ert
Ġ23 3
cel otti
Ġan t
Ġkh áº£n
ĠH Æ¡
in da
æ Ħ
ĠTal k
ĠÄ Ĥ
Nh Ã£
ĠTH Æ¯
Ġd Ã´i
ĠCO M
ĠSant os
ĠDynam ic
ĠS ME
Ã¨ s
ĠSen egal
V isa
ĠEx p
ĠMontre al
15 8
ĠVI SA
H uyáº¿t
Ġd áº±ng
Ġx Ã©p
Ġx áº¯c
ĠR Ãª
Ġg lu
ĠL áº»
ĠG row
ĠX erox
17 6
AD S
ĠCom edy
x h
th Ã¹
won do
Ġcarot en
ĠCamb odia
ud y
Ġ8 800
ĠHind u
Ġw ere
Ġweb cam
ĠLau ra
Ġac tion
ĠKh áº¥t
og lo
ĠSu ites
)) ))
ĠVer tu
itr uong
ĠNH CSXH
ch Äĥm
ĠAs cent
ĠHÃĢ N
Ġsing apore
Æ¯á»ł NG
ĠMo ore
Ġth anks
ĠVel vet
ãģ ķ
fo ot
h on
ĠA fr
ĠAut omatic
åħ ¨
Ġrep ort
ĠCu Ã´ng
ĠFoot ball
28 2
h anh
Ġs Æ°á»Ľt
19 78
GB T
Ġn ext
ĠM end
ĠP itt
Nh á»ĭ
n Ã©m
âĢ Ĥ
Ġlo tion
Ø§ ÙĦ
æ İ
Ġd Ãªn
ĠJ a
ĠOff line
ĠC á»°C
Ġ... )
po le
Ġtar get
ess ori
Ì Ĩ
Ġg á»ķ
quy nh
ĠL áº£i
ro ud
18 3
ĠMax im
OO K
ĠTH VL
Ġ19 17
Ġm iá»ģu
ĠPre c
B á»ĥ
ĠKH ÃĵA
ĠN CS
D ong
R u
ul ation
ĠÃĲ á»ĥ
b ic
w ater
ĠW H
19 48
ĠDe al
ĠB ordeaux
Ġcal ci
Ġv ery
Ġr áº¿t
ĠMar ri
ł n
ĠSw iss
Ġ38 5
Ġl áº£o
Äĳ á»©a
ograph y
b uy
od ka
Ð°Ð ±
ĠViet Sub
Ġç¾ ħ
88 9
ĠGui de
Ġp ot
Ġ24 8
ĠMy SQL
ĠSol ar
Ġch á»Ńng
enn ess
Ġcomment s
c re
Ġo pp
ĠWed ding
ĠB ash
D Æ°á»£c
ĠE xynos
un en
Ġ19 32
Ð¾Ð ·
l Ã¢u
Ġkh á»±ng
s odep
Ġh iá»ģu
ĠM use
Ġcon s
ogr ave
r au
Ġch Ã©t
Ġvá» į
ĠEb ara
bur ger
Ġ áº¡ch
ĠCam eron
ĠL áºłI
Ġâ Ĥ¬
Ġn á»ĭch
Ch ÃŃ
ole on
é ¢
Off ice
ĠM OD
Ġapp ly
ĠHol mes
ĠI Z
ĠS á»ĵi
ĠVi k
do u
ĠB áº¢NG
ÄĲ áº¡t
é ĥ
Ġqu á»ĩt
Ġ60 92
Ġt Æ°á»Łi
Ġm áº«m
S il
ĠL Ã³t
Ġg reat
ĠA HD
30 6
§t Ã²a
" !
TS UB
ï¼ Ī
Ġr Ã³i
åĴ Į
Ġå° ı
å¹ ³
ĠÐ´ Ð»Ñı
Ġåº §tÃ²a
egr aph
B TP
ers field
uk o
ĠY ellow
ab et
6 000
g ers
ĠBern ard
Ġx Ã²a
ĠC ooper
quang hang
b iá»ĥn
ĠV O
hi ba
2 68
ĠCá»¨ U
.. ,
ĠAR M
Ġnu á»Ļt
Ng uyá»ĩt
oc co
Ġæµ ģ
Ġk ieu
ĠSon ic
ĠHokk aido
ĠN á»ĢN
ĠæŃ ¸
æ Į
ĠX áº¥u
os is
t á»©
os to
Ġhigh light
ĠY as
ĠSi ro
ï¼ ļ
ĠF ro
ĠÐ¿ Ð¾
Ġå° ĩ
Ġngh Ã©
ad s
Ġqu á»ĩ
n Ãły
ĠMang apark
ept ide
Ch uá»ĳi
] #
Ġc e
ĠB ed
ĠåĮ ĸ
Ġh á»§i
ĠIN OX
4 01
R ich
ĠåħĪ tiÃªn
2 75
L á»ĩ
ĠU C
ĠK TV
hi s
Ġå® Ĺ
ĠS leep
4 000
Mer cedes
Ġra pper
ãĤ ¯
ĠQueens land
ĠCN XH
ĠthÃ¬ n
ch em
ÄĲ á»ķ
ĠChrist mas
Ġf ran
ston ia
â ĩĴ
Ġch á»¥m
C ollagen
Ġsá»Ń u
×Ļ ×
Ġs ave
Ġn c
ĠG raham
ĠQu artz
ĠçŁ £h
Ġlá»£ m
ĠçŁ£h Ä©
Ġst t
c au
Ch áºŃu
æ µ
tr Ã²
eg el
AA AA
ĠC ut
or age
Ġcon nect
Ġb er
Ġbe ng
ãĥ ª
l Æ°á»¡ng
w ak
pe z
Han oi
gh áº¿
it te
ĠAnd erson
ĠVin Group
Ġ6 10
65 5
vid ia
É Ļ
Ġ7 80
m Ã¡u
K B
ĠB uild
ĠAl ber
K ia
br ight
è® º
ĠGraph ics
ĠF V
ĠCoc obay
ĠEngine ering
r im
ĠS Ã¡n
Nh an
ĠåĮĹ äº¬
ĠÄĲá»Ķ I
ĠS áº£nh
ĠSl ot
ĠK ings
ĠSev en
H TC
ĠM ust
ĠS ul
J e
W atch
ĠL ui
ĠDar win
ĠM IL
Ġåħ ·
ÄĲ á»©a
Ġb Ãºng
ĠG uy
ĠM ing
16 1
ĠV ital
Ch Æ°
Ġéĺ ¿
b ers
ĠA ce
ĠW IN
Ġl n
ĠEco park
Ġn eu
ĠTÄĲ C
ai de
Ġèģ² thanh
ĠTh iÃªu
ĠArsen e
ĠR and
ĠE t
ph ot
ĠB uá»Ļc
Ġ7 37
is b
is sa
ĠXi ao
Ġb ad
Ġim port
enz a
Ġæĸ ·
æĸ °
Ġb uy
ch ip
ĠD ich
ĠNov ak
d n
Ġ09 62
ĠPro file
ĠCÆ¡ ng
Ġen ter
Ġn iáº¿t
Ġin formation
S eo
h Äģ
Ġ ess
H Ã¨
l Æ¡
ĠS ÄĲ
ĠAth ens
ch es
ĠLav ender
19 1
ng a
ĠCh il
ĠPh Æ°Æ¡
Sh are
S en
ĠP D
ĠF eed
ĠEver y
Ġtu á»·
ĠÐ Ĳ
ĠLu xem
ett ing
VI ET
L M
ĠNh Ã¡nh
80 8
ater ial
i Pad
ĠNGHIá»Ĩ M
enc ent
Ġç ½
A Z
Ġi b
ĠÄĳÆ£ á»£c
t uyá»ĥn
ĠC MS
Ġkhu Ãª
ĠJun e
ĠF ighter
ĠHom estay
ç ®
Ġåı¤ cá»ķ
ĠS AP
ĠGD TX
Ġçī ©
imbab we
20 23
cl ub
ĠT ask
Ġ24 2
Ġç¤ ºthá»ĭ
Ġh Æ°á»Ŀng
cÃ´ la
ĠBin omo
ĠEss ence
Ġcá»¥ i
ograph ic
ĠTU á»ĶI
ĠX PS
end ed
ĠBá»ī m
Į N
tr inh
ĠE col
end a
n old
Ġl h
Ġkh au
ĠO C
19 55
ĠÃĲ áº¿
CH O
T Ã´ng
ĠÐ Ķ
ĠShi ft
; ,
ĠBL TT
A H
16 4
t á»¥c
Ġf eed
ĠSt orm
GD P
ĠThink Pad
Ġkh Ãªu
ĠT urn
ĠHo ward
ĠN INH
Ġcam p
n áº·ng
ĠB á»ĩ
Ã© on
ĠBut ter
ĠAssoc iation
ĠBr uy
LC L
P B
ĠTh iÃªng
ĠÐ ¢
T om
ĠW u
ĠÃĲ Ãłi
ĠHol iday
ĠN AS
ĠSC IC
å Ł
Ġi os
ĠAn celotti
ach ment
& &
ĠP ick
Bl ue
Ġqu áº¡i
Ġg áº§u
lamy dia
ĠVIETT EL
Ġh appy
az ing
ĠCal vin
Ġreview s
Ġc t
ĠOn ly
29 5
Ġcháº¿ ch
ĠBil bao
Ġmu á»ĵi
Ġt Ãły
ĠS á»ıi
Ġxem phim
ĠDu o
Ġ= =
Com bo
Ġ3 12
ĠZ o
p Ã´
Âª n
Ġl ar
L I
ĠÄĳ áº«n
Ġkh á»īnh
ag le
g iáº¿t
ĠB oh
) "
r al
ĠZ n
ĠBV MT
m ag
ĠWal t
w ait
Ġ28 6
ĠRM IT
æ ĭ
it ic
mu á»Ļi
Ġ ext
ĠQUY áº¾T
ĠCH áº¾
emay bay
Kh Ã¡
ĠOk inawa
ly s
ĠNov ember
ĠcÃ³ ng
è ª
ĠU buntu
h ol
ĠAn anda
Ġè¦ ģ
Ġm ind
Ġm iss
Ġtra vel
Ġ22 7
r up
ĠTH AM
Ġåħ· cá»¥
P et
ai c
ĠX Ã´ng
ĠAr ts
ĠçĻ¾ bÃ¡ch
ĠÄĲ ÃĮNH
ĠBook s
Ġgiá» Ń
Ġl áº¡n
ĠÂ µ
A ct
ĠCHá» ĮN
ĠS ic
ĠPa j
Ġk an
bi otic
ĠGi Ã£
Ngh iÃªm
z Æ¡
Ġr Æ°Æ¡i
fl ix
ĠStud y
g á»Ńi
Ġk ay
ĠæŃ¸ quy
ĠD Ã£y
ĠGold mark
ĠDmit ry
Ġæĸ· Äĳoáº¡n
Ġth pt
Ng á»§
áº® N
k Ã©o
ng an
ĠC ow
Ġw atch
ĠMc G
h iáº¿u
um bo
ort on
è¡ Į
s oi
ĠSte am
ĠP ath
ĠSouth gate
ĠCa ch
eb o
ĠMau r
ĠXS KT
ĠLew is
b á»ĳc
01 7
ari us
Ð¸ Ñģ
ĠE thi
X uyÃªn
ĠN E
Ġo Ã¡i
ĠHil ton
B est
ĠN TD
19 50
ra f
ĠHá» ®
ch á»¯a
ĭth á»īnh
k á»ĩ
ic in
Ãļ T
ĠU d
16 2
Ġå®Ĺ tÃ´ng
ĠæĮ ĩ
7 40
Y S
Ġtr ading
Ġæµģ lÆ°u
ĠC á»¬A
. \
nh á»Ŀ
áº¨ U
ĠL ily
Ġlo áº¹t
Ð ļ
ore a
ĠRes et
Ġ25 2
ĠLink ed
Ġ2 200
es o
tr uyá»ĩn
ĠN Æ¡
ĠB ik
ãģ Ĥ
ãģ¾ ãģĻ
ĠCar lo
R R
T Tr
Ġ á»ģ
ĠPr udential
Ġkhá»© u
ĠEcos port
6 70
ĠæĢ Ŀ
ĠAlexand re
c up
Ġb áº¥u
Ġxu an
h ara
es c
se ason
is ha
ĠCh áº£y
ym pic
ĠCommun ity
Ġgi áº¯c
ĠåĮĸ hÃ³a
ĠH is
ĠCh á»ĳt
ĠÐ ĳ
Ġb ap
ĠÃĲ áº¿n
Ġvn pt
H F
Ġá» ļt
Ġæī ĵ
ĠLo v
26 9
eal th
ur er
V B
n el
D uyÃªn
f ele
ĠT áº¬N
ĠTP Bank
ĠG YM
ĠéĽ £n
ĠFrank lin
g un
r il
Ġth rough
ĠB GH
Ġèı ¯
Ġè« ĭthá»īnh
y ad
ĠAn kara
Ġve am
ay s
al dehy
ch ol
ĠHá»® U
ab el
16 3
IV I
d ham
ublish ed
} {
âĢĻ :
ĠÄĳ k
ĠB iÃª
ĠS ÃģNG
hy un
ng uyá»ĩn
Ġl it
Ġâ İ
Ġè ¥
RO M
Ġc igar
ĠK ÃŃ
T á»³
çĶ ¨
Ġm áº¿u
; -
3 25
Ġb Ãĥ
ĠTh r
Ġban king
n á»Ńa
ĠST EM
ch Ãºc
ĠV Å¨
ĠCh iá»ģng
ĠVene er
Show room
ams ter
14 6
Ġcup cake
ĠR ipple
ĠRi ot
ĠCreat ive
ï¿½ ...
M iss
Ġtr Ã¯
ĠK ok
ĠCr uiser
r ai
æ ı
ĠA ustin
V KS
Ġweb s
on et
ĠF TP
un ette
24 8
Ġlo w
ast ian
L ight
Ġse ason
ĠLar ry
ĠB art
Ġ7 60
æĸ Ļ
A ustralia
if ier
ĠCH á»¨NG
ĠN ode
Ġ09 48
ĠMang a
b ig
ĠPen ang
ĠL áº¯ng
Ġp ers
Ġçī© váºŃt
ĠTh ien
38 5
co pe
66 7
é ĸ
Ġc k
Ġch áº·c
Ġsty list
Ch at
ĠCh áº¡m
ĠRet ail
ĠSal v
ĠI de
Ġvá» ¹
ĠF agor
ĠWar ri
' ;
Ġman y
ĠRen ault
ĠA MP
K Ã¨m
Ġca d
ĠD IC
M au
Ġ30 3
TP P
' re
Ġl Ã¬m
ĠK Iá»ĤM
Ġcu roa
ĠR á»Ŀi
ĠZ ara
Ġnh Ã£ng
ĠGiá» Ĺ
ĠJul y
Ġmatch a
ĠV áº¬N
Ġ3 11
Ġn ever
d pi
Ġth áº«n
Ġtrig lycer
work s
Ġ4 99
ÃĮ M
ĠB outique
ĠS ie
ach u
S i
au to
Ġng á»įng
ur as
ass an
ĠDu áº«n
ĠTR UYá»ĢN
ĠS ed
ek wondo
Â» .
8 70
ig inal
Ġ eb
Ġnh em
Ġact ive
ĠBruy ne
ĠA AA
19 81
ĠåĬ Ľ
ĠAS P
Ġs yn
ĠT aka
our i
Room s
R ep
Th uyáº¿t
j j
kh Ã´
ĠJon athan
Ġx um
Ġng á»ĳ
ĠQL VNCH
G á»ĵm
ĠSol utions
ĠOre gon
Ġso ck
ĠTÃª rÃª
ĠS asuke
ĠD id
un ya
Q N
ĠL c
Ġéĩ ı
ĠRap tor
ĠL á»ĳp
Qu Ãª
Ġwh ere
ick y
Ġcos play
Ġr ev
ĠM n
Ġf ast
Ġc d
Ġx ac
ĠHy aluronic
V iÃª
iá» ĳt
ĠI Phone
ĠGi Ã¡n
as o
Ġä¹ Ŀ
ĠA x
Ġat iso
ĠSus an
Ġr á»ģn
ĠAlban ia
Ġå°ĩ tÆ°Æ¡ng
ĠKH ÃģC
ĠOffic ial
Ġcast ing
al ys
ĠSH R
ĠT CP
ĠThu á»Ł
h Æ¡i
Ġ19 37
viv u
ĠS Ä¨
Ġè į
enc er
ĠPark son
X o
r s
Ġd áº¿n
ĠD AC
ĠæĽ ´
Ġqu ÃŃt
80 2
ĠT ake
ĠR ush
Ġè¦ģ yáº¿u
ĠM ull
Ġthuy et
ĠPed ro
ĠDoug las
=" "
á»Ĵ N
M á»«ng
ĠM Ã¢
ĠT GM
ĠK ak
ul ette
ĠAndre a
ĠGerman y
ĠO Ã¡nh
Ġad s
ĠMont essori
Ġdoll ar
ĠL Ãłi
Ġb Ä©u
ĠSho pping
Ch ina
s á»ĳc
Ġp erm
ĠCo unt
ĠDul ux
B BC
ang aroo
19 64
Ġ5 90
l iá»ĩu
ir es
Ġt Ã³p
Nh iá»ħm
Ġæ ¢
25 1
Ð° ÑģÑĤ
ĠC Ãµi
88 88
ĠVS IP
ĠHarm ony
tr Ã¡nh
ĠG áº¤P
ĠRec overy
est in
L ine
Ġm Ãµ
ĠG yeong
| --
ĠM áºªU
tr uct
ĠDal at
Ġsh ar
ĠShang hai
s uáº¥t
ĠTr iÃª
ĠTr op
ĠS á»¬A
om ax
17 7
Ġp k
ĠS á»§ng
OS S
car ot
ĠDem ons
Ġ- ---
ĠæĮĩ chá»ī
Ġop era
ĠHist ory
ĠM áº¡o
Ġ7 10
tr uy
Ġt k
01 1
ĠEm ma
à¸ Ń
16 00
3 35
Ġj ob
ðŁ Į
Ġr Ã¡y
en tr
gi Ã¡m
ĠBe zos
Ġgr aph
ĠåĪĨ phÃ¢n
09 8
aw i
è ģ
Ġh Ã¯
ĠC GV
ĠSar ri
Ġxáº» ng
ĠSur v
Ġä½ į
t it
ĠGu in
Ġæīĭ thá»§
j on
Ġ á»Ľi
c á»©ng
ĠK ov
Ġcu m
ed e
18 00
A ut
s ung
19 77
ĠKH KT
Ġ6 68
oss er
one er
az e
Th a
CN T
Ġph Æ°
çī Ī
en ne
ĠL on
ĠY H
ĠHerbal ife
ĠR iá»ģng
15 9
Ġïĥ ·
b Ã£o
b á»©c
oh ama
ĠBV ÄĲK
ar row
ĠMal i
ĠMeg han
v l
co ustic
Ġcm t
ĠBe an
ĠMu eller
Ġf arm
Ġáº ®
G iáº¿t
ap s
tr ue
ĠRev it
ĠAd v
ĠH AY
Ġæīĵ Äĳáº£
Q B
ĠT OTO
ĠAd ayroi
ĠGh Ã©
; âĢ¦
Tr Ã¡ch
ĠHu dd
Ġ09 31
Ġpro cess
m iá»ģn
kh Æ°u
Ġå®ī an
ik es
4 68
R áº¡ng
m Ã©t
ĠT ill
t áº·ng
ur g
ĠMang ak
ĠWe ibo
ĠP X
ĠLy n
ĠHu gh
ĠAdmin istr
ĠRodr igo
av o
Ġ23 8
Ġåı ĸthá»§
Ġn á»ĩ
Ġin n
Ġhe ight
L ang
Ġl á»©c
75 5
ĠM á»ŀ
Ġvol ume
ĠSch neider
ĠDol by
19 56
ot ine
ĠOz il
ĠB ib
ĠBM I
à¹ Ģ
ĠT wo
ĠPh Ã´
ĠX á»ĭt
ĠRes er
Ġs Ã¬nh
ol on
11 00
M Ãłng
ä ¾
å §
Ġm áº¥p
Ġr á»į
Ġau toc
G am
19 3
w oo
ĠâĢ¦ âĢĿ
] )
Ġm Æ°Æ¡
ĠæĢĿ tÆ°
ĠTr á»ĩt
ut ch
ĠW ong
ed ic
ĠWin ner
ĠB Ã¬a
ĠV ali
ĠZ imbabwe
ĠVÃµ ng
CS VN
åĿ Ľ
J ul
l s
Ġ24 6
ĠUn ilever
ĠT áº¤N
an on
ĠG and
ĠSt ates
ç ķ
Ī n
Ġf irmware
¡t ÃŃn
Ġng áº¡
Ġ25 4
ĠPh Æ°á»£t
19 4
33 7
ote ch
mar gin
Äĳ á»£t
ĠEm ery
ĠTO A
ĠG oo
Ġh ref
Phil ippines
Ġm Ãºp
ĠN Ãªm
ĠCS KH
ĠChamp a
ĠTN MT
ĠO F
C áºŃn
ngh Ä©
). [
p c
2 14
ĠT iffany
Ġj ac
ĠFin ance
ĠV SA
7 10
C á»Ļt
l eo
ĠT INH
Ġdi et
f low
r ess
88 5
H Ã´n
l Ã²ng
Ä į
Ñĥ ÑĢ
b order
17 1
Ġtur bo
Ġä½į vá»ĭ
ĠI p
ĠCh lor
ĠJ otun
: #
Ð Ŀ
á»§ n
å¤ ļ
ĠW oman
ĠELL E
IK E
ĠP el
ĠOne Plus
ĠCav ani
ĠTr iton
Ġra t
ĠFl ora
ĠhÃ£ o
Ð ł
Ġd ream
t áº¥m
pe ed
jo ong
ĠHarv ey
ĠBor is
ophi e
Ġl Ã©m
Ġqua l
Kh Ã¡n
ĠVu itton
be an
Ġe Bay
ĠAj ax
Ð» Ð¸
Ġd Ã¡i
Ġtá»ī m
ĠPro perty
ĠDis k
Ġmicro phone
Ġw all
ĠMo ist
ĠINT ER
Ġä¿ ¡tÃŃn
Ġgold en
Ġ( ~
ĠE y
Ġac o
T Ã´m
Ġ4 01
ĠbÃŃ m
Ġ40 4
ved ev
é ©¬
Ġ ÑĦ
H ost
v iron
Ġthu á»ĵng
ĠIn iesta
z ema
ĠG ord
ĠMig uel
ĠH ieu
è ĥ½
Ġ0 70
ĠCB CC
Ġæµ· háº£i
l áº¯p
33 6
Ġvá»Ŀ n
lev ard
ĠO to
os ch
Ġ09 65
27 8
gh en
ĠLá»ļ N
K ing
th Æ¡
ers in
t age
ĠTh iet
ĠK TT
66 9
end ent
Ġad words
ĠTÃį CH
Ng oa
áº¦ Y
Ġsho uld
ĠGe Force
k Ã¨m
ch á»Ĺ
ĠGh Ã©p
Ġbl azer
ĠHiro shima
2 23
T ivi
ãĢ ĳ
ĠS Ãºp
Ġn Ã£i
ĠX uyáº¿n
ĠCar ry
ĠÄĲ áº¡
ĠX Æ¡
Ġb au
Ġ4 25
Ġ09 45
art s
M G
m ob
Ġdá»¥ a
gu ar
Ġcry ptocurrency
em ic
ĠHel s
Ġn Ã¡n
ĠM ickey
il ion
ĠZen Fone
DV D
S ol
r iÃªng
Ġac cess
ĠC ITY
Ġto day
ÄĲ V
ith pt
b ds
able d
Ġs cript
Ġd áº©n
âĢ¦ "
Ġtá»§ m
ĠÄĲO ÃĢN
C ategories
ĠM ien
ĠL otion
çİ ĭ
ĠCh Ã©n
Ġsu c
li ed
Ġd eo
ĠC CD
or ial
IN T
ĠMed ical
c ott
ĠLo ad
Ð¸ Ñħ
Ġf iller
âĢ ı
th ua
T á»±a
T AND
Ġt iá»ĩp
Ġth áº£ng
ĠE z
ot onin
ĠCon f
ĠNap ol
Ġrep ly
ĠD Ã¢m
Ġcom mun
ĠInn isfree
G an
ĠM iá»ĥu
ast a
Ġïĥ ¨
ĠComm and
ME I
d c
g Ã³i
ĠTh Ã´
ĠLo pet
ĠUl tr
Ġ8 30
be nh
ĠLaw rence
Ġcoup on
éĩ ĳ
ĠEnter prise
å Ģ
Ġho ai
ĠK op
ĠAm y
ĠT encent
15 7
ĠBab ylon
ĠMal ta
ĠL áºŃt
Ġhuy en
Ġnu á»Ľc
Ġè Ĥ
ĠæĽ´ cÃ¡nh
T ek
il ac
ĠÃĵ c
Ġapp le
âĸ¬ âĸ¬
P o
bor ough
Ġ22 3
ĠBr asil
ĠPlay Station
ĠÆł i
Ġkhu Ã¢
ĠE stonia
Ġlav abo
Ġs om
ĠC AT
ĠIll inois
ĠÃĲ Ã¬nh
ĠD iet
Cap ital
m Ã¡t
ĠNu tr
Ġåĭ ķ
ĠEthi opia
ĠMag n
ĠLopet egui
s á»£
Ð Ĵ
ĠGr ay
ĠKh eo
ĠR I
b áº¿p
ĠSto ck
Ġ arm
Ġgi Ã³ng
Ġro ad
ĠS edan
ĠK I
Ġé Į
Ġcry pto
ĠL ÃĶ
ĠçĽ ´
ĠCleans ing
er ia
bur gh
Å Ł
ĠG ay
Ġr á»Ŀ
ÐµÐ ·
,âĢ¦ ).
Ġtr á»ĭch
ĠQu en
ĠR á»§i
ĠR ice
Ġl áº£nh
28 7
50 5
ĠEp oxy
amil a
ĠT á»¶
ĠN PC
ÄĲ C
88 6
Ġåħ ¬
F P
m Ã£n
eb ec
Ġbá»¥ t
ĠMaster s
ĠC Ãłnh
Ġé« ĺ
L á»ĩnh
t Ãłu
ed i
C opy
H á»ıa
ĠY G
L ux
Ġclass ic
nh ung
ĠM AR
Ġæ º
Ġ09 64
ĠTR Iá»ĨU
ĠTor res
B áº£y
Ġl Ã©t
ĠT á»¥ng
ĠCh em
99 2
8 30
m áº¥y
Ġm Ã¢n
ĠL á»ĺC
ĠÄĲT ÄĲ
19 31
ĠCH á»ĲNG
ĠWh en
ĠOffic etel
V CCI
ĠC AR
ĠA O
ĠBre ak
ĠK A
Ġâ ĩĴ
ĠGP LX
19 84
ĠHudd ersfield
H ung
r inh
Ġde ep
c Ã¡t
ĠÂ £
ĠCar r
Ġbr and
Ġv áº¥y
Ġl Ã¡p
ĠD á»ĳc
es ca
H á»«
ĠCont act
ĠL áº¡m
Ġc áº·m
m A
PT OP
Ġqu áº³ng
ĠC um
ĠB MB
ĠÐ ŀ
ĠPark inson
ĠMel amine
Ġh ar
ĠG ÃĮ
h áº¡nh
ch á»¥p
Ġ- --------------------------------
ĠSir ius
/ ,
Ġm art
ĠQu est
Ġf ic
ĠOut lander
ĠD Æ¯á»łNG
âĢ¦âĢ¦ âĢĿ
Ġd Ãµng
ĠS ina
ĠNgh Ã¨
ec a
Ġautoc ad
Ġt its
Ġm ir
ĠC ob
ĠKh áº©n
ph á»ĳ
ush u
Ã£ m
ĠHels inki
F orm
ĠBin ance
ĠT á»±u
ĠM ata
ĠCr es
Ġ24 1
ĠJe ep
ĠViet ravel
H igh
N oi
ĠK á»ĭ
ĠHol land
Ġ0788 78
ĠH Ã¢m
ĠV iÃªng
Ġ8 45
t á»«ng
ĠÄĲ Ã³a
ĠNhu á»ĩ
vic ing
ĠPh Ã¡ch
re a
C as
17 4
c Ã¡n
ĠMod ern
à¹ Ī
K e
âĿ ¤
Ġh áºµng
ad ium
Ġincl ud
l uÃ¢n
Sho ck
ĠIn formation
bur n
ļ ´
LÃªn in
ĠF iber
H á»¯u
ĠL ost
ĠS id
ĠMed vedev
ĠH ell
em i
V ol
Ġèı¯ hoa
Ġa er
to col
ĠBoy s
Ġá»¨ NG
ĠPr ice
ĠRafa el
ur ance
toc kh
H á»©a
ĠrÃ¢ t
ann ing
ĠL iv
ĠU m
te gr
ian s
ĠN eu
ĠV ector
ar ov
Con tinental
ĠNap oleon
Ġéĩı lÆ°á»£ng
Ġd B
ĠBL DS
ĠMoham med
ĠT it
á»Ĵ I
ĠCent ro
ĠTom my
»kh Æ°á»Ľc
c ai
ĠK ik
Ġdi rect
ĠCh Ãªnh
ac ity
Ġsm all
åĩ º
ĠC ategories
ĠQ N
Ġu c
ĠHar ris
Ø§ Ø±
ĠK ontum
ĠG ÃĴN
ĠDr ama
ase a
pons ive
ĠåĬĽ lá»±c
ĠH á»ī
s ov
³t Æ°á»Łng
ĠY ale
ob acter
ĠRiver view
ĠI z
3 66
Ġs Å©ng
ĠSt anda
Ġåį »khÆ°á»Ľc
th Ãªm
ĠD Ã¢
Ġ09 63
Ġæĥ ³tÆ°á»Łng
ĠG ly
ĠAtl anta
ĠTrain ing
ĠéłĪ tu
Ù ĥ
ĠGot ama
æĢ İ
ĠDec or
Ġtr Ã¡p
ĠFlam ingo
H Ã¡n
kh Ã¡n
K K
Ġ19 33
c ing
pp y
Ġb á»±a
ĠTon ing
ĠS ans
Ġ24 00
ÃĤ NG
9 70
Ġsim ili
ĠT Ã¨o
th á»¥
ad in
BN EWS
Ġh Ã¹a
us try
ĠBÄĲ KH
ĠL LVT
; ">
17 2
c áº¥m
Ġlu x
ĠDay s
Ġr iver
ĠR ights
Ch Ã³
S GDÄĲT
á ¸
Ġra ting
et sk
n Ãºi
Ġj azz
ĠAir port
C Æ°á»Ŀi
c Ãº
ĠI on
ĠEx t
ĠSup port
Ġsam urai
Ġtr á»Ŀ
Ġmu ch
g ht
ĠTim o
V ina
ĠU L
US E
ĠCry pto
Ġv áº©u
18 4
26 3
ĠLuxem bourg
ĠNGH á»Ĭ
fr ed
IL E
han ouk
ĠL ever
ĠKh Æ¡
and in
ĠCin ema
Ġpass port
osser vicing
ĠL áº¬P
Ġi osservicing
Ġæħ §
Ġch á»ı
±c Ã¢u
oc cus
Ġé Ĺ
Ġ24 3
ĠFus ion
ĠGOL D
k ar
r ison
Ġg host
ĠZ ar
id ong
D is
ĠHá» İ
Ġm b
Ġtr áº£m
ĠTu Ã¢
aux ite
kul ele
Ġth Ã£i
ĠN ord
ĠB ok
ine ken
Ġma fia
65 6
ĠÄĳ Ã¬
ĠN iel
ĠC Äĥm
Kho e
Ġdec or
Ġng Ã¡i
áº¹ m
Ġ04 3
Gh z
8 20
ĠL una
Ġn ap
Ġ09 76
Ġpl ug
Ġ Ã£
ĠD TTS
ĠCook ie
Å Ľ
), âĢ¦
A mer
on so
ĠWW W
n uÃ´i
ĠVI NH
pe i
im ble
ĠRe f
For ex
ĠH á»«
ĠCharl otte
ĠK FC
== >
Ð½Ñĭ Ñħ
2 19
N ame
Ġb t
ĠO ak
Ġ45 8
à¤ ¾
ĠNev ada
ĠAg ency
ĠæĮ ģ
ĠL uyáº¿n
Ġqu áº¯t
ĠA ust
ĠGarden ia
Ġä¿ ±cÃ¢u
t ang
ĠJ elly
PR ESS
ac ca
ch áº·t
vi ec
ĠM ori
Th áº¡c
ĠR ag
ĠQua d
ĠPh Ãłn
ĠCl ay
PP L
ĠTr uong
. ).
ĠAve ngers
al ink
ĠçĽ´ trá»±c
ĠLib rary
A v
ĠD ot
Ġ8 70
ĠLear ning
l aptop
ĠFul ham
ĠM ÃĶ
ĠX p
is se
3 12
ĠBe et
Ġgi Äĥ
ĠTH á»¨
ĠMarri ott
I d
ĠN I
V e
Ġ19 25
P art
Ġm as
Ġ23 7
Ġm ask
Ġpro gester
Ġr áº¯p
ĠN Ã©n
ĠAn field
kh iáº¿n
Ad min
g art
27 3
ateg or
ĠCQ ÄĲT
it age
Ġsu on
que z
C Q
ĠLim ousine
z ing
ĠS OS
ĠE yes
ĠY ak
c il
ed onia
Ġ08 3
ĠH ÃŃt
s ay
ĠViv a
ĠCard iff
ÄĲ TC
ĠM ine
ĠAD B
ĠCh iáº¿m
ph Ã³
Ġ30 6
iv an
Ġtr oi
Ġs Ã¡i
ĠSpe aking
ĠC CN
T uyáº¿t
ĠQu áº§y
Ġaco ustic
A o
Ġ7 90
Äĳ á»ĳn
ĠRead er
J an
ĠL amp
im co
Tr uyen
n inh
ĠHP G
n ight
ĠH us
ĠCh inese
ĠGiá» įt
Ġxemphim vivu
L og
ĠG ho
ap est
25 4
ĠKH Ãį
St art
y t
á»Ľ ng
ad am
Äĳ ÃŃch
ĠIndoch ina
Ng u
ĠL DL
ĠE BD
th áº£m
Ġ00 7
ĠPaj ero
ad ona
ĠEX O
J un
c Æ¡m
ĠFre edom
s up
ĠN Ã´i
ĠK ob
ĠSh ak
Ġkh ac
Ġ25 7
Ġval entine
ac es
ĠVID EO
Ä Ļ
Ø ²
ĠB aki
id in
ĠHam mer
ĠTr av
Ã¨ ve
è½ ¦
ah u
Ġ26 7
C lean
x inh
Ġm ember
ĠC áº¢M
łn á»ħ
ĠW IFI
9 10
ĠJ ump
Ġ\ "
ĠÄĤ ng
ã ħ
ĠA ustral
Ġmar gin
19 62
ĠC e
is u
Ġf lu
Ġ5 67
49 5
Ãī T
ro y
ðĿ ĳ
ĠN au
ÄĲ á»īnh
Ġä¸ »
C á»Ńu
ap t
Ġåĭķ Äĳá»Ļng
Ġ19 31
J u
IA L
m ir
ĠÄĲ Æ°á»Ľc
on na
Ġcu i
Ġä½ łná»ħ
ĠL Æ¯U
Ġvi ll
ĠFr ench
Ġm ut
Ġm n
ĠL áº¥p
no wn
Ġorgan ic
B ID
ĠR Ã¡c
ĠTs urumi
±th Ã¢m
ĠF lower
il en
ch ang
ĠPh arma
it ure
Ph un
F DI
Ġ26 4
ãĤ ¢
ĠN áº´
ĠW as
Kh Äĥn
+ /
ĠKh áº¯p
Ġf iles
Â ±
Ġæ ĳ
S ex
ĠJ or
ĠSant iago
Ch Ã¨
Ġd áº·c
ĠNH Iá»ĢU
ĠC J
ĠÄĲCS TQ
Ġ __
ĠS ime
ĠÃĲ iá»ĩn
k es
ĠFr iends
ap o
ĠTR á»¢
M arketing
Ġæ £
Ġtr á»ĳi
ĠEng land
ĠPh e
5 99
f amily
Ġn t
iv irus
Ġbook ing
ĠPer formance
n ab
ĠCol a
ĠFort une
ĠMur ad
Ġæ· ±thÃ¢m
ĠN vidia
Tho Ã¡t
h Ãłn
s á»¯a
ĠMc L
ĠLu ther
ĠP un
Ġæ ¿
? -
Nh áº«n
Ġnhi en
ĠV K
Ġm Ã¯
Ġday s
Ġt nhh
ĠB uy
ĠåŃ ¸
ĠPl ugin
ÄĲ áº±ng
Ġ40 6
ĠYou th
ĠÎ ¼
ĠA ch
tr u
S X
op e
Ġl Æ°á»Ŀm
Thu áº¿
E CT
ĠPass word
ĠOptim us
L ove
Ġb b
ĠGI S
v ie
ĠEm ily
ĠĠĠĠĠĠĠĠĠĠĠĠĠĠĠĠĠĠĠĠĠĠĠĠĠĠĠĠĠĠĠĠ ĠĠĠĠĠĠĠĠĠĠĠĠĠĠĠĠĠĠĠĠĠĠĠĠĠĠĠĠĠĠĠĠ
ain i
ĠInt ellig
carbon ate
Ġp ound
ip zig
ill y
Vin anet
ĠT ut
: \
è ¾
ĠS Æł
Ġ3 34
Tr á»įn
ĠGiá» ĳc
nh áº£y
Ġé¦Ļ hÆ°Æ¡ng
âĺ Ŀ
Ø ¬
ab ility
Ġ27 2
Ġg Ã´ng
ĠCl as
åİ ¿
Ġt w
ĠGal il
åĪ Ĩ
at ural
IS H
Ġtrai ning
Ġm eta
Ġj ohn
ĠN eg
Ġå ³
26 7
ĠÃĶ m
B ia
ĠT áº«n
Ġlo áº¡ng
ĠR up
ĠÄĳ Ä©nh
Ġ[ -
ĠTV C
ĠSho unen
Ġchu c
30 7
âĢ¦ ?
ult ure
Ġhy dr
ĠOc tober
â Ħ
Ġ8 35
ell ar
ĠMar ine
j n
Ġ19 29
ort s
CX N
100 00
ĠArt icle
Ġ5 25
ign on
ĠKr ist
; ...
iz ing
Ġb Ã¯
ĠE VA
ĠCO MP
j oy
a eda
er c
39 4
ĠæĮģ trÃ¬
i ya
ĠH ana
Ġå¹ ³
46 2
ĠAsh ley
ĠOg re
Ìģ !
ĠN á»ĶI
Ġ09 73
aster n
ĠMetro pole
tockh olm
V o
n Ã£o
ĠB elle
ĠS TB
ĠAs iana
cam era
ĠFore ver
ĠGi roud
* .
Ġ^^ !!!
ĠF irm
Ġad idas
ik achu
Ġgl uten
F ran
Ġn Ã¡c
ĠM ug
ĠD ash
TC N
98 9
2 66
d em
AL A
ĠFai ry
h om
Ġsp ir
ii ii
L áº½
ç ´
3 11
ag as
. ;
ĠHik vision
ĠAbb ott
6 36
Ġb áº¥c
th áº¡ch
th Ã¹y
ĠÃ ·
c Æ°á»Ľp
ĠCo up
Ġ3 24
Ġba be
ĠSign ature
Ch áº¿t
S Ã³ng
ĠsÆ¡ mi
19 61
ĠAr m
d eth
ĠåĶ ¯
ĠBol ton
ĠN BA
Ġb á»£m
Ġp y
ĠGI ANG
ĠU I
«m áº¡c
v p
Ġto Ã©t
ĠFuk u
id ae
50 4
Ġa ff
v oi
Ġkh uyen
S Ã³c
ĠTel egraph
ĠBudd hi
Ġ ui
Ġ Æ°Æ¡i
ch ett
ĠM áº¸
Ph á»ķ
Ġda p
ĠEx tra
ĠCh iÃª
AI L
ĠMem ory
ng Ã´
r ar
th áº¥p
ĠÃĲ á»ĳi
amp le
ĠçĻ½ báº¡ch
ĠV Æ°u
G N
J S
G MT
Ġgi up
ĠY en
L ed
b ass
ĠMU AS
Ġ. -
og en
ĠBe ng
Ġèİ «máº¡c
ĠP aint
Ng áº¯m
ick et
ĠVir tual
I CT
s at
ĠH ig
25 9
ĠT FT
ĠW iki
ĠDo g
ĠPro cess
Com p
ĠÄĲ á»Ľi
Ġ9 20
Ġéĩį trá»įng
ĠL Ã¹ng
D Å©ng
ĠbÃª tÃ´ng
19 59
Ġ26 6
it ness
ĠSan aky
Ġn á»ĵm
ĠPro perties
Ġsp eed
ph áº¡m
n áº¡p
ĠCer amic
R ay
h áº£o
ĠSh el
Ġåį Ĺ
ĠC andy
ag ar
Ġváº» n
Ġz ing
ĠWh ats
ĠT ip
Ġru á»ĵng
38 9
Ġé¡ ¯
P oly
è Ī
ĠN elson
Ġæħ§ tuá»ĩ
ĠKh ao
Ġtu lip
50 6
ĠØ ¯
ĠRu á»Ļng
O lymp
Ġm á»į
17 3
Ġt weet
ÐµÐ½ Ð¸Ñı
ĠD iÃª
ĠSon ata
b athu
Ġl ithium
ĠTR áºº
ĠhÃ² e
Ġ23 1
Ġmac ro
Ġe ffect
ĠKH AI
ĠIP L
Ġx á»¥p
Ġgam ing
z h
ĠW ax
12 80
ĠÃĲ á»ģ
ĠHong Kong
Ġx Ã©m
ĠYok ohama
f g
BV HTT
Ġ27 3
ĠLau rent
N áº¯ng
ov inam
ĠAir Asia
ĠLis bon
l Ãłng
Ġc n
Ġkh iá»ħng
ĠM ina
N iá»ģng
ĠÄĳ Ã²ng
Ph Ã¡o
St ore
ä» ¥
ĠTh iá»ĥm
ĠR Ã¢u
se e
Ġ ill
ĠÄĲ Ãłnh
AN S
y y
Ġ %.
O h
ãģ Ĭ
7 99
s or
ĠMan uel
D ining
Ġh Ãºy
ĠN áº·ng
ĠR osa
P ass
âĢ¦ .âĢĿ
Ġ09 46
ĠChar ge
Ġ %,
19 6
ĠGuin ness
ĠCatalog ue
ĠBrow ser
ĠH err
RE EN
Ġes te
x Ãºc
ÃĻ A
Ġ3 68
Ġbu on
ark er
Ġng Æ°á»Ŀ
ĠKle in
Ġ á»ĭ
ĠP allet
cung quanghang
ĠE do
Ġst ory
ĠBar bie
19 58
H áº¯c
ĠK ien
ĠLog itech
ĠK uro
áº» n
kh ut
ĠBr isb
N Ãºt
ĠÃģ O
sc reen
Ġth áº±n
ĠÎ ²
K on
Ġ8 80
ĠPas cal
Ġnitr at
cham ps
R á»«ng
ĠS BS
38 3
ic ylic
Ġé Ń
Ġfol ate
ĠNáº´ NG
Ġé¡¯ hiá»ĥn
ost ro
Ġsá»Ŀ n
Ġ3 21
ĠNag oya
ĠSH TT
ĠPin terest
tr um
Ph Æ°á»Ľc
Ġn y
ĠA HA
ĠBrisb ane
ĠDesign er
us d
uss y
back ground
ĠAk ari
ĠO a
Tai chinh
ument s
g if
Ġm h
ĠCot ec
Ġb Ä©nh
ĠR ung
ag h
01 3
ĠE u
ĠID M
ai a
77 6
ĠÄĲam inh
Ġæ© Ł
ĠV ita
hi k
ĠGr ace
Ġ6 90
ĠMatth ew
ac i
C áº¡nh
ĠâĢĵ >
Äĳ d
ill ing
ĠCop a
ng á»įc
ch uyáº¿n
al ow
gr ess
ĠN ÆłI
ĠP ix
Ġ40 5
ĠChr on
ĠåĶ¯ duy
ĠJ en
P VN
Ġd Ã²n
ĠV Ãª
ĠAd apter
H G
ngh á»ī
ĠBou levard
ĠK KT
IS E
job a
ĠClas ico
Ġnh Æ°Æ¡
nh áº¹
ĠKiss inger
ï ½
Ġå° Ĭ
ĠlÃł i
uf act
ĠR im
re z
am ide
Sp utnik
æ ¯
ĠÄĳá»į an
Ġn ov
ĠV EC
ĠTo eic
uc c
Ġball ad
m Ã´i
t tp
under land
ĠA EON
en ia
ĠSoc iety
ĠH TTP
98 1
ĠÐ² Ñĭ
BNN PTNT
oglo bin
L K
Ġl Ãĥ
ĠTr in
ul ti
ĠâĢľ ,
26 2
P ER
ä¿ ¡
ĠS eptember
Ġxo e
ĠZ TE
Ġto e
az ol
ng Ãłnh
ĠAir line
ĠW S
ĠJ oa
nh Ã´m
ĠVH NT
ol ia
Æ¯á»ļ I
40 2
ĠC UNG
ĠMat te
ind y
fr esh
m ain
æĸ ĩ
Ġm ama
Ġc ert
ĠÄĳ ui
ĠAr k
us ion
ĠLo pez
B alo
t á»ī
Ġs or
d ition
Ġtr áº£o
ĠM RI
ĠCM CN
ĠJam ie
Ġ09 74
ãģ ł
Ġz ona
T ype
Ġgam er
ĠDur ex
Ġm áº©y
el ia
b iá»ĩn
Æ°á»£ p
ĠC ant
d g
Ġho áº¡c
Ġç º
Ġlym pho
Nh iáº¿p
ĠApp lic
k n
ĠMich elin
Ġä¼ ¼
Ġ4 35
ĠTH ÃĬM
ell ing
ĠLe ipzig
2 13
et o
ĠnhÃ© o
ĠCl ar
CC B
Ġelect rolux
aby te
ĠPrin cess
ied ad
et z
H Ã¡t
Ġ26 2
ĠSystem s
ĠCHá»® A
Ġv áº¡m
R Ãºt
ĠKh am
Ch evrolet
ĠC ÃĻNG
Ġc áº¡y
æľ Ģ
ic ations
d ieu
Ġn ui
ĠCl os
l á»Ĺi
x ia
ç ¤
Ġsh ot
Ġra te
H ong
t ar
Ġtr Ã¡c
Ġkh Ãł
ĠP ico
ĠGB P
ĠS AR
Ġy amaha
it ale
il in
Ġl ieu
ĠM IT
az ar
ĠTa j
L áº¡ng
ĠFl ip
for o
? (
Chá»ĭ u
Ð°Ð ³
d b
l ap
ĠFr amework
Ġngh á»ħ
k iáº¿m
ĠK aka
quynh on
Ġh Weth
ĠR oh
Ġco upe
ĠKind le
Ġïĥ ¦
ĠB IG
ĠPh arm
ĠC Æ°á»£c
ĠBe au
fr ont
5 25
ĠNh á»¯
ir ang
ĠGr ant
ĠI k
Ġs á»¯
ell es
em ian
ĠCap e
do wnload
ĠRe agan
ĠHe aven
Ġä¸» chá»§
Ġg á»¥
18 7
D on
Ġ40 9
y ama
ĠG az
ar real
Ġto shi
ĠCor el
ĠMat xcÆ¡va
ĠN ao
ĠL oss
ĠH SD
Ġ9 30
ĠUr ban
N an
Ġth Äĥn
ck er
ĠS ua
ĠTho Ã¡ng
ĠHotel s
Ġl iá»ĩm
Ġtr áº¯m
ĠH áº¡ch
ĠJe ong
SK ÄĲS
Ġph Ã¯
irm ingham
uck land
Ġä¼¼ tá»±
ĠIn line
ĠTH áº®NG
t Æ°á»Łng
ĠM Ã£nh
Ġ il
Ġv áº¡i
ĠA ub
Ġ6 70
39 8
ngh iÃªn
S IM
n av
Ġ3 36
ĠF ell
Ġæ©Ł cÆ¡
r á»Ļng
ĠJ Y
OD EP
Ãģ M
ĠHuy Ãª
Ġïĥ §
Ï Ĥ
H K
ĠF ior
ĠPart ners
Ġsap onin
ĠL áº¯m
fr ame
ĠPhill ip
l uc
ĠPh Ã¬n
ĠAut om
C ore
t á»Ľi
u ff
Ġkhu i
ug ht
Ġb rowser
fe ed
ĠCD T
ay ama
Ġtoy ota
lo ca
Ã©m on
ĠRu á»Ļt
C Æ°á»Ŀng
ĠTr á»į
X EM
Op ens
W W
ĠStud ios
3 22
Ġâ Ħ
Ġbe ing
ÌĢ ?
Ġco uld
E r
Ġl g
ĠS ushi
ĠAr men
Ġtha ch
19 00
ĠÄĳ áºŃt
ĠG N
Ġ3 22
Ġg á»Ļt
ĠO H
L N
Ġse al
in f
77 8
Ä ħ
Ġïģ ¡
ia h
45 4
ĠAtt ack
T áº¥n
ĠR ab
Ġæĥ ħ
B aby
oc yan
ect in
ĠÄĲT M
M Ã¨o
Ġl cd
IC K
ĠPay pal
3 16
s ilk
Ġb áº¥n
ĠNam i
Ġ25 1
Ġpro gram
ĠLay er
Ġd Æ°á»£t
ĠF le
C at
ĠH ond
Ġ50 5
i ao
ĠÄĳ ep
Ġp our
Ġ19 35
Ġvac xin
ĠRho des
Ġm á»Ļi
Ġb Æ°Æ¡n
ĠS US
ĠDon etsk
ĠSpr int
ĠTu an
Ġm or
ĠX ÃģC
02 7
c ip
Ġ5 99
yl an
ĠH uyá»ħn
el ancer
C á»Ŀ
Ġ17 00
ĠMart ine
40 5
29 2
R M
Ġn bsp
ĠV AR
Ġéĩĭ thÃŃch
Ġp erson
ĠJ D
ĠBr uce
78 5
! ,
ak ers
Ġstr ing
ĠMc K
Ġl Æ°a
ÄĲ á»ı
ĠWat son
ĠT á»Ļ
18 2
ĠHo wo
à¯ į
s ur
Ġad dress
y ong
ĠS Ãºc
ĠW anna
ĠRich mond
Ġshe et
ĠmÄĥ t
let on
! -
ĠH ere
il t
TS C
D ata
ĠV iagra
Ġmá»Ł n
ub l
Gi an
ĠãĢ ĭ
ĠSkr ipal
ĠTr Ã¹m
ĠEd ison
ĠFat ima
Ġru Ã´
åı °
C F
Â ¢
ec ut
ĠÄĲ á»±ng
Ġ( âĢ¦)
h áº¡n
ĠB uk
ĠUn c
Ġm ill
ĠM im
ĠF F
ÄĲT V
ĠJac ob
ĠKu wait
Ġur l
M al
ar ium
Ġas en
v ol
Ġn áº£i
ĠP eng
ĠU BCK
Q ui
ĠTh ere
ĠÄĳá»ķ ng
ĠÄĳ áºµng
St udio
ĠHo spital
ĠPic asso
Ġr á»īnh
ĠtÃŃ u
T est
Ġtoshi ba
i ot
os an
ĠQU ÃĿ
ĠH id
Ġre quest
ĠBot an
ĠH á»įng
ĠD oo
ĠLA PTOP
Camp uchia
ĠN ico
Ch Äĥn
ĠQÄĲ ND
ĠTQ LC
ĠRom ance
D at
ĠhoÄĥ c
deth ithpt
h á»ĵn
ĠMad ison
ĠHen ri
r b
23 1
27 7
Ġ3 66
ĠHo i
ut v
ĠAl ph
ĠTour ist
ng áº¡i
ĠO per
ĠDup lex
ĠMar yland
Ġ08 6
x uÃ¢n
Ã¨n e
kh uyáº¿n
Ġ{ {
4 99
t á»ĳc
Ġ Ã©n
ĠX á»©ng
th áº©m
ĠY ersin
ĠSeag ate
alys is
Ġ6 55
Äĳ em
N XB
Ð Ł
ĠCh ong
.[ /
Ġde ad
Ġp ano
ĠApp s
P aris
ĠKaw ai
è ¶
ĠD áºłY
98 3
Ġmat xa
S Ã¡t
Ġc áº¡
ĠS ÃĢI
68 3
Ġåħ¬ cÃ´ng
Ġ25 9
ĠCN BC
ĠSoc iedad
ĠS Ãł
ĠâĢ¦ âĢ¦âĢ¦âĢ¦âĢ¦âĢ¦âĢ¦âĢ¦âĢ¦âĢ¦âĢ¦âĢ¦âĢ¦âĢ¦âĢ¦âĢ¦âĢ¦
M Å©
M assage
ĠC ushi
ĠW yn
. '
Ġ- ----------------
Ġn Æ¡m
ch Ãłng
umb ai
col i
td Äĳ
Ġl á»¥ng
ĠåŃ Ĺ
Î »
Ġg ÃŃ
ai gon
ĠX SD
19 7
CP C
Ġ09 25
ĠL á»ģu
ho Ãłnh
Ġ01 66
ug a
ĠED M
ĠL Ã¡ch
âĢ¦ (
Ġtao bao
Ġåħ ©
ĠÄĲH ÄĲ
EC D
ĠAdel aide
Ġnh Ã¯
ĠNgh Ã¨o
os i
ens tein
hy dro
ĠT Ã¡ch
ĠV AS
Ġmo Ã³c
å± ±
Ġr Ã©n
H B
k eo
es ub
ÐµÐ½ ÑĤ
ĠTE CH
ox ic
ĠRec ord
Ġh ip
Ġngh inh
Ġ7 70
EE E
Ġæ¨ Ĥ
é £
âĢ Ĭ
ig ation
t k
ĠÄĲ á»ĳn
f c
ĠA sa
Ġa qua
ĠÄĲ áº«y
th en
ĠCa che
Ġrob usta
H iáº¿n
Ġ3 88
Tr Ã¢n
,, ,
Ð ĺ
x Ãł
ĠH alogen
ev en
ï £
ĠH Ã²e
ĠNh á»©t
ĠEx tract
ĠInd ep
Ġh iÃªu
ĠK w
ĠI an
aw ay
ree k
ĠHe ights
ĠW ai
Kh Ãºc
ĠNet flix
x Ã¡
ïĢ «
Ø Ń
Ġchu Ã´i
âĢĶâĢĶâĢĶâĢĶ âĢĶâĢĶâĢĶâĢĶ
ĠLex ington
ĠÄĳá»£ c
G á»£i
Ġn v
on iac
ĠF low
è®º åĿĽ
O k
Ġg ato
R m
Ġth ese
tr ak
Ġæ ĪĴ
Ġç¥ŀ tháº§n
Ġl Ã³i
ĠH Æ°Æ¡
Tr áº§m
to day
ĠSiber ia
Ð¸ÑĤ ÑĮ
F ed
Ġl Ãºp
ĠLin da
l iá»ĩt
ĠB ÃĵNG
os it
ä¹ Ĳ
ĠBG K
ĠV AN
omet hing
ĠPap er
Ġl áº¥t
Th Äĥm
att achment
L iá»ĩt
ĠH omes
ĠPlan et
ĠG á»ĸ
Q D
ĠS tockholm
tr ip
" (
Th Ã¡c
ĠEco Life
ĠCons ult
Ġmain board
Ġpr ess
ĠDec ember
inh an
il anh
æĢİ ä¹Ī
Ġs Ã¬
ĠsÃ´ cÃ´la
Ġl áº±ng
Ġsp e
ĠMang khut
åľ °
é¦ Ļ
h j
ĠABC D
us o
ĠHÃĥ NG
8 95
qu Ãªn
37 4
E CO
Ġd id
ĠEl ement
Ġ8 86
ĠTH áº¬T
90 5
ĠMo ther
ĠPrec ision
ĠTh iá»ģm
Ġw eek
ut ure
ĠGro ve
ĠD ome
OV A
ard y
ĠPH Æ¯á»ļC
t ui
Ġm oney
im ate
ĠHo pe
ĠNg Ã³n
Ġvi esub
ĠTh en
ĠU áº¥t
b ed
T iÃª
Ġ old
ĠAut oc
Ġb Ãªu
ĠV il
ĠMarcel o
ans on
ĠWin ter
ĠC oach
Ġ* .
D áº¡ng
Ġt Ãºp
Ġ3 17
Tr ump
Ġf u
ĠHe ineken
ĠBash ar
B Ã´
ĠQ KR
99 5
ĠPer th
ÃĲ á»©c
Ġlá» ı
Ġ29 8
ĠBI OS
ifl ame
ĠT one
Ġf ai
VN PT
ĠRep air
ĠÄĳ tdÄĳ
Ġl ittle
ĠT able
ĠCHÃļ NG
ĠL ic
ĠDH C
à¹Ģ à¸
Ġg áº£y
ĠKar ofi
á»¬ I
ĠSum mit
H appy
N Ã¡m
our ces
ĠAl u
Ho use
ĠSi hanouk
ĠCre ate
ĠC Z
Ġchi ld
ĠHel en
T iá»ĩm
40 3
X ong
Ġb iá»ģn
ass a
Ġch á»ģ
ĠPr iv
ĠGen Ã¨ve
ĠGi r
89 3
å ĭ
æ ¬
Ġw idget
op t
ĠWar ner
ĠL ÄĲTB
å®ĺ ç½ĳ
net t
29 7
L ab
é ¡
Ġh Ã¢u
ĠEss ential
Ġè Ĭ±
ĠNat ri
2 17
w ick
Ġt áº¡nh
othi ng
L Ã£i
25 7
ĠPol o
ĠTh Ã¬a
Ġ( ?)
Th ao
Hu áº¥n
l ak
ĠP erry
ĠO EM
Ġåº ķ
Ġåħ© lÆ°á»¡ng
Ġ: (
34 3
g ui
Ġå Ħ
ĥ tham
Ġr Ã¡m
Ġæĸ °
G á»ĳi
s uc
ĠAud ition
ĠP GÄĲ
kho áº£n
ĠæĿ ĸ
ĠQU A
ĠChr om
ĠSex y
Ġr á»¥m
ĠEx po
Ġphot pho
ĠON LINE
ĠAr mani
Ġbox ing
S oc
Äĳ am
ĠÄĲH CÄĲ
Ġn á»ĭu
nhe im
ĠCort ex
t áºŃn
ĠCB CS
ĠK od
ĠY ing
c Ãłng
Ġo unce
NT M
ĠPV F
ĠN Ã¡m
ph Ãº
ĠF T
Ng á»įn
ĠÄĲá»ĺ C
ĠMuse um
ĠL áº·ng
Ġpas te
b Ã¡
Ġv ape
ãĢ Ĳ
ry s
ĠSim ple
F in
ĠM ET
ÄĲ iÃª
ib a
Ġå¥ ½
ĠC BS
at is
ĠB ub
Ġpl ace
itt en
ĠFuku oka
Ġng áº¥u
ĠåĪ ©
ĠæĿĸ trÆ°á»£ng
ĠB anh
Ġ3 18
Ġ200 00
ĠÄĲo Ã¡n
ĠCer ato
b Æ¡m
Ġ35 6
ĠDTS D
ĠB iá»ģn
ÄĲ u
Ġa z
ĠSo le
Ġb áº½
ĠWell ington
ĠR Ãło
Ġ? "
Ġ! "
ĠèĢ ¶
kt c
Ġ28 3
Ġèĭ ¦
ĠNe il
ĠvÃ© o
Ġ3 95
' ll
Ġm r
ĠBack up
Ġval ue
Ġr á»įc
ĠGh ana
K eo
ĠEr ror
ategor ized
Ġs ÃŃnh
Ġx Æ°Æ¡
Ġr etro
Ġba ht
ĠTH áº¢O
ĠVTV cab
ĠOl iver
olo gies
Ġéķ· trÆ°á»Ŀng
t uyÃªn
ĠTh ua
80 5
Ġ19 19
Æ£ á»Ŀng
P aul
ĠI EC
tho ai
âĢ º
ĠBud apest
ĠK á»ī
Ġåºķ Äĳá»ĥ
C á»ı
l ite
à §
Ġ19 27
33 4
r Ã´n
ĠAr my
ĠSh a
Ġret urn
Ġkay ak
ua wei
ĠÄĳ iáº¿ng
is ode
ĠÄĳá»§ i
to is
Ġ30 7
ĠSP A
Ġcr edit
g or
ĠTr ay
ĠInter Continental
Ñĥ ÑĤ
ĠDes champs
ĠMar gar
ĠSh ah
P RO
r pm
ĠH end
Ġå± ħ
9 30
Ġf amily
Ġn áº¯c
Ġnh Ã´ng
Ġïģ Ħ
l á»Ĺ
kh áº¯c
D á»įc
Ġk in
ĠBet is
ĠPra ha
ĠåŃ¸ há»įc
ĠM ID
V irus
Ġhá» £
99 8
Ġçľ ĭ
Ġä¹Ŀ cá»Ńu
O ut
ph Ãłm
ĠWin d
ĠB es
ĠM ÃĥI
kh anh
Ġser otonin
m á»ĳi
eg ra
yl en
ĠtÃ¢ p
ĠMon itor
Ġå· ŀ
01 4
A lex
ĠL GBT
çİ °
sec urity
ĠC atherine
thu áºŃt
ĠKH L
ĠNh iÃª
min al
Ph Ã¡i
ser ies
åı ¯
C oi
j un
Ġcust om
ĠÄĲ Ã¡i
Ġf áº£i
ĠC á»©ng
ĠS á»ĳc
Ġcon sole
ĠVN CB
Man chester
ĠK W
60 5
B uá»ĵn
ĠS app
60 6
ĠãĢ Ĭ
ĠBoo st
ĠK ot
ek o
Ass ad
ĠT at
ĠMon te
ĠD ick
ver tis
des ign
æŀ ľ
7 75
V er
oy es
imble don
S W
Ġc reat
10 24
à¸ ĩ
Ġ3 49
H p
ĠVI áº¾T
ngu oi
Ġcarot ene
L Æ°á»Ľi
M AT
ĠGi ant
Ġr á»§ng
I Z
K C
ĠÄĲ áº²NG
ĠTan aka
n ai
Ġ ut
ĠB Ãły
ĠS underland
ĠA uckland
ER O
Ġ1800 6
Ġn áº±ng
Ġngu á»µ
Ġåı ĥtham
ĠBro s
ĠØ ª
Ï ĥ
Ġn eon
ill ac
ĠTr uyen
tr uc
dr en
M el
HO P
ht ag
sa w
v iá»ĩt
ĠM otion
Ġ" "
Ġé ¼
ĠOb ject
Ġqu áº¿t
£n a
c oi
ĠPav ilion
d á»±a
ĠE k
ĠM Iá»ĢN
Ng uyá»ĩn
ĠHá» Į
ĠMor occo
Tho áº¡t
ĠK end
ĠBH D
Ġw ithout
Ġ01 8
ber ra
Ġå¿ ħ
gg s
b á»¯a
Ġch iá»ĥu
Ġkh áº£nh
ĠF utsal
ĠSt at
CL OS
and owski
D ay
D om
ĠBa h
Ġng á»ķ
ĠL ens
ĠRS S
ĠQu ebec
ĠY uki
tr ack
ĠCl ient
Ð½ Ð¾Ð¹
b re
Ġ09 67
B ro
Ġst icker
Ġshop ee
ĠD iáº¿p
Ġæ± Ĥ
h á»ıi
ill kin
ĠBr uno
ĠSport ing
ĠW EB
Ġåħ ¨
cc ess
ĠS end
ĠCS ND
c á»¥c
f at
z in
ĠSh an
ĠProtect ion
han na
Ġ0 243
v iá»ħn
ĠKH áº¨U
ond otel
ãģ ĳ
Mess i
Ġgiao duc
ĠNest lÃ©
aldehy de
forum otion
ĠLN ST
Ð ¤
ĠS ANG
19 71
æĪ ĳ
ĠL odge
Ġg oc
ĠD re
ĠNh á»ĩn
ĠBen Q
ĠåŃĹ tá»±
ven ia
CV I
ĠN Æł
ĠCap tain
te am
48 6
bong da
ĠéĤ £na
Ġlact ose
ĠF G
ĠTTT T
V OA
Ġthá»§ i
ĠÐ µ
BM W
e ur
ĠKh áº³ng
Ġhy aluronic
Inter national
Y C
Ġ09 49
ai hat
ĠVinas un
D Æ°á»¡ng
Ġh áºµn
us ter
ff in
ĠGu am
ĠCong o
Ġé¾ į
b á»Ļt
Ġtu á»µ
Ġha ha
m aker
ĠG out
Ġ26 9
Ġh Ã½
kus en
W TO
ĠT AM
ĠB ear
ĠG ra
Ġsho ot
ĠS AL
ĠPh en
cop ene
L iá»ģn
ĠK EY
ĠCo le
Ġå¤§åıĳ å¿«ä¸ī
- âĢľ
m ac
ĠAU X
ĠSe an
b iet
Ġwhi sky
Ġæĥħ tÃ¬nh
ĠN ancy
Ġ28 9
ĠSl ide
ĠGord on
Ġe qu
68 4
ĠÄĲ uá»ĳng
ul us
ïĢ ½
Ġm Ãº
Ng Æ°Æ¡
âĢı âĢı
at ment
ĠMar adona
ĠI A
oder ma
Ġ7 40
Ġåħ §
urn iture
Ho Ãł
Ġåĭ Ŀ
y eu
ĠH TT
or r
ĠF PS
eg in
Ġcol le
ĠDis trict
ĠRest aurant
A ug
ĠKh á»Ń
ĠE PC
ier ra
Ġkh Ã¡u
c ook
lo ve
Ġæ į
ethyl ene
m Ã´ng
Ġvo ice
g at
ĠX á»īu
ĠO CB
Ph Ã¹ng
m á»Ļc
â ļ
ç Ĥ
ĠR Ã´ng
Ġs ever
ĠN athan
\ \
ĠD AP
Ġo áº±n
and ez
Ġx áºŃp
Ġ3 26
Ġsai gon
Ġe va
48 4
b á»ĵ
ĠH XH
ĠHar ley
T y
ĠU HD
Ġh Ã¹n
ĠS ÃģT
ĠGran ite
3 19
if orm
L iá»ģu
b áº¯c
nh áº¡y
ĠW y
Ġ19 34
Ġå° į
G á»«ng
cc c
ĠP ali
29 6
Vin pearl
C ode
R á»ĳt
S oáº¡n
m Ã³c
s hire
ĠK now
ĠW A
ĠG U
g ang
Ġcort isol
Ġå·ŀ chÃ¢u
uz z
Ġs elect
ĠåĲ Ħ
ĠLi quid
fr iend
ĠLav rov
ist ol
Ñĥ Ð´
ĠB irmingham
Ġho ld
Ð¸ ÑģÑĤ
ĠPu erto
ow a
ĠAm ber
5 86
Ġcan ada
Ð¸ Ð´
ĠMat ic
Ġåı ª
Ġ á»ı
ĠChalleng e
Ġch in
ĠTo áº¡i
M F
Ġqu est
Ġ10 24
ph áº«u
st ad
27 6
ĠVill arreal
ĠDep ort
Col or
ĠåĿ Ĳ
Â ¦
Ph Ãª
ĠNh á»¥c
Ġdi ffer
ĠJew el
h áº¯n
al at
ÌĢ :
Ġtá» £
tu an
ĠChol esterol
ĠRach el
Ġngh ia
ĠM á»ĵ
ĠD erm
Ġáº¤ u
Ġïĥ ¼
C ab
Ġ19 28
ĠMal ay
ĠNG U
å ģ
ĠOn ep
Ġe ven
99 4
ĠKH UYáº¾N
ĠMed i
Ã¼ n
y on
ĠTr Æ°
Ð°Ð ¶
br unette
ia ce
Ġngo Ã¨o
ĠTher esa
Ġtr am
ĠCu á»Ļn
å¥ ³
ĠS OL
Ġphim moi
à¸ ±
TT M
ĠSaf ety
Ġs á»Ľt
ĠK ÃĪ
ĠG aga
3 79
ĠN ur
Ġthá»ĭ ch
ĠJan uary
au dio
d ulich
Ġnh Æ°á»Ľng
) ).
ĠAt om
Ġå±ħ cÆ°
x en
Nh á»ı
tr ex
Ġåľ ĭ
ich t
V á»ĭnh
u es
ĠL á»ģ
ĠF ri
ien s
ĭth á»ī
v ir
Ġth Ã³a
Ġqu á»³nh
38 4
ĠV á»¡
ĠK Ã¨
Ġf ord
reg as
Ġnon stop
ĠMat s
Ġb n
N iáº¿t
Ġto r
Ĳ káº¿t
ĠJ up
ĠCon verter
ĠÆ¯ á»Ľp
C á»±c
Ġk t
Ġto o
Ġt iep
ĠPost ed
Ġåĸ Ŀ
ĠAff iliate
ĠCh Ãºt
áº¹ c
29 8
ĠS ource
al ke
Ġf lo
if ilm
ĠLe ng
Ġ) :
28 4
Ġå§ ĭthá»ī
Ngh á»ī
pr om
ĠJul ia
Ġr um
ĠD in
ĠâĢ¦ ,
ANO I
ph un
ĠTH ÃĤN
ĠGIá» ľ
Ġkhá»ı ang
ret urn
pos ition
ĠKHL CNT
ĠC á»į
Ġs tock
ĠD Ã¢ng
BID V
r áº»
ĠNg Ã²i
alo id
ool s
ik ey
ĠèĢ¶ da
Ġd Ã¯
er man
Ġ7 87
ĠHerm es
Ġ3 13
Ġ7 14
b uá»ķi
M uá»ĳi
c od
Ġx á»ĭ
ie ve
ĠGi áº½
Ġ& #
Ġå°į Äĳá»ĳi
g lobal
ĠP sy
L Ã¡i
ĠK ant
ĠPe ace
B á»įc
p ower
ĠDur ation
Ġd Å©a
Ġt iá»ĥn
tr ÃŃch
B Ãª
r ine
Ġx s
ĠAustral ian
ĠTh áº£n
37 3
ĠTill erson
Ġå¾ ®
ĠT áº¢
ĠYo nhap
Gu itar
6 75
ĠåĸĿ hÃ¡t
ĠåĿĲ tá»įa
R ap
ĠPH á»¦
ĠTon er
ĠGor illa
Ġ077 98
Ġnh Äĥm
Ġ( $
P op
th oi
Ġlá»Ł m
ĠHam as
O m
op tion
ĠRoss i
Ġkq xs
X E
ond e
UYá»Ĩ T
19 53
ev e
27 4
ĠHond uras
s acchar
ĠVig o
j ib
è ĭ
Ġlu pus
ĠCopy right
ĠJoh ann
l m
ĠèĢ ³
Ġopt ions
ãģĹ ãģ¦
Ġtech n
Ġ7 89
ĠW imbledon
ĠSag ami
Ġmar ble
L TS
Ġo per
ĠN ÃĤNG
Ġchu oi
Ġthing s
ĠçĮ ¶
ĠC ÃĤU
ĠD ELL
ĠNik kei
ĠVers ace
ĠArmen ia
ch lor
ĠS weet
ĠJor ge
ĠS TT
Ġ( )
Ġbu long
th á»ķi
Ġ19 18
ĠCU á»ĺC
ĠCEN LAND
Ġèĭ¦ khá»ķ
Nh o
68 5
Ġcá»¡ i
Ð ¢
iv as
ngh á»ĭ
Ġé¤ ĺ
8 66
Ń Ĳ
ĠB av
Ġau t
Ġoffic etel
im oto
let t
ĠS eg
Z alo
ĠL Ãĥ
viron ment
S uz
Ġdo es
Ġåħ§ ná»Ļi
ĠN Ã©m
ĠL ind
ĠKard ashi
Ġ agen
28 3
DI NG
ĠB uck
Ġæ±Ĥ cáº§u
n one
Ġch Ãºi
ĠD MC
ro se
Ġ10 50
Ġçľĭ khÃ¡n
B ep
è ·
ĠT IÃĬN
Ġdi oxide
P s
24 1
Ġl Å©i
Ġpr ivate
ĠWal ter
ĠÐ¸ Ð·
M az
ĠAV IA
Ġskin ny
l iá»ģu
ser ver
ĠL á»¡
ĠK iá»ĥn
ĠPe ak
lam bao
Ġ64 66
ĠFus o
as is
ĠGI áº¤Y
B á»ĺ
b ec
Ġto wer
ĠæĪĴ giá»Ľi
h Ã´n
Ġ3 200
ĠBe ast
ĠCh Ã¡n
ĠCon c
Ġsn ack
ĠÄĲ ÃĥI
ĠHo áº¡
ĠEr n
ĠÆ ¬
Ġtin bds
st a
sim sodep
ĠTh ank
ĠSp y
æ Ļ
err or
è £
and ra
Ġâĺ ħ
X C
Ġnail s
ĠçĮ¶ do
) !
ĠLu ffy
Ġapp ear
7 000
Ġïĥ Ľ
ad os
gi oid
ĠCÃģ I
Ġ- --------
th ent
aw k
Â ¨
ĠH ep
ĠL it
ite z
Ġåıª chá»ī
Äĳ áº¯t
d ÃŃnh
ĠM umbai
ĠDor emon
ĠV á»Ł
is ing
ĠWell s
Ġob ject
ĠRum ani
i u
ĠTS C
ðŁ ı
Ġmu Ã´ng
Ġal en
F ire
ĠR az
ĠHold ing
Ġr oman
ĠP v
ĠJ amila
50 3
Ġx áº©m
ĠNg Æ°á»¡ng
ĠAl v
G Ã¡i
c it
Ġm Ã³t
ĠCN LÄĲ
v á»ı
D U
ĠB Ã³n
ĠR oos
th Ãª
ite k
ĠSon asea
hard core
V áº¿t
Ġdesign er
tr om
Ġim peria
Ġar ab
6 25
op mart
à¹ ī
Ġl aminate
ĠContin ental
w orth
ĠCh uyá»ģn
Ġp ep
ĠH Æ°á»Ľc
id ad
ĠÄĲT VN
Â» Â©
TK K
Ġlo s
Ġmu on
Ġnh iá»ĥu
ĠV ogue
Ġdo ck
ag ing
Ġl m
kh ung
rol i
iz ard
66 4
m Æ°á»Ŀi
ch áº¥m
ate k
Ġáº¾ ch
60 4
ĠU AV
Ng Ã£
ect ive
b áº§u
Ġch á»Ľi
ĠInd ian
ĠåĲĦ cÃ¡c
Ġlu u
ä¹ ĭ
Ġk angaroo
ĠN B
p aper
Ġk u
Ġk eng
Ġ3 23
ĠJ ab
we ight
Ġbik er
ĠåĭĿ tháº¯ng
Ġs ensor
ĠNiel sen
ĠAng ola
ĠÄĲHÄĲ CÄĲ
S Ã¢m
Ġm oc
ĠKh iá»ĥn
tr ao
h un
ĠB Ã´n
z ip
Ġt s
Ġm omen
Ġé ©
Ġsl im
ç Ń
Ġ25 3
ĠSy mb
78 7
ĠSA U
n á»ķ
Tr á»£
ivi er
Ø§ Øª
ĠMIN I
Ġth ap
ĠLight ing
G áº¯n
X Ã³a
Ġb Ãµ
ĠN ÃĢO
ĠF ib
Ġ29 2
ĠCH A
Å¨ NG
T an
Wh ite
ĠÄĲ Ã²i
am bi
Īn iÃªm
S á»£
38 7
bal a
Ġs atin
¿t Ã¢y
ĠSc andin
ç Ħ
Ġm Ãµi
5 15
Ġb ed
Ġä¹ ĺ
ĠMod em
ĠN BC
ĠNG ÃĢNH
ðŁ İ
quy á»ĥn
ĠInst all
Ġrub y
ĠL ÃŃt
ir am
Se ason
B Ã£o
t á»Ŀ
ĠTh iáº¿p
ss ey
Ġpr em
0 25
Ġc it
ĠS ÃŃp
Tu á»³
ĠSams on
Ġni em
ĠA ki
al ie
evel t
Ġmov ie
Ã ·
ou d
Ġ19 24
ĠL Y
ĠA CT
Ġtim es
KH ÃĶNG
Lo áº¡t
H Y
Ġap k
v re
Ġr ibbon
ĠG Ã¡nh
Ġ19 26
ĠBR G
Ġ4 75
ĠKh iÃªu
ĠKh á»ıi
L AN
d ium
g ether
ĠThom pson
Ġ5 45
è® ¡
ĠTh áº£i
ĠTh in
++ +
ĠL Äĥn
erm ain
Th Ã¡ch
å® ī
ĠÄĳá» Ľ
Ġhi Äĳ
Ġâĺ İ
70 5
ĠSo phia
Ġal ways
ĠEl ly
ĠFr eder
Im age
Ġs ake
33 1
W ashington
Ġn ak
27 2
Ġpen thouse
Ġ6 99
tr á»¥c
Ġhooc mon
. !
ĠW AN
O pen
ç ¦
ĠSer ena
ĠPay Pal
ct ors
ĠRi yad
ĠÄĲ ÃĪN
ess e
Ġ4 23
ĠMov ing
ĠK Ãªu
ĠVi en
enh agen
Ġp ok
ĠB AY
Ġtu á»ĵn
Ġ7 99
ĠMas c
Ġch á»į
ĠS Ãłng
ĠNgh iá»ħm
ĠRoy ce
z Äĥng
ĠG og
Ġæ §
Ð¾ Ñĩ
sh e
ĠH app
TR A
ĠAB B
z uki
ĠDrop box
d oi
ĠVin at
AS ONIC
ĠLever kusen
Ġé¤ĺ dÆ°
ĠVi e
ipp i
oss ible
ĠCarib bean
Ġch á»įt
ĠPh anh
ĠA coustic
Ġ3 79
Ġmel amine
ĠFuk ushima
ĠS uc
Kho áº£nh
Ġcaffe in
8 01
I U
ĠTT ÄĲB
ĠA aron
Ġphim bathu
ĠBag hd
r io
Ä ĩ
cont rol
çĲ Ĩ
Ġoptim ization
ĠMcL aren
Ġb ida
Ġs Ã¡c
Ġth iÃªm
ĠIv y
Ġé¾į long
ĠI MEI
35 6
ĠForm at
tour ist
ĠR ib
ab ad
ĠAS TM
ĠJenn er
Bu Ã´n
O b
az i
ĠNS A
Ġcal ories
ĠI CC
ĠDah ua
ĠR ED
ĠSoo bin
Ġd Äĥ
ĠIs lam
ĠÃī n
èµ Ľ
ĠThunder b
ĠMartine z
ĠCap ella
ĠV all
ĠTest osterone
ĠFul bright
ĠR oi
âĢ¦âĢ¦ âĢ¦.
Ġ28 1
Ġpr int
ĠB ath
ĠV Ä¨NH
it ano
Ġè¥ ¿tÃ¢y
ĠT ÃŃt
ĠTr Æ°á»£ng
Iá»Ĩ P
ĠOr leans
ĠHO áºłCH
Ġcer amic
V áº½
Ġå¿ħ táº¥t
Tr áº¡i
Ch á»ĳt
W OR
3 13
du oc
Ġr áº±n
ĠAnd r
ĠC Æ°u
Ġçµ Ĳkáº¿t
ĠèĢ³ nhÄ©
ĠKan ji
x Ã©t
x áº¿p
Â ¤
ĠL ÃĤM
ĠÃĲ Æ°á»Ŀng
Ġst ars
": [
M ob
ĠâĢĺ âĢĺ
M it
n ut
ĠD ÃĻNG
ĠAn land
ak awa
et to
m Æ¡
Ġr á»Ŀn
ĠS ophie
B Ãºn
ĠE SP
um inium
ãĤ Ī
Ġ21 00
og ne
ĠJan et
ĠDev il
ĠK áº¹p
ĠGi Ã£n
ĠMobile City
ĠLinked In
Ġ27 8
gr ade
ng er
ĠðŁ Į
ĠG C
Ad visor
ĠN ex
ĠbÃ© c
gi am
sa ch
ĠDe an
á»Ķ NG
Ġå¯ ¶
ed ine
ĠM Ã¡ch
âĺĿ âĺĿ
W ar
Ġclor ua
ĠM Ã©p
Ġitem s
Ġs áº©n
ĠI MO
h eo
Ġn Ãºng
ĠÃł h
ĠOm ron
Ġh Ä©nh
F DA
ca fe
ĠÄĳ Æ°á»Ľc
Ġ4 88
ĠN ong
ĠHa fele
ÑģÐº Ð°Ñı
Ġv c
Ġkho i
ĠPort land
ĠHy o
Ġhd online
b lo
å £
ĠPar ag
tay nguyen
Ġqu áº¯p
ĠC v
ĠSam Sung
itr ang
ĠUBMTTQ VN
ĠNH áºłC
tr á»ĵng
os p
Ġbar ie
ĠVol ume
ĠPL US
ĠLev ante
Ġnhá»Ľ p
ĠHero es
ĠT DC
ĠB eo
ĠDo or
Th an
ĠCH Iáº¾N
ĠKy i
Ġx ilanh
ical ly
Ġo ang
ĠBro thers
ĠBarb ara
ĠSeb astian
D ai
Ġr Ã©
ĠW a
Ser um
Ġ Æ°Æ¡n
Ġr Ã³n
Ġpro t
Ġfr iend
ĠGe un
ĠGun ny
b uilding
ĠSol ution
ĠMarsh all
ĠT áºŃt
D X
P age
ĠB Ã¡u
ĠCom fort
Ġbe fore
Ġbut ton
Ġb ob
ĠçĽ ®
Ġkh áº¥p
Ġ$ \
T áº£
T Ãº
60 2
55 2
á»ĩ u
ĠAlex a
Ġt it
Ġg áº±n
ĠTr ib
ĠSU N
ĠBer g
ĠIC E
ĠL ord
BT U
Ġx ang
69 6
ivers ity
ĠJac ques
ĠV UI
ĠKo ji
ĠJam ona
Ġch art
40 6
c ay
ĠW es
Kh áº©u
ĠHe at
ĠLew andowski
c Ãłi
ĠCh Ã¨o
4 35
w y
Ġ30 9
c ase
ĠS áº¼
) âĢĶ
B razil
y al
ĠS elfie
Ġta t
hi ll
áº® M
ĠCh Ã³ng
ĠCap itol
UB TVQH
ĠNgu oi
Ġ3 28
lo a
D OC
Ġ3 31
ight y
Ġser vices
ĠK us
Ġlay out
_ {
ĠCr aig
ĠSeason s
Äĳ á»Ļt
à¸ ģ
_ .
Ġng á»Ļp
ĠM oody
ĠÃĶ CAR
UY áº¾T
ru ary
ĠFell aini
h iá»ģn
ill as
Ãĵ N
Ġph oi
ĠN ÃĬN
ĠVietnam net
Ġfr amework
EG O
Ġcitr ic
oo f
yl ori
ĠBo om
ĠJur gen
ĠG á»ĮI
Ġdo uble
ep s
ĠCel ta
igu ain
Ch Ã¡o
Ġdo t
ĠR P
ock tail
ĠT Æ°Æ¡
Ġvi olin
Ġweb game
nes ota
UND AI
Ġta sk
ĠÄĳo m
v ens
Ġsp ace
onn aise
s mart
v ina
ĠH ÆłN
Ġfe el
? âĢĻ
ĠTh Ãły
ĠTH ÃįCH
H Æ¡i
T or
Ġå ļ´
Ð½ Ð¸Ðº
Ġå£ «
cac bon
ĠSund ay
Ġh á»ĳng
ĠSu u
Nh á»ĭp
ĠAd ren
ç ¨
ĠL iÃªng
ĠC OS
ĠLi oa
Ġv iá»ĥn
ant es
etro it
7 01
S áº¡c
Ġi i
ĠLo áº¡t
K Ãª
Ġgi ve
ĠM ip
ĠD yn
Ġc ass
ĠAz er
Ġb ase
ĠI G
ÑģÐº Ð¸Ð¹
D igital
H ow
ĠB um
ĠA Q
bun money
ip op
ĠTh ings
ĠCh ain
Ġhoney bunmoney
ĠÄĲ á»Ļn
ĠS áº¯m
H er
T Ã¹ng
ĠV á»¯ng
and ro
ĠOcean bank
ĠCour tois
ĠDoll ar
EN CO
Ġkho Ã©
loy d
ĠèĬ± hoa
ĠD ave
Tr iáº¿t
Ġç ª
Ġé«ĺ cao
ĠK iÃªm
Ġå¤ «
N áº¡p
b d
Ġmo usse
ĠPhot os
ĠPCT N
D J
ĠHai ti
ick en
Ġch á»ķng
art e
34 1
R X
ĠP AR
EP A
b h
h á»©a
Ġth á»ĳc
ĠJ AC
ngh á»ģ
ĠCu á»Ļi
Ġgift code
ĠN illkin
Ġ( %)
Ġy e
ub in
Viet Nam
âŀ ¢
ĠTer ra
ĠV ert
á»ĸ I
èĩ ª
j or
s elect
ĠV Ã²
lo áº¡n
ĠCP C
av ing
ĠèĲ ½
S w
l á»ĩ
ĠL ithium
co un
Viet Post
Ġg Ã´m
ĠD ota
Ġtrá»£ t
Ġ ay
iel ds
ĠL anh
ĠSK Y
ĠLeb anon
ĠCapital and
ĠFact ory
ĠN ÃĵI
ific ate
ĠEst rogen
³t Ãºc
Ġkhu c
ĠR ail
ĠPok Ã©mon
x oa
Ġx áº¡o
Tr Ã´ng
ĠBu Ã´ng
L iverpool
Ġm ooc
ist or
ĠVin ci
ĠRou ge
L ogo
Ġngo t
ĠèĦ «
Ġi ch
ĠLu ka
Ġè¶ ³tÃºc
ĠTh áº¯c
ĠM AN
ĠPen thouse
at ha
ĠTin taynguyen
ÃĲ Ã¢y
ĠKing ston
Ġtr áº¡c
N á»ĩm
ĠT CM
Ġr ender
ir con
VN TB
up ro
est ic
ĠHost el
Ġsoc vui
v iá»ĩn
ĠSalv ador
Ġt Ã³
Ġ5 32
el ec
b á»ĳn
ĠCh ange
ĠG oku
Ch iáº¿u
and om
ell ite
Ġcal cium
Ġåľ Ł
word press
n á»ĳi
A pr
A mp
L á»Ĺ
ĠBal tic
Ġn á»Ľp
ĠF pt
Ġ} );
ĠSi u
ĠLad en
V M
ĠÄĲá» ľ
Ġgi Éĳ
ĠD IN
Ġso Ã¡n
ep tion
Ġtur n
D ao
ĠV CS
gi Ã¡p
Ġ38 4
omat su
ĠAr ist
r ung
x Ã³a
ĠS XH
Ch ai
ĠAbd ul
H TML
i ang
Ġch ange
Ġd aily
ĠNG ÃĤN
ĠSe al
Ġ ace
Ġ5 22
ut ter
ĠDo an
Ġcan o
Ġus ed
f iles
Ġc Ã¹n
ĠG ain
Ð¸ ÑĨ
ĠÄĳu Ã´
ĠR ico
34 2
ĠPrin c
W ill
G X
l áº¡nh
or us
èµ Ħ
Ġç Ĩ
R Y
Ġtr á»ķi
Ġng á»¥p
78 6
ĠÄĲo Ã²ng
V DC
© Ĩ
Ġm k
vn d
ĠMal loca
Ð½ Ð°Ñı
Ġg al
act ice
ngh iá»ĩn
ĠB á»ĳt
ĠLau n
ĠHaw king
ä½ ľ
align center
ĠKardashi an
ĠA LA
ĠAb out
K w
n áº¡n
ad ol
IM O
ĠChe f
Ġåº ¦
A u
ì Ĺ
ĠO ur
AN TV
40 8
40 9
ĠC oh
ch on
ĠB X
ĠM WC
omon as
ĠS ne
5 68
x sm
av or
ĠDO C
ĠH Æ¯ÆłNG
om oto
lu ong
Ġsc reen
Ġå°ı tiá»ĥu
ĠGig abit
h au
ĠSen do
usse in
Ġcas io
ĠMir age
Ġm us
Ġk ÃŃt
Ġlu á»µ
tr iá»ĥn
ur se
ite c
g á»ĳc
Ġph os
U l
Ġt Ä©u
Ġdi va
ĠMar ble
ĠFab regas
ĠB ien
«h á»ıa
ĠS á»Ī
Ġpro duct
ĠEl vis
N Ã´
ĠS TC
0 35
Ġ09 47
ĠP Ã´
end ar
qu er
Ġ[ /
ĠLoc al
b eck
.. âĢĿ
ĠN ishi
ĠS op
ĠQu Ã©t
ĠEx treme
36 4
âĶ Ģ
Ġglu co
Ġhist amin
ĠMap le
kh Ã¡m
å ¨
nh iá»ħm
hi en
app a
ĠDo ji
Ġur Ãª
Ġma z
ĠCast le
Te am
M usic
k iáº¿p
ĠL á»ĳc
Ġæĭ ĪniÃªm
as ing
Ġçģ «há»ıa
ĠK ick
ĠOtt oman
D Ã¬
T Ã¡m
ĠA van
ĠLe ader
M áº¡ch
Ġch Ã¢y
ĠN NT
ĠS áº¥m
ĠÄĳo Ã¡
ĠAp ache
æı Ĳ
ĠSime one
V ir
to i
ĠNav y
ĠHI KV
" );
L ist
é »
s Ã³ng
40 7
ĠS Ã©t
ĠR ES
Ġsu ch
u in
85 8
Ġhá» ĭ
ĠShi eld
Maz da
C or
Ġr ing
men u
5 12
ĠTu e
ens ive
ãĤ ¿
ĠGh á»ģnh
os te
ĠS á»¨C
Ġxá»ĩ ch
6 45
s ar
ĠU TU
Äĳ áº£ng
ĠN eed
ĠI w
Ð½ Ð¾Ð³Ð¾
acom in
Ġca ble
36 3
bl azer
0 99
Ġ4 33
ĠV GP
ĠP I
ĠGar cia
ĠB og
J apan
Ġch Å©
ĠTh ree
M ov
Ġnh áº¡n
Ġ3 77
Ġç ĩ
any ol
ĠBuff on
j ong
Ġh et
f b
ĠV ÃĶ
m ich
ĠLane ige
A udio
Ġr á»Łm
ĠÄĲ ÃĢN
ĠTur in
ĠEsc ape
Ñİ ÑĤ
Ġqual ity
6 789
æŃ £
l áºŃu
Ġqu Ä©
ĠB PA
Ġser ial
ĠGold man
uz ia
ĠRoos evelt
Ġvi ber
". [
eg ie
Ġxen foro
B Æ¡
ĠBur berry
f ica
ar at
á»ĥ m
Qu ery
ern ame
ĠTHO áºłI
Ġ27 6
55 1
Thu á»Ł
l Ã²
Ġ14 40
Ġé¡ ĺ
ĠK K
ĠK BV
em ala
Ġtr ip
ĠM áºłNG
Ng uyen
Ġpar acetamol
19 57
ĠïĤ §
ĠBob by
Î ·
Ġc and
Ġ^^ .
Äĳ áºŃu
ĠGiá» ı
Ġ26 3
Ġhydro xy
ĠP Ãł
34 4
BVHTT DL
Ġqu Ã¬
Ġqu eo
ĠD áº¦U
Ġ40 8
ĠVin mart
Cá»© u
ng ang
Ġh áº¿ch
ĠC able
,âĢ¦ ),
ĠE ug
******** ********
b ol
c ial
Ġv otes
ĠH BO
Ġ ć
Ġb á»Ńa
ver de
ĠBl ood
ĠBen itez
din and
K Ã©o
ĠBe er
HD D
ĠStr ess
ĠVict ory
ĠGV HD
m ot
Ġpoly phenol
Ġç¶ĵ Kinh
Q SDÄĲ
po che
Ġ[- ]
ĠVal ue
ĠCop enhagen
ĠU cr
ĠQ SDÄĲ
ĠâĢ¦ âĢ¦âĢ¦âĢ¦âĢ¦
Len ovo
ĠF iles
Ġè ¢
TS KH
v il
ĠL ÃĬN
ĠP Ã¡c
ĠNail s
T ouch
Ġt we
ĠDu ke
á»ª A
Ġn á»¥c
00 000
Ġ" ...
ĠIll ustrator
L in
j c
s ud
Ġ7 47
ĠT oto
ĠVin tage
ĠMel ody
ĠïĤ ®
ĠH ern
ed es
AD E
L aser
Ġå¹³ bÃ¬nh
x uyÃªn
ĠM og
S top
Ġ4 44
Ð°Ð ¿
ĠGo thic
ĠL Ã¢
Ġdis play
ĠX Ã¡t
39 5
ĠJae joong
S á»ĳt
l ieu
Ġk Ã´
75 6
50 8
ĠDeport ivo
O G
ĠH wang
N áº¥u
g Ã³c
ĠÄĳ h
ĠG overn
Ġtal k
L á»Ľn
Qu Ã¡ch
Ġ= =>
A sus
... (
il er
ly m
w s
Ġc oll
Ġb á»§n
Ġ34 2
ĠDer by
ĠGelex imco
ĠèĦ« thoÃ¡t
S peed
ect Æ¡
ĠG om
ĠW ak
50 9
Ġcom pl
ĠPle ase
ĠÄĲá»ľ I
at ures
Ġ8 60
Ġ19 11
ĠMar ry
Eng lish
ĠSe ed
bai jan
ç« Ļ
c áº¥u
r est
ed ict
ĠMal acca
ĠST AR
ĠGram my
ĠT ol
GT GT
ĠInd iana
ĠæĿ ±
ĠBrook lyn
Ġn ode
Ġx Ã¬nh
it Ã©
AS TC
Ġca ption
to uch
ĠCu Ã´
ĠVik tor
Ġáº® c
Ġs áºŃy
Ġso up
ĠDut y
g Ã³p
ĠK ry
49 4
Ġle ad
g á»Ĺ
ĠM AI
Ġ12 000
Ġhu Ã½t
ĠPH áº¬T
Â» ,
ĠTr áº§u
S Ã¢u
ĠOz awa
b Æ¡
¡ Ã¡c
ĠG uat
ĠèĲ½ láº¡c
' ',
l ah
Ġcá»¥ ng
Ð° ÐµÑĤ
ÄĲá»ģ u
G ON
ĠH iguain
ĠL áº¦N
V Ã²i
ĠM áºŃn
Ġåı £
ĠMiss ion
Ġfin ish
k at
ĠÄĲ Ã£i
ĠX O
ĠVina Capital
. âĢĿ,
ðŁ Ķ
oster oid
ĠV F
ĠMin nesota
ĠAtl antic
ĠW OR
st atic
Ġle ng
ĠM á»Ģ
ĠD PI
ch áº¡m
Ġcafe in
ĠVP L
ĠBuff alo
t Ä©nh
Ġ3 29
Ġ5 15
S U
Ġå¥½ háº£o
Ġth Ãºi
ĠK ron
Ġ50 6
19 44
39 3
VietPost Bank
Ġf ilter
Ġinst all
ĠS EM
ĠKh Æ°u
ĠU g
ke nh
Ġè± Ī
ĠT itle
ĠV BA
ien ces
OR PG
ĠLe ica
Ġ29 7
ĠMiss ouri
led ge
ĠB erry
ĠP uma
Ġ9 70
ĠShow biz
t á»³
Ã ®
av at
be fore
ĠTr ader
ĠH áºłN
Ġprogester one
L au
Ġ80 8
Ġ áº»m
ĠÃģ P
ĠTÃ´m a
Ġb ua
ÄĲ á»ĳng
ĠCan berra
ĠLanc aster
ĠS áº¥u
ĠDL P
ĠIS BN
EX T
5 35
ĠS EC
¾ t
à º
ĠMar s
def ault
Ġ á»³
ĠD Ã©p
ĠE R
ĠW heel
M á»ĩnh
k un
ĠSer g
p at
ĠB ever
ĠO an
ĠKH á»İ
M Ã¡c
Ġ27 4
ĠPAN ASONIC
al on
Ġ50 2
ĠVN A
Ġvu á»Ļt
K á»ĭch
M AN
ĠV iá»ģn
hi d
Ġper fect
ãģ£ ãģ¦
Ġé¡ĺ nguyá»ĩn
W ord
Ġcu u
ĠBH L
Viet combank
ec ca
ĠSo fia
ä¸ ª
B U
é Ĵ
ĠPC B
ĠNGO áºłI
Ġè±Ī khá»Łi
ĠA AG
... ",
ĠE agle
l um
Ġs áº¡
ï¼ ģ
6 01
ĠM á»ĩt
v ico
Ġs akura
ĠJ AV
ĠCent ury
Ġgh Ã©m
ĠKro os
h á»ķ
b Ã´ng
qu á»·
ĠS IP
val ue
t á»¥ng
ĠN ut
ĠB OD
ĠR OS
f lex
Ġ09 2
ĠProduc er
Ãĵ M
uct ose
est one
Äĳ á»ĳc
ĠT us
ĠL Æ°á»Ľt
Ġr eb
ä» ¶
M H
ĠM eta
Ġæ ļ
ist ance
Ġthá» Ľi
ĠL ich
ĠK il
áº¾ U
OT E
ĠSpir it
Rob ot
B oost
ĠP ing
ĠZ ip
Ġdr ama
Ġïģ ¶
Ġex cl
ĠHoney well
media cdn
ecut ive
ent in
Ġè µ
ĠLegend s
ĠSB TN
Ġåľĭ quá»ĳc
9 11
s Ã´ng
Ġc loud
ĠL iving
Ġ4 15
Ġm ark
Ġb oc
Ġph á»Ŀ
ĠC ÃĤN
ĠH ussein
ĠNV L
Ġch amp
ĠS BT
ĠE ff
ĠcÅ© a
C all
ĠKh iÃªn
est ar
ĠSch alke
al ing
Ġba ch
[...]
