{"<s>":0,"<pad>":1,"</s>":2,"<unk>":3,"<mask>":4,"!":5,"\"":6,"#":7,"$":8,"%":9,"&":10,"'":11,"(":12,")":13,"*":14,"+":15,",":16,"-":17,".":18,"/":19,"0":20,"1":21,"2":22,"3":23,"4":24,"5":25,"6":26,"7":27,"8":28,"9":29,":":30,";":31,"<":32,"=":33,">":34,"?":35,"@":36,"A":37,"B":38,"C":39,"D":40,"E":41,"F":42,"G":43,"H":44,"I":45,"J":46,"K":47,"L":48,"M":49,"N":50,"O":51,"P":52,"Q":53,"R":54,"S":55,"T":56,"U":57,"V":58,"W":59,"X":60,"Y":61,"Z":62,"[":63,"\\":64,"]":65,"^":66,"_":67,"`":68,"a":69,"b":70,"c":71,"d":72,"e":73,"f":74,"g":75,"h":76,"i":77,"j":78,"k":79,"l":80,"m":81,"n":82,"o":83,"p":84,"q":85,"r":86,"s":87,"t":88,"u":89,"v":90,"w":91,"x":92,"y":93,"z":94,"{":95,"|":96,"}":97,"~":98,"¡":99,"¢":100,"£":101,"¤":102,"¥":103,"¦":104,"§":105,"¨":106,"©":107,"ª":108,"«":109,"¬":110,"®":111,"¯":112,"°":113,"±":114,"²":115,"³":116,"´":117,"µ":118,"¶":119,"·":120,"¸":121,"¹":122,"º":123,"»":124,"¼":125,"½":126,"¾":127,"¿":128,"À":129,"Á":130,"Â":131,"Ã":132,"Ä":133,"Å":134,"Æ":135,"Ç":136,"È":137,"É":138,"Ê":139,"Ë":140,"Ì":141,"Í":142,"Î":143,"Ï":144,"Ð":145,"Ñ":146,"Ò":147,"Ó":148,"Ô":149,"Õ":150,"Ö":151,"×":152,"Ø":153,"Ù":154,"Ú":155,"Û":156,"Ü":157,"Ý":158,"Þ":159,"ß":160,"à":161,"á":162,"â":163,"ã":164,"ä":165,"å":166,"æ":167,"ç":168,"è":169,"é":170,"ê":171,"ë":172,"ì":173,"í":174,"î":175,"ï":176,"ð":177,"ñ":178,"ò":179,"ó":180,"ô":181,"õ":182,"ö":183,"÷":184,"ø":185,"ù":186,"ú":187,"û":188,"ü":189,"ý":190,"þ":191,"ÿ":192,"Ā":193,"ā":194,"Ă":195,"ă":196,"Ą":197,"ą":198,"Ć":199,"ć":200,"Ĉ":201,"ĉ":202,"Ċ":203,"ċ":204,"Č":205,"č":206,"Ď":207,"ď":208,"Đ":209,"đ":210,"Ē":211,"ē":212,"Ĕ":213,"ĕ":214,"Ė":215,"ė":216,"Ę":217,"ę":218,"Ě":219,"ě":220,"Ĝ":221,"ĝ":222,"Ğ":223,"ğ":224,"Ġ":225,"ġ":226,"Ģ":227,"ģ":228,"Ĥ":229,"ĥ":230,"Ħ":231,"ħ":232,"Ĩ":233,"ĩ":234,"Ī":235,"ī":236,"Ĭ":237,"ĭ":238,"Į":239,"į":240,"İ":241,"ı":242,"Ĳ":243,"ĳ":244,"Ĵ":245,"ĵ":246,"Ķ":247,"ķ":248,"ĸ":249,"Ĺ":250,"ĺ":251,"Ļ":252,"ļ":253,"Ľ":254,"ľ":255,"Ŀ":256,"ŀ":257,"Ł":258,"ł":259,"Ń":260,"á»":261,"áº":262,"ng":263,"Ġt":264,"Ġc":265,"ĠÄ":266,"nh":267,"ĠÄĳ":268,"Ãł":269,"Æ°":270,"Ġth":271,"Ġv":272,"Ã¡":273,"Ġl":274,"Ġh":275,"Ġch":276,"iá»":277,"Ġm":278,"Ġk":279,"Ġb":280,"Ġnh":281,"Ġtr":282,"Æ°á»":283,"Ġs":284,"áº¡":285,"Ã´":286,"áº¿":287,"Ġn":288,"Ġkh":289,"Ãª":290,"Ġg":291,"Ġd":292,"áº£":293,"Ã³":294,"á»Ļ":295,"Ġng":296,"áº¥":297,"Ġp":298,"Ġph":299,"iá»ĩ":300,"á»ĳ":301,"Ã¢":302,"Ã¡c":303,"Ã´ng":304,"Ãªn":305,"ĠT":306,"Ã¬":307,"ĠÄĳá»":308,"ĠvÃł":309,"Ġvá»":310,"Æ¡":311,"á»§":312,"áºŃ":313,"ĠlÃł":314,"Ġgi":315,"áº§":316,"qu":317,"Ġqu":318,"Ġthá»":319,"ÃŃ":320,"Ġr":321,"iáº¿":322,"Æ°á»Ŀ":323,"Ľi":324,"Æ°á»£":325,"áº¥t":326,"Ġtá»":327,"Ġx":328,"ĠcÃ³":329,"Ġcá»§":330,"Ġcá»§a":331,"áº¡i":332,"uy":333,"ĠN":334,"Äĥ":335,"Ġhá»":336,"ĠC":337,"ĠcÃ¡c":338,"Ãº":339,"ong":340,"Ã£":341,"an":342,"Ã¬nh":343,"á»¯":344,"á»ĭ":345,"áº¯":346,"Æ°á»£c":347,"âĢ":348,"iá»ģ":349,"á»±":350,"Ã¢n":351,"á»Ļt":352,"ĠH":353,"ĠÄĳÆ°á»£c":354,"ch":355,"á»¥":356,"á»©":357,"Ġcho":358,"ĠkhÃ´ng":359,"Ã²":360,"Ãły":361,"iá»ĩn":362,"ay":363,"á»Ł":364,"Ġmá»Ļt":365,"Ġtrong":366,"inh":367,"áº·":368,"Ã¹":369,"Ġvá»Ľi":370,"iÃªn":371,"áº¡n":372,"ĠB":373,"Æ°á»Ŀi":374,"áº§n":375,"ĠÄĲ":376,"ĠV":377,"Æ°á»Ľ":378,"iá»ģu":379,"ao":380,"anh":381,"Æ°Æ¡":382,"Ġngh":383,"á»¯ng":384,"ang":385,"iá»ĥ":386,"Æ°á»Ŀng":387,"Ãłnh":388,"áº£i":389,"ĠngÆ°á»Ŀi":390,"á»į":391,"Ġnhá»¯ng":392,"ĠTh":393,"Ãłng":394,"ĠnhÆ°":395,"Ġ1":396,"áº£n":397,"ĠM":398,"á»ĩ":399,"Æ°Æ¡ng":400,"ai":401,"am":402,"Ãłn":403,"áº§u":404,"Ã¢y":405,"Ã´i":406,"Æ°á»Ľc":407,"Ãłi":408,"ĠÄĳá»Ļ":409,"in":410,"Ġho":411,"áº¿n":412,"ĠÄĳá»ĥ":413,"ung":414,"ĠL":415,"Ġ2":416,"ĠÄĳÃ£":417,"Å©":418,"Ġthá»ĥ":419,"ĠS":420,"on":421,"á»ĵ":422,"iáº¿t":423,"áºŃn":424,"ĀĀ":425,"á»Ń":426,"á»ķ":427,"uá»ĳ":428,"ÃŃnh":429,"Ġbáº¡n":430,"ĠP":431,"áºŃt":432,"Ã½":433,"Ŀi":434,"áº½":435,"Äĥng":436,"áº¿t":437,"au":438,"Ã¹ng":439,"áº©":440,"Æ¡n":441,"ĠcÃ´ng":442,"ĠâĢ":443,"ĠnÃły":444,"Ġhá»į":445,"Ã¡n":446,"ĠK":447,"..":448,"ĠÄĳáº¿n":449,"Ġtá»«":450,"á»ī":451,"ĠCh":452,"Ġsá»ĳ":453,"ĠTr":454,"iá»ĩt":455,"Ġkhi":456,"Ã©":457,"Ġlá»":458,"Ġ(":459,"á»Ļi":460,"Ġmá»":461,"Ã¡t":462,"Å©ng":463,"á»ĳi":464,"á»©c":465,"Ġsáº½":466,"ĠÄĳÃ³":467,"Ġra":468,"Äĥm":469,"Ġgiá»":470,"ĠlÃłm":471,"iÃª":472,"Ġvá»ģ":473,"ĠkhÃ¡c":474,"iáº¿n":475,"áº±":476,"Ġcáº£":477,"Ġdá»¥":478,"Ã¡i":479,"Ġnhiá»ģu":480,"ĠmÃł":481,"áº¥y":482,"Ġthu":483,"Ġá»Ł":484,"ĠcÅ©ng":485,"eo":486,"áºŃp":487,"Ã¡ng":488,"ĠD":489,"iá»ĩu":490,"Ġtáº¡i":491,"ĠG":492,"Ã¡o":493,"ĠNg":494,"ĠvÃło":495,"ĠÄĳá»ĭ":496,"iá»ĩc":497,"ĠhÃłng":498,"Ġláº¡i":499,"ĠtrÃªn":500,"Äĥn":501,"Ãºng":502,"00":503,"á»ģ":504,"Ã²ng":505,"em":506,"ĠPh":507,"Ġsá»±":508,"áº«":509,"ĠnhÃł":510,"ÃŃch":511,"áº¥p":512,"Ġhiá»ĩn":513,"ĠA":514,"Ġdá»¥ng":515,"Ã¢m":516,"Ġchá»ī":517,"Ġviá»ĩc":518,"Ãło":519,"áº·c":520,"Ä©":521,"áº£o":522,"ĠNh":523,"ĠÄĳáº§u":524,"Ġbá»ĭ":525,"Æ°á»£ng":526,"ĠthÃ¬":527,"Ġnháº¥t":528,"Ġpháº£i":529,"ĠnÃ³":530,"ĠQ":531,"ĠthÃłnh":532,"Ã²n":533,"áº¹":534,"ĠÄĳá»Ļng":535,"áº»":536,"±c":537,"áº¯c":538,"áº±ng":539,"ĠÄĳá»ĵ":540,"ĠnÄĥm":541,"áº·t":542,"Ã¡p":543,"Ġhá»įc":544,"er":545,"áº¡o":546,"uyÃªn":547,"Ġdo":548,"Ġ-":549,"en":550,"âĢĿ":551,"Ã¢u":552,"ĠnÆ°á»Ľc":553,"ĠtÃ´i":554,"01":555,"á»ı":556,"Ã¡nh":557,"á»±c":558,"Ã´n":559,"£p":560,"Ġquy":561,"ĥn":562,"ĠngÃły":563,"ĠgiÃ¡":564,"Ġlo":565,"á»Ļc":566,"Ġhá»£p":567,"Ìģ":568,"ĀĀĀĀ":569,"Ġto":570,"Ãºc":571,"áº¡t":572,"Ġy":573,"ĠhÆ¡n":574,"áº©m":575,"iá»ĥm":576,"ĠchÃŃnh":577,"Ġsáº£n":578,"Ġtiáº¿":579,"ĠâĢľ":580,"á»ģn":581,"Ġ3":582,"Ġquan":583,"Æ¡i":584,"ĠÄĳi":585,"ĠÄĳá»ĭnh":586,"áº¥n":587,"ĠnÃªn":588,"ĠmÃ¬nh":589,"ĠnhÃ¢n":590,"áº«n":591,"Ġcao":592,"uyá»ĩ":593,"Ġnghiá»ĩ":594,"Ġráº¥t":595,"áº¯t":596,"Ġgia":597,"á»ĭch":598,"Æ°a":599,"ĠÄĳá»ģ":600,"áº¿u":601,"ĠcÃ²n":602,"Ġsá»Ń":603,"Ġtá»ĳ":604,"áº£ng":605,"Ġthá»Ŀi":606,"Ġsinh":607,"Ġtheo":608,"Ġkho":609,"ĠcÆ¡":610,"ÄĲ":611,"á»¥c":612,"Ã¡y":613,"ĠÄĳá»ĵng":614,"ĠtrÆ°á»Ŀng":615,"á»ĳng":616,"iá»ģn":617,"Ġdá»±":618,"Ġtháº¿":619,"ĠcÃ¡ch":620,"Æ°á»Ł":621,"Ġthá»±c":622,"ĠÄĳiá»ģu":623,"iá»ĥn":624,"Ġcon":625,"ĠthÃ´ng":626,"á»©ng":627,"ar":628,"Ġthá»©":629,"Æ°á»Łng":630,"ĠNam":631,"ÌĢ":632,"Ġká»":633,"ĠchÃºng":634,"áº¡nh":635,"Ġmá»Ľi":636,"ĠkhÃ¡ch":637,"uáº¥t":638,"Ġsau":639,"iá»ĥu":640,"Ì£":641,"uyá»":642,"ĠhÃ¬nh":643,"ua":644,"ħn":645,"im":646,"ia":647,"ĠcÃ¹ng":648,"ĠViá»ĩt":649,"á»ķi":650,"ĠnhÆ°ng":651,"ĠKh":652,"Ġta":653,"Ġlu":654,"Ã¡ch":655,"Ġcáº¥p":656,"ĠtrÃ¬nh":657,"ĠviÃªn":658,"Ġpháº©m":659,"iÃªu":660,"ĠlÃ½":661,"ĠÄĳang":662,"ĠhÃłnh":663,"ĠnÄĥng":664,"á»įn":665,"ĠlÆ°á»£ng":666,"Ġtin":667,"Ġcháº¥t":668,"Ġvá»¥":669,"Ġbiáº¿t":670,"Ġqua":671,"á»ĳc":672,"áº¡ng":673,"ĠlÃªn":674,"Ġcáº§n":675,"Ġlá»Ľ":676,"ĠÄĳÃ¢y":677,"ĠphÃ¡t":678,"á»ĩnh":679,"uyá»ĩn":680,"ĠtÆ°":681,"á»£":682,"ĠnháºŃn":683,"áº¥u":684,"Ġhay":685,"uá»ĳc":686,"Ġnghiá»ĩp":687,"áº£m":688,"Ãºp":689,"Ġtá»±":690,"Ġgian":691,"á»įi":692,"á»«":693,"ĠnÃło":694,"Ġthiáº¿t":695,"ĠvÃ¬":696,"á»ĵi":697,"ĠnÃ³i":698,"ĠtÃ¢m":699,"ĠmÃ¡y":700,"Ã³a":701,"Ġtu":702,"Ġbá»Ļ":703,"áºŃy":704,"ĠdÃ¢n":705,"Ġkáº¿t":706,"Ġtáº¡o":707,"Ġxuáº¥t":708,"Ġbáº£o":709,"ĠtoÃłn":710,"Ġloáº¡i":711,"Ãªu":712,"al":713,"Ġvá»ĭ":714,"Ġmáº·t":715,"á»¯a":716,"or":717,"ĠgiÃºp":718,"Ġtá»ķ":719,"...":720,"Ġkinh":721,"Ġxe":722,"Ġtá»ĳt":723,"áº¯n":724,"âĢ¦":725,"it":726,"Ġbáº±ng":727,"áº¡ch":728,"ĠÄĳá»ĳi":729,"ĠtrÆ°á»Ľc":730,"Ġcáº§u":731,"Ġtháº¥y":732,"Ġthá»ĭ":733,"Ãºt":734,"á»ĵng":735,"ĠtÃ¡c":736,"Ã¨":737,"ĠÄĳiá»ĥm":738,"Ġ4":739,"Ġhá»Ļi":740,"Ġngo":741,"Ġtáº¿":742,"Ġhoáº·c":743,"Ġtiáº¿p":744,"Ġhiá»ĩu":745,"ĠâĢĵ":746,"Æ°á»Ľng":747,"á»Ĺ":748,"Ġ201":749,"Ġ5":750,"ĠÃ´ng":751,"es":752,"áº¹p":753,"Ġanh":754,"ĠÄĳÆ°á»Ŀng":755,"ĠtÃŃnh":756,"ĠthÆ°á»Ŀng":757,"ĠtÃ¬nh":758,"Ãªm":759,"ĠphÃ²ng":760,"ĠX":761,"Ġcu":762,"ĠQu":763,"uá»ĳn":764,"Ġhá»ĩ":765,"Ġpháº§n":766,"Ġnay":767,"Ġchá»©c":768,"Ġquáº£":769,"áº¯ng":770,"Ġem":771,"Th":772,"Ġchá»§":773,"ĠÃ½":774,"ĠÄĳo":775,"áº£nh":776,"ĠR":777,"ĠnhiÃªn":778,"ĠdÃ¹ng":779,"ĠGi":780,"Ġbáº£n":781,"ĠphÃŃ":782,"ĠÄĥn":783,"et":784,"á»Ńa":785,"á»Ļng":786,"Æ°u":787,"Ġlá»Ľn":788,"Ġbá»ĩnh":789,"Ġkhu":790,"á»įng":791,"Ġtá»Ľi":792,"ĀĀĀĀĀĀĀĀ":793,"áº¡c":794,"Ġkáº¿":795,"Ġgiá»Ľi":796,"Ã³ng":797,"uyá»ĥn":798,"ĠÄĳáº¡i":799,"Ġgiáº£i":800,"Ġthá»©c":801,"áº³":802,"ĠphÃ¡p":803,"Ġtrá»ĭ":804,"ĠÄĳáº¹p":805,"Ġsá»ĳng":806,"Ġchá»įn":807,"ĠÄĳiá»ĩn":808,"Ġcáº£m":809,"Æ°ng":810,"áº©n":811,"iá»ħn":812,"Ġhá»ĵ":813,"ĠgÃ¬":814,"ĠÃ":815,"at":816,"Ġdá»ĭch":817,"ĠquÃ¡":818,"Ã¬m":819,"Ġdoanh":820,"Ġhai":821,"iá»ĩm":822,"Ġcá»©":823,"á»Łi":824,"ĠyÃªu":825,"Ġtriá»ĥn":826,"Ġtiá»ģn":827,"Ġtrá»įng":828,"Ġtho":829,"Ġgiá»¯":830,"Ã¡m":831,"ĠtÄĥng":832,"Ìī":833,"Ġváº«n":834,"ĠtáºŃp":835,"Ġmang":836,"ĠbÃ¡n":837,"ĠváºŃy":838,"Ġty":839,"Ġtrang":840,"Ġan":841,"á»Ľ":842,"«a":843,"Ġmuá»ĳn":844,"ĠthÃ¡ng":845,"ĠdÆ°á»":846,"Ġmua":847,"om":848,"ĠÃ¡n":849,"Ãµ":850,"áº§m":851,"Ġbiá»ĩt":852,"el":853,"ĠliÃªn":854,"Tr":855,"Ġthá»ĳng":856,"ĠI":857,"Ġchiáº¿":858,"uyá»ģn":859,"Ġáº£nh":860,"áº³ng":861,"Ġchu":862,"Ã³c":863,"ĠHo":864,"á»Ŀ":865,"Ġthá»§":866,"ĠtiÃªu":867,"ĠnghÄ©":868,"ĠthÆ°Æ¡ng":869,"ĠhÃ³a":870,"Ġtay":871,"Ġtrá»Ł":872,"ĠÄĳá»ģu":873,"áº§y":874,"Ġnhau":875,"Ġhoáº¡t":876,"á»¹":877,"ĠtÃłi":878,"Ġ\"":879,"ĠÄĳá»ķ":880,"ĠcÃ´":881,"Ġcuá»Ļc":882,"ĠQuá»ĳc":883,"áº¡m":884,"Ġchá»ĭ":885,"ĠtÃ¬m":886,"Ġráº±ng":887,"ic":888,"Ġváº¥n":889,"Ġ6":890,"ĠcÃ¡i":891,"Ġtrung":892,"á»įc":893,"ĠÄĳÆ¡n":894,"Ġlá»±c":895,"Ġbao":896,"Ġláº§n":897,"ĠhoÃłn":898,"ĠU":899,"uá»ĳng":900,"ĠphÆ°Æ¡ng":901,"Ch":902,"201":903,"Ġda":904,"ĠtrÃŃ":905,"á»ħ":906,"Ġvi":907,"Ġgiao":908,"ĠbÃªn":909,"ĠvÄĥn":910,"áºŃu":911,"Ġthi":912,"ĠÄĳá»ĭa":913,"ĠF":914,"ĠÄĳáº¥t":915,"ĠCÃ´ng":916,"Ĺi":917,"á»ĵn":918,"Ġbáº¥t":919,"ĠbÃ¡o":920,"Ġquá»ĳc":921,"ĠchuyÃªn":922,"Ġchi":923,"ĠTrung":924,"Ġtá»¥":925,"hi":926,"ĠbÃłi":927,"Ġtiáº¿ng":928,"as":929,"Ġtá»ī":930,"áº¯m":931,"ĠngoÃłi":932,"ĠthÃªm":933,"Ġtham":934,"ĠsÃ¡ng":935,"Ġliá»ĩu":936,"ĠhÃ£":937,"Ġso":938,"Ġsá»Ł":939,"Ġnáº¿u":940,"ĠtÃŃch":941,"ĠchÆ°a":942,"ĠthÃ¢n":943,"á»Ŀi":944,"Ġrá»ĵi":945,"ĠHÃł":946,"ĠE":947,"Ã©p":948,"Ġá»©ng":949,"áº¥m":950,"Ġcháº¿":951,"Ġdáº«n":952,"áº±m":953,"Ġ0":954,"Ġgiá»Ŀ":955,"Ã©t":956,"ĠÄĳáº·c":957,"Ġtráº»":958,"Ġvá»«a":959,"ĠluÃ´n":960,"ĠthÃŃch":961,"Ġmá»įi":962,"ĠÄĳá»ķi":963,"Ã²a":964,"£i":965,"á»±a":966,"Ġsá»©c":967,"Ġchuyá»ĥn":968,"Ġbu":969,"ac":970,"Ã¬n":971,"ıi":972,"Ġcung":973,"Ġdá»±ng":974,"ĠnÆ¡i":975,"Ġsao":976,"ĠxÃ£":977,"Ġquyáº¿t":978,"Ġhá»Ļ":979,"áº¯p":980,"ro":981,"á»Ľi":982,"ĠkhÃ³":983,"le":984,"ĠÄĳáº·t":985,"ĠmÃłu":986,"Ġngay":987,"Ġgiáº£m":988,"Ġxem":989,"Ġ7":990,"Ġnghá»ĩ":991,"th":992,").":993,"ĠhÆ°á»Ľng":994,"Ġnhá»ı":995,"Ġkhá»ı":996,"Ġ,":997,"Ġná»Ļi":998,"Ġmáº¡nh":999,"ĠxÃ¢y":1000,"ĠváºŃt":1001,"Ġ10":1002,"Ġtuá»ķi":1003,"Ġtiáº¿t":1004,"Ġtá»īnh":1005,"is":1006,"000":1007,"ĠÄĳáº¡o":1008,"Ġdá»ħ":1009,"Ġdu":1010,"Ġphá»¥c":1011,"Ġmáº¯t":1012,"Ng":1013,"Nh":1014,"Ġká»³":1015,"ĠthuáºŃt":1016,"Ġthay":1017,"iáº¿u":1018,"uyáº¿n":1019,"ĠÄĳÃ¬nh":1020,"iÃªm":1021,"ĠsÄ©":1022,"Ġ8":1023,"Ġlá»ĭch":1024,"áº·p":1025,"Ġphá»ĳ":1026,"Ġnhanh":1027,"Ġbiáº¿n":1028,"ĠgÃ¢y":1029,"Ġvá»±c":1030,"Ġquyá»ģn":1031,"ĠphÃ¢n":1032,"Ġháº¿t":1033,"Ġphá»¥":1034,"Ġtá»¥c":1035,"ĠlÃºc":1036,"áº«u":1037,"áº¡y":1038,"ĠgiÃ¡o":1039,"Ġthuá»Ļc":1040,"ĠbÃ¬nh":1041,"Ġbáº¯t":1042,"ÃŃt":1043,"Ġchá»©ng":1044,"ÃŃn":1045,"uyá»ħn":1046,"Ġca":1047,"Ã´m":1048,"ĠláºŃp":1049,"ĠÄĳÆ°a":1050,"Ġdiá»ĩn":1051,"ĠÄĳÃ¡nh":1052,"Ġlá»Ŀi":1053,"ĠvÃ´":1054,"),":1055,"Ġlá»£i":1056,"ol":1057,"Ġgáº§n":1058,"Ġkiáº¿n":1059,"ĠnguyÃªn":1060,"ĠÄĳá»§":1061,"uá»ĳi":1062,"á»«ng":1063,"Ġmá»Ĺi":1064,"áº·ng":1065,"Ġtrá»£":1066,"ĠlÃ£":1067,"ui":1068,"ĠNá»Ļi":1069,"ĠMá»¹":1070,"ĠtiÃªn":1071,"á»ĥ":1072,"ĠtÆ°á»£ng":1073,"Ġtá»«ng":1074,"Ġthanh":1075,"Ġchiáº¿c":1076,"Ġtinh":1077,"Ġná»¯a":1078,"ĠbÃłn":1079,"ĠsÃ¡ch":1080,"ĠW":1081,"ad":1082,"ĠcÃ¡":1083,"ĠlÃ²ng":1084,"Ġkhiáº¿n":1085,"ĠtháºŃt":1086,"ĠÄĳá»©":1087,"Ġtruyá»ģn":1088,"Ġnghiá»ĩm":1089,"ing":1090,"Ġmáº¹":1091,"ĠchÆ¡i":1092,"ĠcÄĥn":1093,"Ġtá»Ń":1094,"á»ĳn":1095,"ĠY":1096,"Ġbá»Łi":1097,"ĠÄĳa":1098,"Ġkiá»ĩn":1099,"¡ng":1100,"Ġw":1101,"ĠAnh":1102,"ĠnhÃ¬n":1103,"Ġcá»ķ":1104,"Ġná»¯":1105,"Ġvá»ĩ":1106,"iÃªng":1107,"eb":1108,"un":1109,"Ġkhoáº£ng":1110,"Ġbá»ı":1111,"Ä©nh":1112,"ĠNguyá»ħn":1113,"Ġmá»©c":1114,"ĠnháºŃp":1115,"áº£y":1116,"Ġhiá»ĥu":1117,"ĠbÃ©":1118,"ap":1119,"Ġcá»Ńa":1120,"Ġchung":1121,"Ġ9":1122,"ĠdÃłi":1123,"uyáº¿t":1124,"ĠBá»Ļ":1125,"ĀĀĀĀĀĀĀĀĀĀĀĀĀĀĀĀ":1126,"ĠÄĳá»Ŀi":1127,"Ġquáº£n":1128,"Ġdiá»ħn":1129,"Ġcá»©u":1130,"ĠtÃªn":1131,"¯u":1132,"Ġgiá»¯a":1133,"Ġphong":1134,"Ġchiáº¿n":1135,"Ġtáº¥t":1136,"Äĳ":1137,"us":1138,"ĠquÃ½":1139,"Ġtra":1140,"Ġin":1141,"Ġnhu":1142,"Ġtriá»ĩu":1143,"Ġban":1144,"Ġtiáº¿n":1145,"ĠdÆ°á»Ľi":1146,"Ġhoa":1147,"Ġgá»įi":1148,"ĠÄĳá»Ļi":1149,"tr":1150,"Ġsáº¯c":1151,"uyá»ĩt":1152,"Ã¡u":1153,"Ġ19":1154,"Ã¹a":1155,"ĠO":1156,"Ġcáº£nh":1157,"ĠchÃ¢n":1158,"Ġlá»±a":1159,"Ġchuáº©n":1160,"Ġhá»¯u":1161,"ĠchÃŃ":1162,"Ġba":1163,"Ġmá»¥c":1164,"ot":1165,"áº¿p":1166,"Ġai":1167,"Ġáº¥y":1168,"Ġkháº£":1169,"id":1170,"Ġnhiá»ĩm":1171,"Ġtrá»±c":1172,"ĠkhÃŃ":1173,"ĠxÃ¡c":1174,"Ġkhai":1175,"ĠÄĳáº£m":1176,"il":1177,"Ã£i":1178,"Ġná»ķi":1179,"Ġhá»ıi":1180,"ĠcÃ¢y":1181,"Ġchuyá»ĩn":1182,"ĠsÃ¡t":1183,"ĠÃ¡p":1184,"Ġká»¹":1185,"Ġngu":1186,"ĠÄĳáº§y":1187,"Ġkiá»ĥm":1188,"ĠcÃłng":1189,"Ã³n":1190,"ag":1191,"ĠTrong":1192,"ur":1193,"ĠthÆ°":1194,"ĠcÃ¢u":1195,"Ġgáº·p":1196,"âĢĿ.":1197,"Ġchá»ĳng":1198,"Ġtiá»ĩn":1199,"ĠnghÄ©a":1200,"Ġco":1201,"ĠÄĳÃºng":1202,"Ġháº¡n":1203,"Ġ.":1204,"Ġthuá»ĳc":1205,"ĠVÄĥn":1206,"Ġviáº¿t":1207,"ĠtÆ°Æ¡ng":1208,"á»ĵm":1209,"Ã¢ng":1210,"Ġyáº¿u":1211,"Ġmáº¥t":1212,"ĠCÃ¡c":1213,"Ġhá»Ĺ":1214,"ĠhÆ°á»Łng":1215,"Ġtranh":1216,"ĠAn":1217,"Ġsang":1218,"ĠphÃ¹":1219,"Ġláº¥y":1220,"Ġcá»ĳ":1221,"ĠBÃ¬nh":1222,"ĠÄĳáº¡t":1223,"Ġmá»Ł":1224,"Ġchia":1225,"ter":1226,"ĠlÆ°u":1227,"ĠkÃ½":1228,"ĠrÃµ":1229,"ĠbÃł":1230,"ed":1231,"ĠgÃ³":1232,"ĠcÃ¡o":1233,"Ġmáº¡ng":1234,"á»ķng":1235,"Ìĥ":1236,"Ãłu":1237,"ĠJ":1238,"Ġtá»ĳi":1239,"ĠÃŃt":1240,"ĠcÆ°":1241,"Æ°á»£t":1242,"Ġtá»·":1243,"ĠNáº¿u":1244,"oo":1245,"ĠÄĳoÃłn":1246,"Ġf":1247,"Ġ12":1248,"ĠtrÆ°á»Łng":1249,"Ph":1250,"ĠtÆ°á»Łng":1251,"Ġvui":1252,"Ġcáº¡nh":1253,"iáº¿m":1254,"ĠhÃ£y":1255,"Ġnghe":1256,"Ġcá»¥":1257,"ĠÃ¢m":1258,"Ġgá»ĵm":1259,"ĠÄĲáº¡i":1260,"Ġmáº«u":1261,"Ġbá»ĳ":1262,"Ġminh":1263,"Ãºa":1264,"Ġdá»¥c":1265,"Ġcá»±c":1266,"Ġrá»Ļng":1267,"áºŃm":1268,"ĠMinh":1269,"ĠÄĳÄĥng":1270,"ĠkÃ©":1271,"ĠngÃłnh":1272,"ĠvÃ¹ng":1273,"ph":1274,"ĠchÆ°Æ¡ng":1275,"ĠkhÃ¡":1276,"Ġdanh":1277,"Ġ|":1278,"áº©u":1279,"Ġdi":1280,"Ġkhoa":1281,"Ġgiáº£":1282,"Ġchá»©":1283,"Ġdung":1284,"ĠNgh":1285,"Ġnguá»ĵn":1286,"ĠluáºŃt":1287,"ĠdÆ°á»¡ng":1288,"Ġ20":1289,"ĠdÃ¹":1290,"ĠÄĳáº¥u":1291,"Ġbiá»ĥu":1292,"ĠriÃªng":1293,"Ġtá»ķng":1294,"ĠÄĳá»Ļc":1295,"Ġtháº§n":1296,"Ġå":1297,"ĠváºŃn":1298,"Ã³m":1299,"ĠÄĲá»©c":1300,"ho":1301,"Ġtráº£":1302,"ĠtÃŃn":1303,"ĠbÃ³ng":1304,"Ġchá»ĭu":1305,"Ġthoáº¡i":1306,"Ġbay":1307,"įng":1308,"ine":1309,"Ãºi":1310,"ĠTP":1311,"Ġtráº¡ng":1312,"Ġlá»Ľp":1313,"Ãłm":1314,"Ġ:":1315,"ĠdÃ²ng":1316,"ĠphÃŃa":1317,"ĠTuy":1318,"Ġxuá»ĳng":1319,"ĠNhÃł":1320,"Ġnam":1321,"oÃłi":1322,"ĠmÃ´i":1323,"Ġcháº¯c":1324,"one":1325,"um":1326,"á»Ĺi":1327,"os":1328,"ĠtoÃ¡n":1329,"Ġxá»Ń":1330,"ĠlÃ¢u":1331,"ĠmÃ´":1332,"ĠHá»Ļi":1333,"Ġkhá»ıe":1334,"ĠÄĳÃ´":1335,"....":1336,"ĠdÃłnh":1337,"ĠÄĳÃ¢u":1338,"ĠquÃ¢n":1339,"ĠÄĳÃ¡ng":1340,"Æ°Æ¡i":1341,"Ġbiá»ĥn":1342,"ĠnÃ¢ng":1343,"Ġká»ĥ":1344,"iá»ĩp":1345,"áºµ":1346,"ĠÄĳau":1347,"Ġphá»§":1348,"Ġhoáº¡ch":1349,"Ġcuá»ĳi":1350,"Ġxin":1351,"10":1352,"Ġxa":1353,"Ġdáº¡ng":1354,"Ġpháº¡m":1355,"Ġgh":1356,"Ã¨n":1357,"Ġphim":1358,"Ġ15":1359,"á»³":1360,"ĠChÃŃnh":1361,"Trong":1362,"ĠÃ¡o":1363,"Ġtháº¥t":1364,"Ġviá»ĩn":1365,"ĠThanh":1366,"Ġuá»ĳng":1367,"Ġlá»ĩ":1368,"ĠÄĳÃ¡":1369,"ĠÆ°u":1370,"Ġráº»":1371,"ĳng":1372,"Ġnáº±m":1373,"Ġkháº©u":1374,"ĠÄĳoáº¡n":1375,"áº¡p":1376,"Ġthiá»ĩn":1377,"ĠNhÆ°ng":1378,"Ġnghá»ĭ":1379,"ĠÃŃch":1380,"lo":1381,"ĠNháºŃt":1382,"ĠsÆ°":1383,"á»Ńi":1384,"áº©y":1385,"Ġtá»©":1386,"ĠmÃ³n":1387,"ĠvÃłng":1388,"Ġo":1389,"Æ°á»Ľi":1390,"á»§y":1391,"ĠCÃ³":1392,"ĠÄĲÃ´ng":1393,"ĠphÃ©p":1394,"Ġvá»ĳn":1395,"ĠsÆ¡":1396,"Ġweb":1397,"ĠgÃ¡i":1398,"Ã¹i":1399,"Ġchá»¯a":1400,"Ġhuyá»ĩn":1401,"á»ĭp":1402,"áº§ng":1403,"ĠnhÃ©":1404,"Ã£n":1405,"ĠhÃ²a":1406,"ĠBáº¡n":1407,"ND":1408,"ĠbÆ°á»Ľc":1409,"ĠÄĳÃ´i":1410,"ĠtrÃ²":1411,"Ġ2018":1412,"ĠchÃº":1413,"Ġnhiá»ĩt":1414,"ĠtráºŃn":1415,"ĠMá»Ļt":1416,"ĠkÃŃch":1417,"Ġtráº¯ng":1418,"ĠSau":1419,"Ġgiá»ĳng":1420,"Ġsáº»":1421,"ĠKhi":1422,"Ġxanh":1423,"Ġtáº£i":1424,"ĠmÃ´n":1425,"uÃ´i":1426,"Ġtuyá»ĩt":1427,"ĠthÆ¡":1428,"ĠgiÃ¡c":1429,"ĠBáº¯c":1430,"NG":1431,"ĠbÃ¡c":1432,"Ġngá»§":1433,"Ã£y":1434,"Kh":1435,"ĠÄĳÃłn":1436,"ĠvÃ²ng":1437,"ĠThÃłnh":1438,"Ġcá»Ļng":1439,"11":1440,"Ġtá»ĭ":1441,"ĠsÃ¢n":1442,"Ġthiáº¿u":1443,"ĠhÃºt":1444,"Ġlao":1445,"ĠÄĳÃ´ng":1446,"com":1447,"Ġnhá»Ľ":1448,"Ġhá»ĵi":1449,"Ġ30":1450,"ĠÄĳÃ¡p":1451,"ĠvÃłi":1452,"ĠÄĳÃ³ng":1453,"uÃ¢n":1454,"ion":1455,"ĠhÃ´m":1456,"Ġgiáº£n":1457,"Ġæ":1458,"ĠthuÃª":1459,"âĢĿ,":1460,"ĠnghiÃªn":1461,"Ġngoáº¡i":1462,"iv":1463,"ĠHá»ĵ":1464,"ĠtrÃ¡i":1465,"iá»ģm":1466,"Ķng":1467,"Ġphá»ĳi":1468,"ĠdÃłng":1469,"ĠVá»Ľi":1470,"ĠÄĳá»į":1471,"Ġkhá»ıi":1472,"Ġváº»":1473,"Ġcháº³ng":1474,"Ġná»ģn":1475,"re":1476,"«ng":1477,"ĠluáºŃn":1478,"ģm":1479,"Ġtrá»Ŀi":1480,"á»ĳt":1481,"Ġtáº§ng":1482,"CM":1483,"Ġtá»©c":1484,"Ġcháº¡y":1485,"ĠphÃ¡":1486,"ite":1487,"Theo":1488,"Ġá»":1489,"Ġ200":1490,"ĠTÃ¢y":1491,"Ġ/":1492,"ĠKhÃ´ng":1493,"Ġgá»Ńi":1494,"Ġla":1495,"ĠNhá»¯ng":1496,"Ġnháº¡c":1497,"20":1498,"ĠkhÄĥn":1499,"Ġnháº±m":1500,"ĠsÃ¢u":1501,"ĠÄĳá»įc":1502,"Ġcháº¿t":1503,"Ġkiáº¿m":1504,"ĠmÃ¹a":1505,"Ġbá»ķ":1506,"ig":1507,"Ġláº¡nh":1508,"ut":1509,"ĠTÃ´i":1510,"and":1511,"ĠTo":1512,"Ġkhoáº£n":1513,"âĢľ":1514,"ĠIn":1515,"Ġmá»ģm":1516,"ĠÄĳá»©ng":1517,"Ġnháº¹":1518,"ent":1519,"ĠhÃ£ng":1520,"ĠNgÆ°á»Ŀi":1521,"ĠDo":1522,"ĠgÃ³p":1523,"Ġ11":1524,"Ġmong":1525,"Ġsuáº¥t":1526,"ĠÃģ":1527,"ĠBan":1528,"ĠÄĲÃ¢y":1529,"Ġdáº§u":1530,"Ġsá»Ńa":1531,"ĠlÃ£nh":1532,"ĠÃ´":1533,"ĠnhÃ³m":1534,"ĠthuáºŃn":1535,"Ġvá»įng":1536,"Ġchiá»ģu":1537,"ĠcÃ¢n":1538,"ĠphÃºt":1539,"iá»ħ":1540,"ĠVÃ¬":1541,"ĠxÃ©t":1542,"Ġghi":1543,"ĠkÃŃnh":1544,"ĠcáºŃp":1545,"Ġgiáº¥y":1546,"ame":1547,"ĠÄĲiá»ģu":1548,"ĠLong":1549,"Ġtuáº§n":1550,"ĠHoa":1551,"ĠâĢ¢":1552,"ĠháºŃu":1553,"ĠDÆ°Æ¡ng":1554,"ĠThu":1555,"Ġsáº¡ch":1556,"Ġchá»ĵng":1557,"ĀĀĀĀĀĀĀĀĀĀĀĀĀĀĀĀĀĀĀĀĀĀĀĀĀĀĀĀĀĀĀĀ":1558,"Ġmiá»ħn":1559,"ĠHáº£i":1560,"âĢĵ":1561,"ĠtrÃ¡ch":1562,"ĠHoÃłng":1563,"ĠtrÃ¡nh":1564,"ĠSÆ¡n":1565,"up":1566,"ĠquáºŃn":1567,"ĠTá»ķng":1568,"Ġmáº¡i":1569,"Ġcáº£i":1570,"Ġlá»ħ":1571,"ĠThá»ĭ":1572,"ĠChÃºa":1573,"ĠÄĳÃło":1574,"Ġvá»£":1575,"Ġtuyáº¿n":1576,"Ġmá»¹":1577,"ĠÄĳem":1578,"ĠThÃ¡i":1579,"ĠchÃ³ng":1580,"Ġi":1581,"ĠkhÃ¡m":1582,"Ġtá»ĭch":1583,"ec":1584,"Ã³i":1585,"ĠChá»§":1586,"ĠhÃ¡t":1587,"ĠtáºŃn":1588,"ĠlÄ©nh":1589,"Ġnguy":1590,"ĠthiÃªn":1591,"ĠÄĲá»ĵng":1592,"Ġcam":1593,"Ġtuyá»ĥn":1594,"Ġchá»Ĺ":1595,"Ġháº¥p":1596,"ĠVi":1597,"Ġnghá»ģ":1598,"ĠkÃ©o":1599,"Ġ100":1600,"Ġtháº¥p":1601,"2018":1602,"ĠTrÆ°á»Ŀng":1603,"ĠmÃłn":1604,"ĠmÃ¡i":1605,"á»Ļn":1606,"Ġhiá»ĥm":1607,"Ġtháº©m":1608,"Ġpháº£n":1609,"ĠmÃ¡u":1610,"ĠnÃłng":1611,"ĠÃ¡nh":1612,"ĠnÃ³ng":1613,"ak":1614,"Ġnghá»ī":1615,"Ġsá»£":1616,"uá»ĳt":1617,"Ġchá»īnh":1618,"Ġduy":1619,"á»¡":1620,"Vá»Ľi":1621,"ĠkhÃ³a":1622,"ĠngÃ¢n":1623,"Ġá»ķ":1624,"Ġxáº£y":1625,"ĠPháºŃt":1626,"Ġkháº£o":1627,"ĠchÄĥm":1628,"ĠthÃ´i":1629,"ĠxuyÃªn":1630,"Ġquanh":1631,"Ġháº¡i":1632,"ĠhÆ¡i":1633,"Ġná»ĳi":1634,"Ġlinh":1635,"Ġthá»§y":1636,"ul":1637,"Ġa":1638,"ĠdÃ¢y":1639,"Ġcháº¯n":1640,"ĠÄĳáº£o":1641,"ĠchÃºt":1642,"line":1643,"Ġbuá»ķi":1644,"Ã¨o":1645,"Ã¨m":1646,"ĠthÃ¡i":1647,"Ġmáº¯c":1648,"ĠBáº£n":1649,"ĠkÃª":1650,"ĠUS":1651,"ĠVÃł":1652,"Ġtai":1653,"Ġ18":1654,"Ġä":1655,"Ġkiá»ĥu":1656,"ĠtÃ´":1657,"Ġtháº¯ng":1658,"Ġtráº£i":1659,"á»Ľm":1660,"ĠtÃ¹":1661,"ip":1662,"ĠnÃ´ng":1663,"ex":1664,"19":1665,"ir":1666,"Ġnhá»Ŀ":1667,"ĠÄĳÃªm":1668,"ĠngÃ´i":1669,"Ġháº¡":1670,"ĠÄĳá»ı":1671,"Ġmay":1672,"ĠxÃºc":1673,"Ġhuy":1674,"ĠTH":1675,"--":1676,"Ġgá»Ĺ":1677,"12":1678,"Ġuy":1679,"ĠHÃłn":1680,"Ġ...":1681,"Ġvai":1682,"ĠtÆ°á»Ľng":1683,"ĠrÄĥng":1684,"Ġdáº¡y":1685,"Ġniá»ĩm":1686,"ĠPhÃ¡p":1687,"Ġthá»Ń":1688,"ĠthÃº":1689,"CÃ¡c":1690,"ĠnháºŃt":1691,"ĠmÃ£":1692,"ĠLu":1693,"á»«a":1694,"to":1695,"áº·n":1696,"ew":1697,"Ġdáº¥u":1698,"50":1699,"Ġcháº¥p":1700,"Ġ09":1701,"ĠThiÃªn":1702,"Ġngá»ĵi":1703,"ĠTráº§n":1704,"Ġ2017":1705,"Ġtrai":1706,"ĠPhÃº":1707,"ĠcÆ°á»Ŀng":1708,"ĠbÃ¡nh":1709,"ĠvÆ°á»£t":1710,"Ġsá»Ľm":1711,"ĠtrÃ¬":1712,"Ġmáº·c":1713,"Ġtiá»ĥu":1714,"Ġláº¡c":1715,"Ġká»·":1716,"Ġchá»¯":1717,"Náº¿u":1718,"ĠthÆ°á»Łng":1719,"NH":1720,"Ġsuy":1721,"Ġkhá»Łi":1722,"ĠsiÃªu":1723,"ĠlÃ¡":1724,"ĠmáºŃt":1725,"Má»Ļt":1726,"Ġtháº£o":1727,"Ġchá»©a":1728,"ĠChÃºng":1729,"Ġháº¯n":1730,"Ġmiá»ģn":1731,"Å©i":1732,"Ġkháº¯c":1733,"ıa":1734,"Ġquáº§n":1735,"Ġma":1736,"Ġva":1737,"ob":1738,"Ġáº¥n":1739,"ĠÃĤ":1740,"áºµn":1741,"Ġbáº¿p":1742,"Ġsai":1743,"oa":1744,"Ã£o":1745,"ĠLÃª":1746,"av":1747,"Ġnáº·ng":1748,"iá»ħm":1749,"ĠnuÃ´i":1750,"Ġphá»ķ":1751,"á»·":1752,"Ġnghi":1753,"ĠÄĳáº©y":1754,"Ġç":1755,"Ġquen":1756,"Ġbá»¥":1757,"Ġsim":1758,"Ġ16":1759,"iáº¿p":1760,"ĠphiÃªn":1761,"Ġthuáº¿":1762,"Ġè":1763,"site":1764,"ĠChÃŃ":1765,"ĠNgoÃłi":1766,"kh":1767,"Ã²i":1768,"Ġláº½":1769,"art":1770,"Ġngon":1771,"vn":1772,"Ġthai":1773,"Ġtá»ĳc":1774,"ĠChÃ¢u":1775,"ĠcÅ©":1776,"Ġcáº¥u":1777,"Ġquay":1778,"Ãµi":1779,"ĠÄĳÃ¨n":1780,"á»įt":1781,"TT":1782,"ĠThá»§":1783,"ĠtÃ³c":1784,"Ġcha":1785,"ĠhÆ°Æ¡ng":1786,"Ġliá»ģn":1787,"ĠTá»«":1788,"Ġ13":1789,"ĠviÃªm":1790,"Ġtáº¥n":1791,"ĠLiÃªn":1792,"á»§ng":1793,"Ġtáº·ng":1794,"Ġlá»Ļ":1795,"Ġgiai":1796,"ĠTÃ¢n":1797,"ĠÄĳÃŃch":1798,"Ġ24":1799,"ĠngÄĥn":1800,"Ġsáºµn":1801,"ıng":1802,"Ġpha":1803,"ĠniÃªn":1804,"HCM":1805,"Ġluyá»ĩn":1806,"Ġgame":1807,"ĠsÃ³c":1808,"ĠcÆ°á»Ŀi":1809,"Sau":1810,"ĠthÄĥm":1811,"ĠTheo":1812,"ĠTháº¿":1813,"Ġmáº¥y":1814,"ub":1815,"Ġ[":1816,"Ġkia":1817,"ĠhÃłi":1818,"ĠphÃª":1819,"ĠÄĳen":1820,"Báº¡n":1821,"iáº¿ng":1822,"ĠgiÃ¡m":1823,"Ġ14":1824,"ĠcÃ¡n":1825,"Ġsung":1826,"BND":1827,"ĠThÃ´ng":1828,"ĠquÃ¡n":1829,"Ġsá»¯a":1830,"ĠdÃ¡ng":1831,"ĠtÆ°Æ¡i":1832,"Ġlá»Ĺi":1833,"Ġtá»Ļi":1834,"á»ĭnh":1835,"Ġngá»¯":1836,"Ġthiá»ĩu":1837,"ĠbáºŃt":1838,"od":1839,"Khi":1840,"ĠthÃºc":1841,"Ġá»ķn":1842,"Ġthao":1843,"ĠÄĲÃł":1844,"ĠLan":1845,"ĠtrÃºc":1846,"te":1847,"Ġthá»ĭt":1848,"ab":1849,"Ġáº":1850,"ĠÄĳá»ĳc":1851,"oc":1852,"ĠUSD":1853,"Ġ50":1854,"Ġcáº¯t":1855,"ook":1856,"ĠHÃ²a":1857,"ĠÃĶng":1858,"\".":1859,"ĠÂ":1860,"ĠÄĲáº£ng":1861,"Ġquáº£ng":1862,"ark":1863,"ĠÄĲá»ĥ":1864,"30":1865,"ess":1866,"Ġxáº¿p":1867,"Ġnáº¡n":1868,"Ġnhiá»ħm":1869,"ĠcáºŃu":1870,"Ġtá»Ļc":1871,"Ġtuy":1872,"Ġláº¯p":1873,"Ġngá»Ŀ":1874,"ie":1875,"ĠGiang":1876,"ĠPhÃ²ng":1877,"ĠTu":1878,"á»ĩt":1879,"ĠNgá»įc":1880,"Ġbáº£ng":1881,"Ġtrao":1882,"á»£i":1883,"ĠyÃªn":1884,"Ġgá»ĳc":1885,"Ġmá»ĳi":1886,"Ġtim":1887,"Ġbá»©c":1888,"Ġtáº§m":1889,"ĠQuáº£ng":1890,"ĠbÃły":1891,"Ġtháº³ng":1892,"ĠngÅ©":1893,"ĠXuÃ¢n":1894,"ard":1895,"Ġsuá»ĳt":1896,"oi":1897,"ĠphÃºc":1898,"ãĢ":1899,"ĠtÃłu":1900,"Ġkim":1901,"ĠmÃ¡t":1902,"Ġmu":1903,"Ġcoi":1904,"Ġháº¡nh":1905,"Ġdáº§n":1906,"ĠGiÃ¡o":1907,"Ġbá»ģn":1908,"ĠcÃ¡nh":1909,"ĠsÃ´ng":1910,"áº¹n":1911,"if":1912,"Ġháº¡t":1913,"ĠNguyÃªn":1914,"Ġchá»Ŀ":1915,"âĢĻ":1916,"Ġwebsite":1917,"Ġkáº»":1918,"Ġláº¡":1919,"ĠKá»³":1920,"ĠHÃ£y":1921,"ĠchÃ¢u":1922,"Ã³t":1923,"ĠkhÃ´":1924,"Ġ+":1925,"ĠBáº£o":1926,"Ġkiá»ĩm":1927,"Ġcá»Ń":1928,"Ġchiáº¿u":1929,"ĠnÃ©t":1930,"ĠmÆ¡":1931,"ĠnghiÃªm":1932,"á»¥p":1933,"ail":1934,"Ġdá»¯":1935,"ĠÄĳÃ³n":1936,"ĠSá»Ł":1937,"Ġthá»¥":1938,"ĠLo":1939,"Ġkhá»ĳi":1940,".âĢĿ":1941,"Nhá»¯ng":1942,"ore":1943,"ĠGia":1944,"Ġmáº¡ch":1945,"Ġcáº§m":1946,"ĠpháºŃn":1947,"ĠCon":1948,"Æ°á»Ŀn":1949,"Ġsáº¡n":1950,"Ġvá»¯":1951,"ĠKinh":1952,"Ġxu":1953,"Ġ17":1954,"Gi":1955,"Ġ&":1956,"ĠChá»ī":1957,"Ġxong":1958,"ĠÄĳáº³ng":1959,"ĠÆ¡n":1960,"st":1961,"ĠvÃ©":1962,"net":1963,"ĠHu":1964,"iá»ĩng":1965,"ĠKim":1966,"ĠsoÃ¡t":1967,"Ġ25":1968,"ĠUBND":1969,"ÄĲá»ĥ":1970,"ĠtÃ´n":1971,"Ġlai":1972,"Ġngáº¯n":1973,"Ġsáº¯p":1974,"Ġkhá»ķ":1975,"Ġhá»ĵng":1976,"CÃ³":1977,"TÃ´i":1978,"ĠcÃł":1979,"Ġhá»©":1980,"ĠViet":1981,"Ġvá»Ŀi":1982,"Ġtrá»ĵng":1983,"ĠmÅ©i":1984,"200":1985,"Ġgáº¯n":1986,"ĠkÃ©m":1987,"ĠâĢ¦":1988,"ĠsÃłn":1989,"est":1990,"Ġ2016":1991,"ĠbÃło":1992,"ĠlÆ°Æ¡ng":1993,"Ġtá»ĵ":1994,"ĠkÃ¨m":1995,"Ġmiá»ĩng":1996,"KhÃ´ng":1997,"ĠPhÆ°Æ¡ng":1998,"Ġhuyáº¿t":1999,"ĠNga":2000,"Ġtháº§y":2001,"Ġxo":2002,"\",":2003,"ĠTrang":2004,"ĠNinh":2005,"Ġbáº§u":2006,"ĠbÃŃ":2007,"ity":2008,"co":2009,"Æ°á»¡ng":2010,"Ġvá»¯ng":2011,"ĠQuáºŃn":2012,"Ġláº¯m":2013,"ĠmÃ£i":2014,"ĠÄĳá»«ng":2015,"Ġtáº¯c":2016,"ep":2017,"Ġdá»ĭ":2018,"ĠtÃ¹y":2019,"ĠgiÃ³":2020,"ĠthÆ°á»Ľc":2021,"ĠdÆ°Æ¡ng":2022,"ĠlÃłn":2023,"Ġxung":2024,"Ġchuyáº¿n":2025,"Ġcuá»ĳn":2026,"Æ°á»£u":2027,"ĠQuÃ½":2028,"Ġniá»ģm":2029,"oÃłn":2030,"ĠtÃºi":2031,"Ġthoáº£i":2032,"Ġrá»Ńa":2033,"Ġláº¯ng":2034,"ĠPhÃ³":2035,"ãĢĤ":2036,"ĠtÃ¡i":2037,"ĠlÃłnh":2038,"ĠÄĳÃ¡o":2039,"ĠrÃłng":2040,"Ġháº¡ng":2041,"ĠhÃ´n":2042,"Ġtáº¥m":2043,"ack":2044,"Ġáº¥m":2045,"ĠbiÃªn":2046,"Ġtruy":2047,"Ġtá»§":2048,"Ġgháº¿":2049,"ĠnÃºi":2050,"ik":2051,"ĠgÃ³i":2052,"Ġthá»«a":2053,"PT":2054,"era":2055,"Ġkhuyáº¿n":2056,"ĠZ":2057,"ĠmÃª":2058,"Ġháº§u":2059,"Ġchiáº¿m":2060,"ĠquÃł":2061,"ers":2062,"Ġthuyáº¿t":2063,"ov":2064,"ĠÄĳá»©c":2065,"Ġáº©m":2066,"Ġgiáº£ng":2067,"áºµng":2068,"á»¥n":2069,"ĠtuyÃªn":2070,"Ġon":2071,"ĠLinh":2072,"á»©t":2073,"ĠQuang":2074,"ĠÃĤu":2075,"ĠChi":2076,"ra":2077,"Ġnháº¯c":2078,"Ġnáº¯m":2079,"ĠLuáºŃt":2080,"ĠthÃŃ":2081,"ĠãĢĤ":2082,"ĠÆ°á»Ľc":2083,"ĠtÆ°á»Ŀng":2084,"ĠthoÃ¡t":2085,"ĠmÆ°a":2086,"Ä©a":2087,"do":2088,"gi":2089,"Ġá»§y":2090,"ax":2091,"ĠHá»ĵng":2092,"Ġxáº¥u":2093,"Ġcá»©ng":2094,"ĠBa":2095,"NgÃły":2096,"ist":2097,"ĠdÃły":2098,"áºŃc":2099,"Ġphi":2100,"Ãģ":2101,"2017":2102,"ĠtháºŃm":2103,"Qu":2104,"Ġchá»£":2105,"ĠCao":2106,"ĠVÅ©":2107,"ĠHiá»ĩn":2108,"ĠrÆ°á»£u":2109,"Ġnáº¯ng":2110,"ĠtháºŃn":2111,"ĠkhÃºc":2112,"Ġbuá»Ļc":2113,"ĠtrÃ¹ng":2114,"Ġtáº¯m":2115,"ĠcáºŃn":2116,"Ġtá»ĵn":2117,"ile":2118,"ĠhoÃ¡":2119,"ĠPhong":2120,"NgoÃłi":2121,"ĠÄĳáº¥y":2122,"Ġdá»±a":2123,"ort":2124,"Ġlá»Ńa":2125,"Ġnha":2126,"Ġlá»įc":2127,"24":2128,"ĠchÃ¡y":2129,"á»Ľp":2130,"ĠGiá»":2131,"Ġhá»įp":2132,"CÃ´ng":2133,"Ġha":2134,"Ġtháº»":2135,"Ġchá»¥p":2136,"ĠnhiÃªu":2137,"ill":2138,"ĠEm":2139,"ĠchÃ¡u":2140,"Æ¯":2141,"Ã©o":2142,"ĠTÃłi":2143,"á»Ļp":2144,"Ġcan":2145,"Ġbáº¡c":2146,"ĠbáºŃc":2147,"ĠlÃłng":2148,"ĠNhÃ¢n":2149,"Ġkháº³ng":2150,"ĠsÆ¡n":2151,"ĠNgÃły":2152,"ĠvÅ©":2153,"ĠÄĲÃ³":2154,"ass":2155,"ĠCho":2156,"ain":2157,"Ġnháº¥n":2158,"Ġly":2159,"ĠtÃ²a":2160,"ĀĀĀĀĀĀĀĀĀĀĀĀĀĀĀĀĀĀĀĀĀĀĀĀĀĀĀĀĀĀĀĀĀĀĀĀĀĀĀĀĀĀĀĀĀĀĀĀĀĀĀĀĀĀĀĀĀĀĀĀĀĀĀĀ":2161,"ĠgiÃłu":2162,"ĠmÃ¹i":2163,"Ġvay":2164,"ĠÄĳoÃ¡n":2165,",âĢ¦":2166,"áº³n":2167,"Ġká»ĭp":2168,"Ġmáº½":2169,"Ġé":2170,"ĠgÃł":2171,"ĠTáº¡i":2172,"ĠNhÆ°":2173,"Ġrau":2174,"ĠsÃ³ng":2175,"ĠVN":2176,"Ġe":2177,"TC":2178,"Ġhá»įa":2179,"Ġbiá»ĩn":2180,"ĠlÆ°á»£c":2181,"ĠNáºµng":2182,"Ġháº£o":2183,"Ġngáº¡i":2184,"ĠGiÃ¡":2185,"88":2186,"Ġninh":2187,"ĠphÃ³ng":2188,"ĠlÃ¡i":2189,"Ġnguyá»ĩn":2190,"Ġsong":2191,"ĠViá»ĩc":2192,"ord":2193,"ff":2194,"ĠtrÆ°ng":2195,"ĠPháº¡m":2196,"Ġtá»ı":2197,"ĠgÃ³c":2198,"VN":2199,"amin":2200,"Ġtá»Ŀ":2201,"Ġtri":2202,"ĠKhu":2203,"ĠÄĳá»¡":2204,"ĠÄĳÃª":2205,"ĠMÃ¡y":2206,"ĠLÃ¢m":2207,"ĠDu":2208,"ĠchÃłng":2209,"Ġmá»Ŀi":2210,"ĠÄĳÆ°Æ¡ng":2211,"Ġru":2212,"ĠTá»ķ":2213,"Ġkháº¯p":2214,"Ġnáº¥u":2215,"Ġ40":2216,"ĠkÃ¬":2217,"ick":2218,"ĠdÃµi":2219,"ĠbÃ¨":2220,"Ġphiáº¿u":2221,"Ġrá»«ng":2222,"ÃĢ":2223,"ĠhoÃłng":2224,"Ġtruyá»ĩn":2225,"Ġgá»įn":2226,"ĠSÃłi":2227,"ĠLÃ½":2228,"ly":2229,"ĠcÆ°á»Ľi":2230,"ĠrÃºt":2231,"60":2232,"á»Ľt":2233,"Ġtrá»«":2234,"á»ĭa":2235,"ĠÄĳá»Ļt":2236,"ĠÄĳá»©a":2237,"Ġgáº¯ng":2238,"ĠthÃ¡c":2239,"Ġliá»ĩt":2240,"ĠTÆ°":2241,"ĠÆ°Æ¡ng":2242,"Ġbá»Ļt":2243,"Ġhu":2244,"........":2245,"Ġu":2246,"Ġdá»ĭp":2247,"á»īnh":2248,"ĠquÃªn":2249,"Ġváº¿t":2250,"Ġháº³n":2251,"Ġxá»©":2252,"ox":2253,"Ġtrá»¥":2254,"Ġsá»ķ":2255,"Ġcá»¥c":2256,"ĠCÃ´":2257,"ĠTáºŃp":2258,"ĠkhÃ¡ng":2259,"Ġláº«n":2260,"ou":2261,"ĠtrÄĥm":2262,"ĠÄĲáº·c":2263,"ĠSt":2264,"ĠsÃłng":2265,"Ġá»ĳng":2266,"Ġ2015":2267,"15":2268,"ĠHá»į":2269,"age":2270,"Ġmá»¥n":2271,"ĠBÃł":2272,"Ġháº£i":2273,"ĠGiÃ¡m":2274,"Ġhá»ģ":2275,"ĠxÆ°Æ¡ng":2276,"ht":2277,"Ġbuá»ĵn":2278,"Ġcháº·t":2279,"io":2280,"Æ¡m":2281,"ĠlÆ°ng":2282,"25":2283,"ĠkhuÃ´n":2284,"áº¥c":2285,"ĠNha":2286,"ce":2287,"Ġnhá»±a":2288,"ĠNghá»ĭ":2289,"ĠngÆ°á»£c":2290,"ĠrÆ¡i":2291,"ĠngÃ´n":2292,"Tuy":2293,"Ã©n":2294,"ĠlÃ´ng":2295,"ĠThÃ¡nh":2296,"ĠvÆ°á»Ŀn":2297,"ate":2298,"Ġhá»Ļp":2299,"ĠVáºŃy":2300,"Ġbá»¯a":2301,"ĠThÆ°Æ¡ng":2302,"Ġbá»¥ng":2303,"ĠGÃ²n":2304,"ĠBÃªn":2305,"Ġung":2306,"ĠNÃ³":2307,"ĠdÆ°":2308,"Ġtáº¡p":2309,"ĠÄĳá»£i":2310,"ĠÂ»":2311,"ĠÄĲoÃłn":2312,"Ġgáº¥p":2313,"Tá»«":2314,"Ġsu":2315,"ev":2316,"Ġthá»Ŀ":2317,"ĠHá»įc":2318,"Ġkhung":2319,"ĠSáº£n":2320,"ĠÄĳÃ¡m":2321,"Ġ22":2322,"Ġ21":2323,"ĠÄĳÃ£i":2324,"īnh":2325,"ĠNÄĥm":2326,"Ġsa":2327,"ĠYÃªn":2328,"ĠthÃ´n":2329,"Hiá»ĩn":2330,"ĠDá»±":2331,"ud":2332,"ĠLa":2333,"ĠNgÃłi":2334,"Ġï":2335,"Ġbá»ģ":2336,"Ġsá»©":2337,"ĠbÃ¢y":2338,"Ġthe":2339,"cm":2340,"pp":2341,"ĠCÃ²n":2342,"Ġkhiá»ĥn":2343,"ĠÄĳÃ²i":2344,"Ġdinh":2345,"ĠquÃª":2346,"ĠThe":2347,"ue":2348,"Ġthang":2349,"Ġmá»«ng":2350,"ĠAr":2351,"Ġtrá»©ng":2352,"Ġcháº£y":2353,"ĠcháºŃm":2354,"ĠMai":2355,"Ġloáº¡t":2356,"Ġ=":2357,"Ġlan":2358,"ĠthÆ¡m":2359,"nam":2360,"ĠPhÃ¡t":2361,"Ġtáº¡m":2362,"23":2363,"Ġxinh":2364,"¦y":2365,"Ġpháº¡t":2366,"ĠÄĲiá»ĩn":2367,"Ġtháº£i":2368,"Ġ01":2369,"Ġhy":2370,"Ġthá»ıa":2371,"ĠÐ":2372,"á»©a":2373,"ell":2374,"ĠHÆ°ng":2375,"ĠVin":2376,"ÄĲT":2377,"Ġkem":2378,"ĠHai":2379,"Ġngang":2380,"ĠAl":2381,"Phone":2382,"ĠCH":2383,"ĠÄĳiá»ĥn":2384,"Ġlá»ĳi":2385,"ĠhÃłm":2386,"ĠKhoa":2387,"Ġrá»ĳi":2388,"ĠlÃ£o":2389,"Ġtha":2390,"ĠxÆ°a":2391,"Ġá»ŀ":2392,"ĠhÃ¨":2393,"Ġngá»įt":2394,"ĠCá»Ļng":2395,"Ġná»£":2396,"Ġbinh":2397,"uá»ķi":2398,"ĠcÃłi":2399,"Ġbi":2400,"ĠlÆ°á»£t":2401,"Ġthá»±":2402,"ÃĶng":2403,"ĠThiáº¿t":2404,"ternet":2405,"ĠÄĲÆ°á»Ŀng":2406,"ĠcÆ¡m":2407,"ĠcÄĥng":2408,"ĠÄĲÃ¬nh":2409,"Táº¡i":2410,"Ġko":2411,"á»ĭn":2412,"ĠthoÃ¡ng":2413,"ĠSá»±":2414,"ĠhÃło":2415,"Ġná»Ĺi":2416,"Ġná»Ńa":2417,"80":2418,"Ġsáº¯t":2419,"Ġá»¦y":2420,"ĠLe":2421,"Ġkhuáº©n":2422,"oáº¡i":2423,"ÄĲÃ¢y":2424,"Ġ23":2425,"ĠngÆ°Æ¡i":2426,"uc":2427,"top":2428,"Ġthá»ķ":2429,"Ġmá»ĩnh":2430,"ĠphÆ°á»Ŀng":2431,"ĠCam":2432,"ĠnghÃ¨o":2433,"tp":2434,"ĠÄĳá»ĩ":2435,"ĠcÆ¡n":2436,"Ġcáº·p":2437,"ld":2438,"ĠloÃłi":2439,"Ġquang":2440,"Ġdá»«ng":2441,"ĠthÆ°á»£ng":2442,"Ġtáº£":2443,"ĠgÆ°Æ¡ng":2444,"ebook":2445,"Ġhá»ĵn":2446,"99":2447,"NgÆ°á»Ŀi":2448,"âĢ¦âĢ¦":2449,"ok":2450,"itamin":2451,"TrÆ°á»Ľc":2452,"ĠphÃº":2453,"iz":2454,"ĠCÆ¡":2455,"ĠÄĲá»ĳi":2456,"Ġloáº¡n":2457,"ĠngÃłn":2458,"ĠbÄĥng":2459,"ĠTiÃªn":2460,"ĠchÃło":2461,"az":2462,"Ġ60":2463,"all":2464,"Ġlá»ĩnh":2465,"ChÃºng":2466,"//":2467,"2016":2468,"ĠhÆ°":2469,"Ġonline":2470,"hop":2471,"Ġtá»ķn":2472,"ĠVÆ°Æ¡ng":2473,"ĠTin":2474,"ĠtrÃł":2475,"Ġche":2476,"Ġ?":2477,"ĠÄĳáº£ng":2478,"Ġmá»±c":2479,"ĠÄĳÃłi":2480,"Ġngá»«ng":2481,"ĠnhÃłng":2482,"ĠChÆ°Æ¡ng":2483,"ĠBá»ĩnh":2484,"TV":2485,"±ng":2486,"Ġcl":2487,"Ġvid":2488,"Ġdiá»ĩt":2489,"ĠvÃŃ":2490,"Ġvá»ı":2491,"Ãºy":2492,"Ġof":2493,"ĠhÃ´":2494,"ĠViá»ĩn":2495,"Ġâ":2496,"ĠÄĳÆ°Æ¡":2497,"14":2498,"ĠThá»Ŀi":2499,"wn":2500,"Ġvideo":2501,"ank":2502,"ĠbÃ£i":2503,"ĠÄĳáºŃu":2504,"ey":2505,"Ġtráº§n":2506,"Ġmá»¡":2507,"ĠgiÃł":2508,"ĠiPhone":2509,"://":2510,"ĠBá»Łi":2511,"acebook":2512,"ĠkÃŃn":2513,"Ġlá»Ĺ":2514,"ĠdÆ°á»£c":2515,"Ġgan":2516,"Ġmá»Ļ":2517,"AN":2518,"Ġrá»Ŀi":2519,"Ã£ng":2520,"16":2521,"ĠTá»Ń":2522,"ah":2523,"18":2524,"ĠlÃ´":2525,"Ġná»Ļp":2526,"Ġngá»±c":2527,"ĠtÄ©nh":2528,"ich":2529,"ĠNgÃ¢n":2530,"ation":2531,"ian":2532,"ĠÃĲ":2533,"ĠbÃª":2534,"ton":2535,"ĠÃ©p":2536,"Ġnon":2537,"17":2538,"Ġbáº¡i":2539,"Ġháº¹n":2540,"uá»Ļc":2541,"ĠtrÃ´ng":2542,"ĠPhan":2543,"op":2544,"Ġthá»Ł":2545,"Ġváº£i":2546,"ĠthÃ©p":2547,"ĠtrÃº":2548,"ĠtrÃ²n":2549,"ver":2550,"ĠVÃ¢n":2551,"Ġvua":2552,"ry":2553,"Ġ27":2554,"ĠTÃ¢m":2555,"Ġti":2556,"ink":2557,"Ġmi":2558,"Ġáº©n":2559,"ĠXe":2560,"ĠQuÃ¢n":2561,"ĠCÃ¡ch":2562,"ĠgiÃłnh":2563,"ĠVinh":2564,"og":2565,"eg":2566,"ĠnÃ£o":2567,"ĠthÃ¹":2568,"ĠHiá»ĩp":2569,"ĠHÆ°Æ¡ng":2570,"Ġmai":2571,"ĠNew":2572,"Ġtrá»įn":2573,"oog":2574,"Ġtan":2575,"ĠdáºŃy":2576,"Ġtrá»¯":2577,"13":2578,"ty":2579,"Ġtá»ĩ":2580,"se":2581,"ĠSá»ĳ":2582,"Ġnhi":2583,"ĠÄĲá»Ļ":2584,"Ġmáº¯n":2585,"oogle":2586,"ĠHá»":2587,"á»³nh":2588,"Ġtáº¯t":2589,"ĠtrÃło":2590,"Ġpháº«u":2591,"ĠTáº¥t":2592,"ĠÄĳua":2593,"Ġduyá»ĩt":2594,"und":2595,"ĠtÃ´ng":2596,"Ġbá»įn":2597,"ĠlÆ°á»Ľi":2598,"Ġcamera":2599,"Ġvu":2600,"Iá»":2601,"á»§i":2602,"ĠPhÃºc":2603,"ĠQuy":2604,"Ġtreo":2605,"ĠÄĲáº§u":2606,"Ġviá»ĩt":2607,"ĠÄĲáº¿n":2608,"Ġlá»¥c":2609,"ams":2610,"Ġ26":2611,"ĠPl":2612,"ĠÄĳáº¿":2613,"ĠCáº§n":2614,"tel":2615,"ĠTáº¿t":2616,"Ġthiá»ĥu":2617,"ĠtrÆ°Æ¡ng":2618,"ĠOn":2619,"ĠtÃ¢y":2620,"Ġkhá»§ng":2621,"ĠÄĲá»ĭnh":2622,"ĠphÃ¡i":2623,"Ġ28":2624,"ĠMá»Ĺi":2625,"ond":2626,"ãģ":2627,"á»¯u":2628,"CH":2629,"ib":2630,"ĠHÃłng":2631,"ĠmÃ£n":2632,"Ġmá»ĩt":2633,"ĠHy":2634,"phone":2635,"Ð¾":2636,"ĠkÃªu":2637,"ĠbÃ©o":2638,"ĠVÄ©nh":2639,"ĠHÃ³a":2640,"22":2641,"Ġláº»":2642,"Ġbá»ĳn":2643,"Ġ2014":2644,"ĠThá»§y":2645,"ĠlÃŃ":2646,"ĠbÃ²":2647,"ĠkhÃ¡n":2648,"ĠtháºŃp":2649,"Ġbá»Ŀ":2650,"Ġáº¤":2651,"ĠÄĳá»īnh":2652,"Ġbá»¥i":2653,"ĠnÃªu":2654,"ĠTrÆ°á»Ľc":2655,"ĠSp":2656,"ĠHD":2657,"Ġht":2658,"40":2659,"ĠMar":2660,"ĠgiÆ°á»Ŀng":2661,"á»¥ng":2662,"Ġmá»ıi":2663,"ĠgiÃły":2664,"ĠrÃ£i":2665,"ĠBÃłi":2666,"ĠKhÃ¡nh":2667,"ĠNhiá»ģu":2668,"¢nh":2669,"Ġhá»©ng":2670,"Ġ'":2671,"are":2672,"ĠbÃ³":2673,"Ġpin":2674,"ĠTuáº¥n":2675,"Ġchua":2676,"2015":2677,"Ġhá»ıng":2678,"ĠHÃ¹ng":2679,"Ġcháº¥m":2680,"Ġ199":2681,"ĠThá»±c":2682,"Ġand":2683,"Ġgiá»ıi":2684,"ĠÄĳá»±ng":2685,"Ġkhá»Ľp":2686,"Ġ)":2687,"Ġphá»©c":2688,"ĠÆ°a":2689,"á»Ĺng":2690,"Ġtá»ĳn":2691,"LV":2692,"ĠtÃ¢n":2693,"ĠÄĲÃło":2694,"ĠMáº¹":2695,"ÃĶ":2696,"ant":2697,"ĠSh":2698,"ĠlÃ£i":2699,"su":2700,"Ġphu":2701,"Ġtiá»ģm":2702,"Ġloa":2703,"ĠTiáº¿n":2704,"Ġ29":2705,"ĠbÆ¡i":2706,"ĠbÆ¡m":2707,"ĠchÃ¹a":2708,"Ġ!":2709,"%.":2710,"¿½":2711,"Ġsáº¯m":2712,"ĠnhuáºŃn":2713,"II":2714,"Ġdao":2715,"ĠSinh":2716,"ĠkÃªnh":2717,"Ġthiá»ĩt":2718,"mm":2719,"Ġná»Ĺ":2720,"Ġváº½":2721,"á»±u":2722,"Ġpháº¥n":2723,"ĠthÃª":2724,"Ġ500":2725,"Ġvitamin":2726,"ĠdÃ¡m":2727,"Ġä¸":2728,"ĠBÃŃ":2729,"Ġcháº¡m":2730,"Ġhiá»ĥn":2731,"Ġná»ķ":2732,"ĠNH":2733,"Ġhttp":2734,"ĠÄĳá»ĭch":2735,"Ġdáº¡":2736,"ĠkhuyÃªn":2737,"Ġsá»¹":2738,"Ġbá»ĵi":2739,"ĠKhÃ¡ch":2740,"ĠTiá»ĥu":2741,"mart":2742,"ĠChu":2743,"iáº¿c":2744,"Ġcáº©n":2745,"ĠgiÃ£n":2746,"ĠDá»ĭch":2747,"TrÃªn":2748,"ĠThÆ°á»Ŀng":2749,"Ġthua":2750,"ĠÄĲa":2751,"áº¹o":2752,"ix":2753,"ĠHCM":2754,"ĠTNH":2755,"Ġcanh":2756,"Ġgiáº¥c":2757,"ĠtrÃłn":2758,"ĠBÃ¡o":2759,"ww":2760,"----":2761,"Ġvá»¡":2762,"ĠngÃ£":2763,"ĠTNHH":2764,"ĠMáº·t":2765,"CN":2766,"ĠSa":2767,"ina":2768,"ien":2769,"Ġse":2770,"ĠXem":2771,"Ġá»§ng":2772,"Viá»ĩc":2773,"ĠKáº¿t":2774,"ĠBiÃªn":2775,"Ġthá»į":2776,"ĠÄĳáºŃm":2777,"Ġhiá»ĩp":2778,"ĠRe":2779,"ĠsÃ´i":2780,"Ġdá»©t":2781,"Ġ80":2782,"Ġsá»ĳt":2783,"ĠLÃłm":2784,"Ġcá»ķng":2785,"ĠCá»¥c":2786,"ĠNháº¥t":2787,"aptop":2788,"ĠDÃ¢n":2789,"ĠvÆ¡":2790,"Ġtráº§m":2791,"ĠCá»ķ":2792,"our":2793,");":2794,"ĠmÃłng":2795,"Ġmá»ĭn":2796,"ĠthÃ¡nh":2797,"BÃªn":2798,"kg":2799,"Ð°":2800,"ĠmÃły":2801,"ĠgiÃ¢y":2802,"Ġláº§m":2803,"Ġ>":2804,"ĠPr":2805,"ĠÄĳiá»ĩu":2806,"ĠĠ":2807,"Ġngá»«a":2808,"Ġtráº¥n":2809,"ĠPH":2810,"45":2811,"Ġ70":2812,"ĠÄĲÃłi":2813,"ĠHáº¡":2814,"á»Ļm":2815,"Ġcá»Ļt":2816,"ĠÃ´m":2817,"AM":2818,"ĠhÃ¹ng":2819,"Æ°á»Ľt":2820,"70":2821,"ĠchÃºc":2822,"75":2823,"ĠnhÃ£n":2824,"Ġna":2825,"ĠQuyáº¿t":2826,"Bá»Ļ":2827,"ĠCity":2828,"ĠGiáº£i":2829,"ĠNghá»ĩ":2830,"ĠtÃ¡n":2831,"Ġgiá»įng":2832,"ĠâĢĺ":2833,"iet":2834,"ĠCan":2835,"ĠnÃºt":2836,"Ġro":2837,"ĠTrÆ°á»Łng":2838,"ull":2839,"ĠTR":2840,"ĠPháº§n":2841,"á»ĳp":2842,"TS":2843,"Ġga":2844,"Ġgiáº¿t":2845,"ĠtÃŃ":2846,"Ġcháº·n":2847,"Ġj":2848,"£t":2849,"ĠQuáº£n":2850,"á»¥y":2851,"ĠnÆ°á»Ľng":2852,"ĠlÅ©":2853,"ck":2854,"ï¿½":2855,"ĠxÃ¢m":2856,"ĠÄĲá»ĭa":2857,"ĠkiÃªn":2858,"Ġtung":2859,"Ġmáº¡c":2860,"ada":2861,"Ðµ":2862,"amsung":2863,"how":2864,"ight":2865,"ĠmÃ³c":2866,".\"":2867,"ĠTPHCM":2868,"Ġláº·ng":2869,"Ġtháº¯c":2870,"ĠtÃłn":2871,"ĠHuy":2872,"Ġmuá»ĳi":2873,"ĠSing":2874,"ĠkhÃŃch":2875,"Ġhá»§y":2876,"ĠKH":2877,"ĠduyÃªn":2878,"Ġkháº¥u":2879,"ĠlÃ¢m":2880,"Æ°á»Ľp":2881,"ĠLÃł":2882,"Ġhuáº¥n":2883,"ĠMan":2884,"á»ŀ":2885,"Ãªnh":2886,"Ġgá»£i":2887,"ĠTháº§n":2888,"ĠThÆ°á»£ng":2889,"09":2890,"ÄĲá»ĳi":2891,"35":2892,"ĠPhÆ°á»Ľc":2893,"ĠPhi":2894,"ĠÃ¡c":2895,"Ġtrá»Ļn":2896,"Ġtháº§u":2897,"ĠTÃ¬nh":2898,"ÄĲiá»ģu":2899,"ĠchÃ³":2900,"Â¿":2901,"CP":2902,"Ġchá»¥c":2903,"Â½":2904,"ĠÄĲH":2905,"ĠThuáºŃn":2906,"Ġ2013":2907,"Ġcá»ı":2908,"ĠhÃ´i":2909,"ĠthÃ¡ch":2910,"Ġpro":2911,"ĠTa":2912,"ĠbÃ´ng":2913,"ĠphÃ³":2914,"ĠnghÃ¬n":2915,"ĠÄĳá»£t":2916,"66":2917,"Ġáº¡":2918,"Ġtrá»¥c":2919,"ĠKho":2920,"load":2921,"orld":2922,"ĠBl":2923,"ĠGoogle":2924,"ĠPro":2925,"ome":2926,",...":2927,"ĠphÃ¡n":2928,"ĠÃ¡i":2929,"ThÃ´ng":2930,"ĠTrÃªn":2931,"ĠTá»īnh":2932,"Ġhuynh":2933,"ĠcÃº":2934,"ĠHLV":2935,"ĠkhÃ³c":2936,"ĠgiÃ¡p":2937,"ĠXÃ¢y":2938,"Ġtháº¥m":2939,"ĠHuáº¿":2940,"ĠÄĳuá»ķi":2941,"Ġthuyá»ģn":2942,"ĠÄĳuÃ´i":2943,"ÃĤ":2944,"Ġbang":2945,"ĠcÆ°Æ¡ng":2946,"Ġno":2947,"ĠCáº§u":2948,"Ġtáº£ng":2949,"apore":2950,"Ġgáº¡o":2951,"ĠBÃ¡n":2952,"ĠsÃ¡nh":2953,"ĠGiao":2954,"!!":2955,"ĠVÃµ":2956,"Ġhoang":2957,"Anh":2958,"ĠchÃŃn":2959,"Ġhiáº¿m":2960,"ĠthÃ¹ng":2961,"pl":2962,"ĠrÃ¡c":2963,"ĠtÃºc":2964,"âĢ¦]":2965,"ĠLÆ°u":2966,"Ġvinh":2967,"ĠDi":2968,"Ġmiáº¿ng":2969,"ĠBÃ¡c":2970,"ĠDuy":2971,"ast":2972,"TP":2973,"ĠSÆ°":2974,"ĠÄĳáº¡p":2975,"Ġ300":2976,"Ġphun":2977,"Ġgiáº·t":2978,"Ġbáº¯n":2979,"ĠDN":2980,"ĠTam":2981,"ĠThÃ¡ng":2982,"%,":2983,"ĠÄĳá»ĳt":2984,"ber":2985,"Ġkhen":2986,"ĠCÃ¹ng":2987,"ĠthÃ¢m":2988,"Ġ35":2989,"ĠHá»¯u":2990,"Ã¹m":2991,"Ġnáº¥m":2992,"Ġcá»ĳt":2993,"ĠbÃ¡t":2994,"ĠÄĳáºŃp":2995,"á»įa":2996,"NhÆ°ng":2997,"ĠVá»ģ":2998,"ĠbÃ¬":2999,"ĠAnd":3000,"Ġcá»Ŀ":3001,"ĠGiáº¥y":3002,"ĠDÅ©ng":3003,"á»ıng":3004,"log":3005,"ĠCl":3006,"MÃ¡y":3007,"ĠApp":3008,"Ġnháº¯n":3009,"ĠKáº¿":3010,"ĠMy":3011,"Ġmá»ıng":3012,"xi":3013,"Ġcáº¥m":3014,"Ġtháº£m":3015,"ĠÄĲáº¥t":3016,"CS":3017,"NhÆ°":3018,"ĠHá»ĩ":3019,"ini":3020,"ĠlÃ£ng":3021,"ĠbuÃ´n":3022,"ĀĀĀĀĀĀĀĀĀĀĀĀĀĀĀĀĀĀĀĀĀĀĀĀĀĀĀĀĀĀĀĀĀĀĀĀĀĀĀĀĀĀĀĀĀĀĀĀĀĀĀĀĀĀĀĀĀĀĀĀĀĀĀĀĀĀĀĀĀĀĀĀĀĀĀĀĀĀĀĀĀĀĀĀĀĀĀĀĀĀĀĀĀĀĀĀĀĀĀĀĀĀĀĀĀĀĀĀĀĀĀĀĀĀĀĀĀĀĀĀĀĀĀĀĀĀĀĀ":3023,"Ġ90":3024,"ĠCÅ©ng":3025,"ha":3026,"ĠcÃ¡p":3027,"ĠxuÃ¢n":3028,"á»ıi":3029,"ow":3030,"Ġbá»ĳi":3031,"ĠhÃł":3032,"Ġchuá»Ļt":3033,"Ã¯":3034,"XH":3035,"ĠMa":3036,"Ġ[âĢ¦]":3037,"Vá»ģ":3038,"Ġchá»«ng":3039,"ĠthÃ³i":3040,"ans":3041,"Ġruá»Ļt":3042,"ĠTrá»įng":3043,"ide":3044,"Ġsex":3045,"Ġhuá»ĳng":3046,"Ġáº¤n":3047,"Ġhá»©a":3048,"Ġbáº¡ch":3049,"ĠÃļ":3050,"ky":3051,"ĠÄĳÄ©a":3052,"Ġbá»įc":3053,"Ġvang":3054,"ke":3055,"ĠdÃ¡n":3056,"ĠGiÃª":3057,"NÄĥm":3058,"ft":3059,"ĠÄĲÆ°á»£c":3060,"ĠNÃ´ng":3061,"Ġtiá»ĩc":3062,"ĠtáºŃt":3063,"Ġtráº¡i":3064,"ĠbÃ¹":3065,"ĠSá»Ń":3066,"Do":3067,"Ġchá»Ł":3068,"Ġná»Ł":3069,"ĠAir":3070,"):":3071,"ĠTHPT":3072,"ĠSingapore":3073,"ĠDÃ¹":3074,"ĠNgoáº¡i":3075,"ĠLÆ°Æ¡ng":3076,"Ġcáº£n":3077,"ĠCup":3078,"įt":3079,"Ġhot":3080,"Ġká»ĭch":3081,"Ġsanh":3082,"ĠngÆ°á»¡ng":3083,"ĠBáº¡ch":3084,"ĠbÃ£o":3085,"km":3086,"Ġhi":3087,"ĠÄĳai":3088,"Ġáº¢nh":3089,"Ġáº£o":3090,"Ġong":3091,"ĠGD":3092,"ĠtÃ¡ch":3093,"Ġvong":3094,"ĠLÃºc":3095,"28":3096,"ĠbÃ¡m":3097,"ump":3098,"33":3099,"out":3100,"ĠkhoÃ¡ng":3101,"NhÃł":3102,"Ġtrá»Ļi":3103,"ĠCa":3104,"Ġgá»¡":3105,"ines":3106,"Ġ*":3107,"BÃłi":3108,"ĠxÆ°á»Łng":3109,"2014":3110,"ost":3111,"ĠAm":3112,"Ġquá»¹":3113,"?âĢĿ":3114,"ear":3115,"ect":3116,"sia":3117,"ĠNgÃ´":3118,"ĠHuyá»ĩn":3119,"68":3120,"ĠUn":3121,"ĠdÆ°á»Ŀng":3122,"HÃ£y":3123,"OS":3124,"ĠHÃ¬nh":3125,"ĠThá»©":3126,"ĠHÄĲ":3127,"65":3128,"khÃ´ng":3129,"Ġmáº£nh":3130,"ĠlÃ²":3131,"ĠFacebook":3132,"¡i":3133,"Ġxoay":3134,"Ġtrá»ĳng":3135,"Ã¹y":3136,"Ð¸":3137,"ĠvÆ°Æ¡ng":3138,"ĠTiá»ģn":3139,"21":3140,"ĠchÄĥn":3141,"Ġsá»£i":3142,"ĠCÃ¢u":3143,"ĠSamsung":3144,"Ġtáº©y":3145,"ĠTrÆ°Æ¡ng":3146,"Ġhá»Ĺn":3147,"Ġ31":3148,"Ã©m":3149,"ĠdÃŃnh":3150,"áºł":3151,"ĠtÃ¡o":3152,"ĠdÃ¢u":3153,"VÃ¬":3154,"ĠTÃ´n":3155,"Ġlaptop":3156,"ĠcÃ¡t":3157,"ĠBr":3158,"08":3159,"ĠWin":3160,"ps":3161,"Ġhá»ķ":3162,"Ġkm":3163,"ĠTÃłu":3164,"ĠcÃ¢":3165,"ĠQuan":3166,"fe":3167,"ĠnhÃ¡nh":3168,"ĠGr":3169,"ss":3170,"ĠkÄ©":3171,"ĠxÃ³a":3172,"ĠInternet":3173,"Ġnháº£y":3174,"Ġngáº¯m":3175,"Ġcá»¡":3176,"arket":3177,"ĠsÃºng":3178,"Ġmen":3179,"iá»ħu":3180,"ĠngÆ°Æ¡":3181,"ĠMáº·c":3182,"ĠTiáº¿ng":3183,"sa":3184,"CC":3185,"ge":3186,"Ġxá»©ng":3187,"ĠMal":3188,"Ġbá»Ľt":3189,"ĠCS":3190,"Ġ45":3191,"Ġfor":3192,"ĠBáº±ng":3193,"Ġ2012":3194,"oh":3195,"EO":3196,"ĠPark":3197,"ĠLai":3198,"ĠthÃ¡o":3199,"end":3200,"ĠCáº£nh":3201,"IN":3202,"ideo":3203,"Ngh":3204,"ĠÄĳáº¯c":3205,"Ġbá»ĥ":3206,"ĠTriá»ģu":3207,"ive":3208,"ĠnhÃ´m":3209,"la":3210,"Ġtiáº¿c":3211,"Ġtháº£":3212,"roup":3213,"90":3214,"old":3215,"ĠngáºŃp":3216,"ĠmÆ°á»Ŀi":3217,"Æ°á»¡i":3218,"ÄĲÆ°á»£c":3219,"ĠNÆ°á»Ľc":3220,"ĠghÃ©p":3221,"áº«y":3222,"á»ĳm":3223,"Ġmá»įc":3224,"Ġháº±ng":3225,"ice":3226,"ĠvÃµ":3227,"ĠChiáº¿n":3228,"Ġtá»±a":3229,"ĠPhá»¥":3230,"ĠphÃŃm":3231,"ĠgiáºŃn":3232,"CO":3233,"ĠCháº¥t":3234,"ĠsÄĥn":3235,"ĠWorld":3236,"ĠLá»Ļc":3237,"ĠvÃ¢n":3238,"Ġphá»ıng":3239,"wnload":3240,"ĠLoan":3241,"ĠmÆ°u":3242,"LÃł":3243,"Ġthan":3244,"Ġrá»§i":3245,"ĠngÃłi":3246,"dow":3247,"Ġ02":3248,"ĠngÆ¡i":3249,"Ġtá»ıa":3250,"ĠLá»ħ":3251,"Ġchuá»Ļng":3252,"ee":3253,"ach":3254,"ĠMua":3255,"uk":3256,"ED":3257,"ork":3258,"ĠToÃłn":3259,"ĠkhoÃ¡n":3260,"ĠHÆ¡n":3261,"fa":3262,"ĠHÃłnh":3263,"ĠCom":3264,"ĠTá»±":3265,"Ġal":3266,"07":3267,"Ġtuá»ĩ":3268,"roid":3269,"ĠAd":3270,"Ġnhá»ĭp":3271,"ĠCÃ¡i":3272,"ĠtÃ´m":3273,"ĠThÆ¡":3274,"ies":3275,"Ġbáº©n":3276,"Ġtháº±ng":3277,"ĠÄĳam":3278,"Ġháº§m":3279,"ĠÄĳeo":3280,"Ġgá»ĳi":3281,"26":3282,"obile":3283,"ĠGal":3284,"ĠBH":3285,"ĠhÃłn":3286,"Ġcong":3287,"ĠCN":3288,"ÑĤ":3289,"ĠtrÃºng":3290,"ĠÃĿ":3291,"áº¾":3292,"500":3293,"Cho":3294,"CÃ¡ch":3295,"ĠvÃ¡y":3296,"ĠCha":3297,"ĠQua":3298,"Ġchim":3299,"ĠNG":3300,"áº«m":3301,"Ġtáº¿t":3302,"ĠÄĲáº¡o":3303,"ĠSy":3304,"ran":3305,"á»§a":3306,"Ġchap":3307,"icro":3308,"05":3309,"ĠTiáº¿p":3310,"Ġvá»Ļi":3311,"ĠdÃ¢m":3312,"Ġchuá»Ĺi":3313,"ĠmÃŃ":3314,"Ġdá»ĭu":3315,"oy":3316,"ĠchÄĥng":3317,"Iá»Ĩ":3318,"ĠchÆ°":3319,"Ġkha":3320,"áº¹t":3321,"ĠxÄĥng":3322,"ĠÄĳÃłm":3323,"ĠXin":3324,"ĠgiáºŃt":3325,"ri":3326,"ĠÄĳÃł":3327,"ĠDoanh":3328,"ĠBá»ĵ":3329,"Ġngá»Ļ":3330,"ĠÄĲÄĥng":3331,"alo":3332,"ĠÄĳá»ģn":3333,"Ġviá»ħn":3334,"ĠApple":3335,"02":3336,"ĠTÃ¬m":3337,"Ġná»ĵi":3338,"ct":3339,"ĠCÄĥn":3340,"ĠÃļc":3341,"AT":3342,"ĠÄĳÃ¢":3343,"cÃ³":3344,"xy":3345,"Ġgáº¡ch":3346,"Ġtriá»ĩt":3347,"Ã£nh":3348,"ĠSo":3349,"Ġbáº¡o":3350,"Ġnháº¡y":3351,"ĠÄĳe":3352,"ĠdÃłn":3353,"ml":3354,"ĠCP":3355,"go":3356,"Ġcom":3357,"Ġpl":3358,"Ġváº¹n":3359,"ĠcáºŃy":3360,"ĠïĢ":3361,"03":3362,"axy":3363,"ĠCo":3364,"Ġmá»Ŀ":3365,"Nhiá»ģu":3366,"ÄĲáº¿n":3367,"Ġnáº¡p":3368,"Ġdá»įc":3369,"Ġbáº¯c":3370,"ĠNghÄ©a":3371,"oll":3372,"ÃĬ":3373,"Ġim":3374,"ĠtrÃŃch":3375,"QÄĲ":3376,"Ġmáº»":3377,"ĠnhÃ¢":3378,"Ġz":3379,"2013":3380,"CÅ©ng":3381,"Ð½":3382,"Ġst":3383,"ĠVá»ĭ":3384,"ĠbÃ¡":3385,"ĠlÃ£m":3386,"Ġlong":3387,"Ġngáº¡c":3388,"ĠcÃºng":3389,"ĠTháº§y":3390,"áº¤":3391,"Ġ2011":3392,"ĠthÃ´":3393,"ĠtiÃª":3394,"áº¢":3395,"Ġsay":3396,"55":3397,"ĠMá»įi":3398,"ĠHá»£p":3399,"ĠThá»ĥ":3400,"Ġá»ĳc":3401,"04":3402,"Ġcháº¥n":3403,"27":3404,"Ġlá»ĩch":3405,"Ġcáº¥t":3406,"ĠÃ¢n":3407,"ĠxÃ¡ch":3408,"Ġthá»£":3409,"Ġde":3410,"ace":3411,"Ġmáº¡n":3412,"Ġemail":3413,"ment":3414,"con":3415,"ĠthÄĥng":3416,"so":3417,"ĠNgay":3418,"Ġnho":3419,"amp":3420,"Ġ03":3421,"100":3422,"arketing":3423,"Ġthuáº§n":3424,"Ġtá»į":3425,"Æł":3426,"06":3427,"Ġ#":3428,"Ġbia":3429,"ĠThÆ°":3430,"ĠTrá»Ŀi":3431,"Ġká»ĩ":3432,"Ġmáº§m":3433,"ĠÄĲá»ģ":3434,"ĠchÃºa":3435,"ĠII":3436,"man":3437,"ĠTÃ´":3438,"ĠÄĳá»¥":3439,"ug":3440,"Sá»±":3441,"ĠXÃ£":3442,"ĠGiá»Ľi":3443,"Ġchá»§ng":3444,"ĠMÃ£":3445,"ĠTrump":3446,"Ġháº¹p":3447,"Ġtá»įa":3448,"ĠkhÃ¡t":3449,"ĠAS":3450,"................":3451,"Ġngá»įn":3452,"ague":3453,"Ġlá»«a":3454,"Thá»Ŀi":3455,"Ġ2010":3456,"âĢ¦.":3457,"ĠLÃło":3458,"ĠTháº£o":3459,"29":3460,"Ġlang":3461,"Ġphiá»ģn":3462,"ĠSong":3463,"Ġlam":3464,"Ġ36":3465,"ÃĶNG":3466,"ĠThá»į":3467,"ĠhiÃª":3468,"martphone":3469,"ĠTháº¯ng":3470,"ĠchÃ¡n":3471,"Ġhiáº¿n":3472,"ĠNá»¯":3473,"ĠrÅ©":3474,"Chá»ī":3475,"38":3476,"ĠngÃ³n":3477,"ĠÄĳiá»ĩp":3478,"ĠLao":3479,"ĠtrÃ´i":3480,"ÑĢ":3481,"ĠkÃŃ":3482,"Ġhá»ĳi":3483,"ĠbáºŃn":3484,"Ãĥ":3485,"ĠÄĳáº¯t":3486,"ĠVietnam":3487,"ĠTÃŃnh":3488,"ood":3489,"Ġchá»ĳi":3490,"Ġsoi":3491,"Ġcáº¯m":3492,"ĠTÄĥng":3493,"ĠbÃºt":3494,"ĠlÃºa":3495,"ĠnÃ©n":3496,"ĠHÆ°á»Ľng":3497,"ĠBar":3498,"ĠAi":3499,"ino":3500,"ĠÃĶ":3501,"Dá»±":3502,"ĠTT":3503,"ĠVI":3504,"BÆ°á»Ľc":3505,"ĠtrÆ°a":3506,"pr":3507,"ĠÄĲá»Ļng":3508,"ĠtÃ¡":3509,"ĠEx":3510,"ĠDung":3511,"ĠTruyá»ģn":3512,"Ġbo":3513,"Ġäº":3514,"AS":3515,"Ġsáº¡c":3516,"dows":3517,"Ġac":3518,"Ġtháº¡ch":3519,"77":3520,"ve":3521,"Ñģ":3522,"Ġfile":3523,"ĠHáºŃu":3524,"uch":3525,"ĠÄĲá»Ļi":3526,"ara":3527,"LB":3528,"ĠCá»¥":3529,"Ġnáº¿p":3530,"ĠtÃłng":3531,"ĠxÆ¡":3532,"ĠlÆ¡":3533,"ĠNÃªn":3534,"Ġquyáº¿n":3535,"CT":3536,"ĠTp":3537,"ĠChá»ĭ":3538,"ĠtuÃ¢n":3539,"use":3540,"bum":3541,"ĠlÃ¡t":3542,"ĠThi":3543,"ĠÄĳÃºc":3544,"ĠVá»¥":3545,"ĠsÃ³t":3546,"ĠChÃ¡nh":3547,"de":3548,"ĠWeb":3549,"Ġson":3550,"ĠcÆ°á»Ľc":3551,"ĠTÃ²a":3552,"Trung":3553,"ĠÄĲÃ´":3554,"ĠViÃªn":3555,"ĠngÃ¢m":3556,"ĠdÄ©":3557,"per":3558,"Giá»":3559,"ens":3560,"Ġtam":3561,"Thá»±c":3562,"Ġná»ĵng":3563,"ĠBÃ¹i":3564,"Ġdá»«a":3565,"Ã¬a":3566,"Em":3567,"ĠnhÆ°á»£ng":3568,"ĠHoÃłn":3569,"ĠÆ¡i":3570,"Con":3571,"Ġá»©c":3572,"Ġ08":3573,"Ġlau":3574,"Ġ32":3575,"onal":3576,"ChÃŃnh":3577,"ne":3578,"ube":3579,"ym":3580,"Ġsp":3581,"ĠDiá»ħn":3582,"Ġxáº£":3583,"ĠChung":3584,"ure":3585,"ave":3586,"Ġ150":3587,"ĠGalaxy":3588,"rus":3589,"ĠmÃ¬":3590,"ester":3591,"ĠBáº¥t":3592,"ash":3593,"ĠDÆ°á»Ľi":3594,"Ġcá»±u":3595,"ĠDiá»ĩn":3596,"ĠhÃ¢m":3597,"Ġbáº¥m":3598,"ama":3599,"ĠBiá»ĥn":3600,"ĠCung":3601,"ĠnÃ¡m":3602,"xit":3603,"ĠMÃ¬nh":3604,"Ġhang":3605,"Ġsan":3606,"Ġtrá»Ļm":3607,"ĠNÃ³i":3608,"Ġchiáº¿t":3609,"BÃ¡n":3610,"ĠOnline":3611,"Ġcháº½":3612,"ÄĲáº¡i":3613,"Ġká»ģ":3614,"Ġnháº«n":3615,"ĠSon":3616,"ivi":3617,"ĠSer":3618,"ĠChuyÃªn":3619,"Æ°á»£n":3620,"ĠcÆ°á»Ľp":3621,"ĠNhac":3622,"ĠÄĳiÃª":3623,"Æ°Æ¡n":3624,"ER":3625,"ĠPhim":3626,"ĠNai":3627,"iss":3628,"ĠDanh":3629,"ĠÄĳá»ĩm":3630,"ĠKiá»ĥm":3631,"Ġmá»ĵ":3632,"ĠkhÃ©o":3633,"ĠvÄ©":3634,"SÃ¡ng":3635,"uá»ĵn":3636,"ĠSun":3637,"Ġkhuyáº¿t":3638,"Ġchai":3639,"ĠÄĲinh":3640,"Ġrá»¡":3641,"ĠtrÃ¡ng":3642,"Trang":3643,"Ġtop":3644,"aysia":3645,"sh":3646,"Ġhoáº£ng":3647,"Ġsoáº¡n":3648,"ĠKiáº¿n":3649,"ĠPar":3650,"Ġngá»įc":3651,"ĠLáº¡t":3652,"Ġbe":3653,"ĠbÃº":3654,"ma":3655,"da":3656,"Ġchanh":3657,"Ġváº·t":3658,"Ġlá»Ļc":3659,"ĠPhil":3660,"yl":3661,"nÄĥm":3662,"Ġbá»ķng":3663,"Ġchuyá»ģn":3664,"Ð¾Ð":3665,"36":3666,"ĠAndroid":3667,"Ġtráº¡m":3668,"ĠVÃŃ":3669,"ivers":3670,"ĠTrÃŃ":3671,"á»Ĳ":3672,"Ġnháº¡t":3673,"Æ°á»Łi":3674,"79":3675,"Ġ198":3676,"GiÃ¡":3677,"ĠGI":3678,"Ġthiá»ĩp":3679,"Ġtrá»ĳn":3680,"ÄĲá»ĵng":3681,"ĠCar":3682,"ĠTÄ©nh":3683,"NT":3684,"Ġtia":3685,"Ġmá»Ļng":3686,"ĠCuá»Ļc":3687,"ĠlÃ³t":3688,"ĠvÃª":3689,"á»ĭt":3690,"Ġná»¥":3691,"ĠvuÃ´ng":3692,"Ġkhá»©":3693,"sp":3694,"Ġheo":3695,"Ġtáº§n":3696,"ĠmÃ¢y":3697,"Ġinternet":3698,"Ġmá»ī":3699,"ĠCáº£":3700,"Ġdá»įa":3701,"Ġchá»ĳt":3702,"ĠmÆ°Æ¡i":3703,"GB":3704,"In":3705,"ota":3706,"ĠBe":3707,"iver":3708,"Ġcáº£ng":3709,"assage":3710,"ica":3711,"aw":3712,"ĠÄĳáº¯p":3713,"ĠsÃ¡u":3714,"ĠDÆ°á»£c":3715,"ipp":3716,"ĠCÆ°á»Ŀng":3717,"Ġcá»¥m":3718,"ĠchÃ¢m":3719,"ĠtÃºy":3720,"ust":3721,"ĠTinh":3722,"ĠnhiÃª":3723,"ĠTiÃªu":3724,"Ġleo":3725,"ico":3726,"ĠMá»¥c":3727,"Ġmuá»Ļn":3728,"ĠBáº¿n":3729,"Ġkhoan":3730,"ĠbiÃª":3731,"Ġtriá»ģu":3732,"rol":3733,"ĠvÃ¢":3734,"ĠLoáº¡i":3735,"ĠTháºŃt":3736,"ĠtráºŃt":3737,"Æ¯á»":3738,"ĠsÃ´":3739,"ĠThá»ĳng":3740,"Ġxáº¡":3741,"Ġhá»ıa":3742,"ier":3743,"Ġsen":3744,"ĠTrÃł":3745,"ĠKá»¹":3746,"ĠTV":3747,"ĠtÃŃm":3748,"Ġsmartphone":3749,"ãĤ":3750,"ĠÃªm":3751,"78":3752,"Ġmáº¡o":3753,"ĠÃĤm":3754,"VÃł":3755,"áº»o":3756,"Ġráº¯n":3757,"rid":3758,"Ġkháº©n":3759,"CÃ²n":3760,"ĠInd":3761,"Ġam":3762,"Ġdownload":3763,"tein":3764,"ÄĲáº·c":3765,"Ġ..":3766,"ĠTS":3767,"Ġváº¡n":3768,"ĠThá»¥y":3769,"ĠLáº¡c":3770,"ĠNghe":3771,"ata":3772,"ĠmÃ¡":3773,"Ġbáº¯p":3774,"Ġmáº¿n":3775,"land":3776,"Ġtiá»ħn":3777,"Ġshow":3778,"NÄĲ":3779,"!âĢĿ":3780,"Ġrao":3781,"uro":3782,"Ġlá»ıng":3783,"ĠCÃ¡t":3784,"á»ĥn":3785,"ĠCá»Ńa":3786,"ĠhoÃł":3787,"Ġcay":3788,"£n":3789,"ial":3790,"ĠMalaysia":3791,"ĠxÃ³m":3792,"Ġrung":3793,"ĠbÃ³n":3794,"ĠthÃ¡p":3795,"Ġshop":3796,"ĠWindows":3797,"48":3798,"ĠtÃª":3799,"orn":3800,"ĠÄĳÃ³i":3801,"ĠmÃ¹":3802,"Thiáº¿t":3803,"ĠTrá»ĭ":3804,"ĠtrÆ°á»£t":3805,"Ġmod":3806,"ĠRes":3807,"ĠbÃ´i":3808,"Ġtháº§m":3809,"ĠÄĲá»":3810,"ĠkhÃ¡i":3811,"ĠSao":3812,"Ġliá»ģu":3813,"Ġ05":3814,"Ġvan":3815,"ĠchÃ¡nh":3816,"ath":3817,"ĠkhÃ³i":3818,"ĠthÃ¢":3819,"Ġnga":3820,"ade":3821,"Ġrá»±c":3822,"ĠÄĳoáº¡t":3823,"ĠniÃªm":3824,"Ġbá»ĵn":3825,"Ġbáº¿n":3826,"ĠviÃª":3827,"ĠÄĲT":3828,"ĠÄĲá»Ĺ":3829,"Ġkhe":3830,"ĠKiá»ģu":3831,"lex":3832,"Ho":3833,"ĠkhÃ¢u":3834,"ĠrÃło":3835,"ĠHay":3836,"ca":3837,"SD":3838,"Ġngáº§m":3839,"UY":3840,"aser":3841,"ID":3842,"Ġgiam":3843,"son":3844,"ON":3845,"Ġtháº¥u":3846,"á»¥t":3847,"app":3848,"á»µ":3849,"ĠTe":3850,"ĠngÃµ":3851,"Ġmáº£ng":3852,"Ġdá»įn":3853,"ĠÄĲiá»ĥm":3854,"Ġbá»Ĺng":3855,"ĠChÃºc":3856,"ĠchÃ©p":3857,"Ġclick":3858,"34":3859,"áº±n":3860,"ĠdÃ£":3861,"ium":3862,"Ġtao":3863,"AR":3864,"tÃ´":3865,"Ġven":3866,"Ġnáº¡":3867,"ĠchÃ¬m":3868,"Ġcá»ĳng":3869,"ĠlÃŃt":3870,"Ġtour":3871,"Ġcháº£":3872,"ĠlÃŃnh":3873,"ĠQuá»³nh":3874,"ĠphÆ¡i":3875,"ĠlÃ¢y":3876,"Ġhuyá»ģn":3877,"ĠYÃªu":3878,"DÃ¹":3879,"Tá»ķng":3880,"ĠTháº¡nh":3881,"ĠUy":3882,"ãĥ":3883,"ool":3884,"ĠlÆ°á»¡i":3885,"Ġ38":3886,"ĠPhÆ°á»Ŀng":3887,"he":3888,"ote":3889,"ĠtiÃªm":3890,"Ġ04":3891,"ĠTáº¥n":3892,"ĠGiÃªsu":3893,"Ġcá»ĳc":3894,"ĠghÃ©":3895,"39":3896,"Ġ$":3897,"Ľn":3898,"ĠHuyá»ģn":3899,"ĠÄĳá»Ĺ":3900,"ĠTham":3901,"Ġquáº¡t":3902,"ĠÆ¡":3903,"ĠÃ´n":3904,"Ġnáº§y":3905,"ĠmÃ²n":3906,"Ġmá»ĳc":3907,"ĠxÃ´ng":3908,"ĠÃ¡m":3909,"ĠdÃ¢ng":3910,"Ġchinh":3911,"ĠDáº§u":3912,"TM":3913,"TrÆ°á»Ŀng":3914,"pt":3915,"bo":3916,"trong":3917,"ĠÄĲá»ĵ":3918,"Ġfan":3919,"ĠnÃ´":3920,"ĠBÄĲ":3921,"ĠrÃ¨n":3922,"ĠCLB":3923,"ĠThÃŃch":3924,"ĠCanada":3925,"Ġngá»±a":3926,"ĠcÃ£i":3927,"ĠlÃ´i":3928,"ÃŃa":3929,"áº¬":3930,"ĠThÃ¢n":3931,"ĠtrÆ¡n":3932,"NN":3933,"ngÆ°á»Ŀi":3934,"thÃ¡ng":3935,"ngÃły":3936,"Ġbáº£y":3937,"ĠMá»Ľi":3938,"ĠvÃ¡ch":3939,"ime":3940,"ĠÄĳáº¡n":3941,"ones":3942,"Máº·c":3943,"agen":3944,"Ġlá»ĵng":3945,"ĠquÃ¡i":3946,"ĠNhu":3947,"ĠVÃło":3948,"Ġthoa":3949,"__":3950,"á»Ńu":3951,"ĠNhi":3952,"ĠHuá»³nh":3953,"áº¯k":3954,"ĠLá»ĭch":3955,"44":3956,"ĠSu":3957,"ĠDÃ¹ng":3958,"ith":3959,"ĠcÆ°á»£c":3960,"Ġgam":3961,"IC":3962,"ĠLá»£i":3963,"ĠÄĲÃ£":3964,"aph":3965,"ĠnÃ¢u":3966,"Ġao":3967,"ĠmÃ³ng":3968,"Ġtháº¯t":3969,"Ġser":3970,"Ġtre":3971,"CÃ´":3972,"GT":3973,"ĠSan":3974,"ĠMÃ´i":3975,"ĠCáº£m":3976,"ĠtrÃłng":3977,"ĠMáº¡nh":3978,"ĠâĢĿ":3979,"**":3980,"Ġgiáº¥u":3981,"Ã²m":3982,"Ġsofa":3983,"ĠchiÃªu":3984,"att":3985,"tral":3986,"Ġ2019":3987,"ĠLam":3988,"Ġhoan":3989,"enn":3990,"Ġkhiáº¿u":3991,"Ġ400":3992,"Ġli":3993,"Ġinox":3994,"Ġtá»Ľ":3995,"Ġre":3996,"ĠÄĳá»ĵn":3997,"Ġthiá»ģn":3998,"69":3999,"ChÆ°Æ¡ng":4000,"ES":4001,"Ġlink":4002,"Ġmassage":4003,"HÃł":4004,"Ġoxy":4005,"VÃło":4006,"Ġá»ĵn":4007,"37":4008,"âĢ¦âĢ¦âĢ¦âĢ¦":4009,"Xem":4010,"ĠNhá»Ŀ":4011,"Ġlá»ĵ":4012,"Ġváº¯ng":4013,"ake":4014,"ria":4015,"CÃ¹ng":4016,"??":4017,"ose":4018,"ĠTriá»ĩu":4019,"ĠThay":4020,"ashi":4021,"ĠLy":4022,"coin":4023,"2012":4024,"Ĥn":4025,"ĠHiá»ĩu":4026,"ĠPV":4027,"ĠÄĲá»«ng":4028,"Hai":4029,"ĠEl":4030,"Ġkhoáº»":4031,"Ġinch":4032,"Ġtang":4033,"ĠNháº¡c":4034,"ĠÄĳáº»":4035,"ĠkhÃ´n":4036,"ĠÃł":4037,"ĠlÄĥng":4038,"ĠcháºŃu":4039,"ĠSim":4040,"IS":4041,"omes":4042,"ĠtrÆ°Æ¡":4043,"32":4044,"ĠTy":4045,"ĠthoÃ¡i":4046,"Ġná»ģ":4047,"ĠHot":4048,"Má»Ĺi":4049,"ĠkhoÄĥn":4050,"ĠFor":4051,"ĠmÃ©t":4052,"ĠlÃµi":4053,"ĠRáº¥t":4054,"Ġsáº¹o":4055,"ĠsÆ°á»Ľng":4056,"CÄĥn":4057,"ĠMV":4058,"Ġcm":4059,"ĠÄĲáº·ng":4060,"ĠÄĳá»Ľn":4061,"BC":4062,"lock":4063,"Ġkg":4064,"Ġpháº¿":4065,"Ġcua":4066,"ĠÄĳu":4067,"Ġxáº¿":4068,"Ġmau":4069,"ĠMá»Ļc":4070,"PS":4071,"Ġclip":4072,"ĠHá»ĵi":4073,"MT":4074,"ĠThá»ĭnh":4075,"ĠĠĠĠ":4076,"ĠÄĳÃ¡y":4077,"Ġváº£":4078,"Thá»©":4079,"Ngay":4080,"Ġbá»ĳc":4081,"oto":4082,"OT":4083,"ĠxÃŃ":4084,"act":4085,"ĠsÆ°u":4086,"Ġme":4087,"ĠLeague":4088,"Ġkhá»ķng":4089,"Ġmá»ķ":4090,"ba":4091,"ern":4092,"ĠViettel":4093,"int":4094,"ĠlÄĥn":4095,"ĠVÅ©ng":4096,"ĠTrá»ĭnh":4097,"Ġlá»£n":4098,"ĠkhoÃ¡c":4099,"ĠchiÃªn":4100,"Ġdáº¡o":4101,"ĠvÄ©nh":4102,"ĠSÃ¡ng":4103,"ĠhÃ£i":4104,"GD":4105,"ĠtrÃ¢n":4106,"ĠÆ°á»Ľt":4107,"ĠÄĲi":4108,"arao":4109,"ike":4110,"ĠIs":4111,"ĠAc":4112,"Ġxi":4113,"ĠSe":4114,"ish":4115,"ĠngÆ°":4116,"Ġhá»įng":4117,"Ġtem":4118,"49":4119,"ĠquÃ©t":4120,"Ġcafe":4121,"ĠbÄĥn":4122,"ĠsÃ¢m":4123,"ĠHÃ´m":4124,"ĠÄĳá»ĵi":4125,"ĠHáº¡nh":4126,"ĠÄĳÃ¢m":4127,"ign":4128,"Chá»§":4129,"Ġnháº§m":4130,"Ġkhoai":4131,"Ġaxit":4132,"ali":4133,"Ġhao":4134,"ĠHoáº·c":4135,"ĠSÄ©":4136,"ĠEd":4137,"ĠThÄĥng":4138,"ĠCá»©":4139,"ĠTÃªn":4140,"vi":4141,"ĠTháº¡ch":4142,"ĠTuyÃªn":4143,"Ġphá»ķi":4144,"ĠNÆ¡i":4145,"ĠchÃ¨":4146,"Sáº£n":4147,"ĠÄĲÆ¡n":4148,"Tháº¿":4149,"ĠÆ°ng":4150,"ĠÄĳáº§m":4151,"ĠsÆ°Æ¡ng":4152,"mp":4153,"áº¥ng":4154,"ĠnhÄĥn":4155,"Ġthá»ķi":4156,"ĠgÅ©i":4157,"ĠMi":4158,"onda":4159,"ĠHa":4160,"pe":4161,"ĠCol":4162,"ĠPlus":4163,"ĠPháº£i":4164,"Káº¿t":4165,"Ġvirus":4166,"Ġ2020":4167,"ind":4168,"ĠPhÆ°á»£ng":4169,"Ġxay":4170,"gr":4171,"Ca":4172,"ĠtrÄ©":4173,"ions":4174,"Táº¥t":4175,"ĠlÃª":4176,"Ġ2008":4177,"ĠvÆ°Æ¡n":4178,"ĠMÃł":4179,"chi":4180,"IM":4181,"EC":4182,"Ġ2009":4183,"ĠvÃº":4184,"Ġláº¥p":4185,"ĠcÃ¡m":4186,"NÃ³i":4187,"ĠBao":4188,"araoke":4189,"ĠHar":4190,"ĠnhÅ©ng":4191,"ĠháºŃn":4192,"mi":4193,"outube":4194,"tu":4195,"ĠLá»¥c":4196,"ĠVÃłng":4197,"ĠHoÃłi":4198,"uyen":4199,"Ġhung":4200,"mar":4201,"ĠMob":4202,"ĠCháº³ng":4203,"67":4204,"BS":4205,"ĠMáº«u":4206,"ĠngoÃ¡i":4207,"ano":4208,"ðŁ":4209,"iá»ģng":4210,"Ãį":4211,"ifi":4212,"ĠquÃ¡t":4213,"ĠDe":4214,"ĠVÃ´":4215,"Ġpháº³ng":4216,"LÄĲ":4217,"ĠnÃ¡t":4218,"ĠMac":4219,"ree":4220,"VáºŃy":4221,"ĠThiáº¿u":4222,"Ġlá»¡":4223,"ĠHe":4224,"Ġnáº¯p":4225,"Ġ07":4226,"cel":4227,"Ġlá»©a":4228,"ĠchÃª":4229,"Ġup":4230,"Ġthun":4231,"bank":4232,"EL":4233,"Ġkáº½":4234,"uat":4235,"Ġsáº¥y":4236,"ĠMÃ´n":4237,"ET":4238,"ĠnhÆ°á»£c":4239,"ĠLED":4240,"ĠCr":4241,"Ġ55":4242,"ĠRá»ĵi":4243,"Ġ2000":4244,"tre":4245,"Ġáº¥p":4246,"Ġtivi":4247,"ĠlÆ°á»¡ng":4248,"na":4249,"Ġte":4250,"Ġláº§u":4251,"Ġkhoe":4252,"HÃ´m":4253,"Ġgai":4254,"ĠTÃ¹ng":4255,"Ġnháº¯m":4256,"ĠchÃ©n":4257,"ĠIS":4258,"Ġbom":4259,"olf":4260,"Ġham":4261,"má»Ļt":4262,"ĠDr":4263,"Ġmm":4264,"ĠÃ³c":4265,"ĠgÃ¡nh":4266,"Ġtá»¥ng":4267,"CÃ¢u":4268,"ĠKit":4269,"sen":4270,"Ġviet":4271,"ĠBÃłn":4272,"Ġvisa":4273,"ont":4274,"31":4275,"ĠHS":4276,"Ġad":4277,"kho":4278,"ĠHáº±ng":4279,"ĠlÃ¢n":4280,"Ġnhan":4281,"va":4282,"ĀĀĀĀĀĀĀĀĀĀĀĀĀĀĀĀĀĀĀĀĀĀĀĀĀĀĀĀĀĀĀĀĀĀĀĀĀĀĀĀĀĀĀĀĀĀĀĀĀĀĀĀĀĀĀĀĀĀĀĀĀĀĀĀĀĀĀĀĀĀĀĀĀĀĀĀĀĀĀĀĀĀĀĀĀĀĀĀĀĀĀĀĀĀĀĀĀĀĀĀĀĀĀĀĀĀĀĀĀĀĀĀĀĀĀĀĀĀĀĀĀĀĀĀĀĀĀĀĀĀĀĀĀĀĀĀĀĀĀĀĀĀĀĀĀĀĀĀĀĀĀĀĀĀĀĀĀĀĀĀĀĀĀĀĀĀĀĀĀĀĀĀĀĀĀĀĀĀĀĀĀĀĀĀĀĀĀĀĀĀĀĀĀĀĀĀĀĀĀĀĀĀĀĀĀĀĀĀĀĀĀĀĀĀĀĀĀĀĀĀĀĀĀĀĀĀĀĀĀĀĀĀĀĀĀĀĀĀĀĀĀĀĀĀĀĀĀĀĀĀĀĀĀĀĀĀ":4283,"ĠToÃ¡n":4284,"ĠThiá»ĩn":4285,"ĠkhÃ´i":4286,"ĠMay":4287,"ĠMicro":4288,"ĠKiÃªn":4289,"ĠmÅ©":4290,"ĠgÃ¬n":4291,"ĠphÃ¡o":4292,"Ġá»Ľt":4293,"ĠngÃło":4294,"ĠTÃº":4295,"Tag":4296,"ĠSai":4297,"Ġváº¡ch":4298,"ĠFPT":4299,"Ġnang":4300,"IV":4301,"Ġä¹":4302,"ĠCamp":4303,"2011":4304,"Ġ|--":4305,"ary":4306,"ĠCuá»ĳi":4307,"ock":4308,"Ġváº¥t":4309,"ĠSc":4310,"IA":4311,"ĠThá»ķ":4312,"ĠXuáº¥t":4313,"LC":4314,"--------":4315,"ĠÄĳiÃªn":4316,"ana":4317,"ĠcÃµi":4318,"ĠgiÃ¡n":4319,"Ġnhá»©c":4320,"ĠphÃ¢":4321,"Ġtiá»ĩm":4322,"ĠdÃ²":4323,"Ġgiá»įt":4324,"ĠSEO":4325,"ĠbÆ¡":4326,"Ġvs":4327,"ĠBÄĲS":4328,"46":4329,"ĠMiá»ģn":4330,"Ġdáº¯t":4331,"Ġ06":4332,"¨ng":4333,"98":4334,"ĠChÃ¢n":4335,"ĠTO":4336,"ĠUSB":4337,"Ġquyá»ĥn":4338,"Ġchuá»ĳi":4339,"we":4340,"ĠnÆ°Æ¡ng":4341,"Ġblog":4342,"Ġá»ĳp":4343,"ĠkhoÃ¡i":4344,"Ġhá»Ł":4345,"á»ıa":4346,"ase":4347,"ĠNghiÃªn":4348,"ĠvÆ°á»Ľng":4349,"ĠToy":4350,"nhÆ°":4351,"ĠSyria":4352,"ĠDa":4353,"Ġláº¯c":4354,"ĠTráº»":4355,"ics":4356,"Ġrá»¥ng":4357,"300":4358,"/.":4359,"Ġ120":4360,"Ġláº¡m":4361,"Ġrá»Ļn":4362,"Ġkhuy":4363,"Há»Ļi":4364,"ĠGame":4365,"Ġhiáº¿u":4366,"Ġxá»ķ":4367,"gon":4368,"ĠHÃ¡n":4369,"Ġngáº§n":4370,"Ġnhá»ī":4371,"ĠNháºŃn":4372,"ĠmÄĥng":4373,"Ġhiá»ģn":4374,"Ġtá»±u":4375,"ĠghÃ©t":4376,"Ġ37":4377,"Cáº§n":4378,"Ġ34":4379,"náº¿u":4380,"Ġngá»©a":4381,"ĠÄĳun":4382,"Ġqui":4383,"Ġnu":4384,"ĠLá»Ŀi":4385,"Ġ75":4386,"AC":4387,"ute":4388,"ĠláºŃu":4389,"ĠGroup":4390,"ĠhoÃłi":4391,"ĠNguyá»ĩt":4392,"Ġmá»Ļc":4393,"ĠPhÃ¢n":4394,"Ġman":4395,"ĠdÆ°a":4396,"Video":4397,"Ġdai":4398,"Ġmini":4399,"ĠsÃºt":4400,"ĠReal":4401,"bps":4402,"áº¦":4403,"âĢ¢":4404,"ĠtÆ¡":4405,"Ġcai":4406,"ĠTÃ´ng":4407,"ĠGiá»Ŀ":4408,"book":4409,"EAN":4410,"Ġlá»ģ":4411,"BÃł":4412,"ĠOr":4413,"âĢĭ":4414,"Ġ48":4415,"Ġhoáº¡i":4416,"ĠbÃ´":4417,"Ġdiá»ĩu":4418,"Ġtá»ıi":4419,"Xe":4420,"Ġlá»Ļn":4421,"ĠrÃ¨m":4422,"ĠTim":4423,"ĠChá»©ng":4424,"Ġgiang":4425,"ĠHÄĲND":4426,"reen":4427,"ĠrÃł":4428,"ner":4429,"ĠFr":4430,"ĠIP":4431,"eth":4432,"ollagen":4433,"Ġláº·p":4434,"Ġngá»£i":4435,"Ġthoáº£ng":4436,"ĠFl":4437,"Ġbá»ıng":4438,"ĠÃģnh":4439,"ĠlÃ¹i":4440,"GS":4441,"ĠtrÄĥng":4442,"47":4443,"phcm":4444,"Ġngoan":4445,"ĠCÃł":4446,"TH":4447,"ĠAs":4448,"Ġmáº¯m":4449,"ĠbuÃ´ng":4450,"Ġled":4451,"áº·m":4452,"Ġchay":4453,"Ġnhá»ĭ":4454,"ĠShop":4455,"Ã½t":4456,"95":4457,"aster":4458,"oan":4459,"ĠtÃ¹ng":4460,"ta":4461,"Ġtá»ĭnh":4462,"ĠÄĳáº¯n":4463,"Ġ600":4464,"ĠnhÃ£":4465,"ĠmÃ´ng":4466,"báº¥t":4467,"Ġtrá»į":4468,"Kho":4469,"Ġcháº©n":4470,"ĠgÃ£":4471,"ĠluÃ¢n":4472,"ĠgiÆ¡":4473,"ĠHonda":4474,"ĠsÆ°ng":4475,"ĠmÃ¨o":4476,"ĠÃģo":4477,"itcoin":4478,"ĠrÃ¡p":4479,"ĠcÃ´n":4480,"Ġ33":4481,"Ġsh":4482,"ĠSÃ¡ch":4483,"ĠQU":4484,"ĠtÃ¢":4485,"Ġnguyá»ĩt":4486,"ÄĲÃ³":4487,"Ġbong":4488,"LÆ°u":4489,"undai":4490,"ĠlÃ©o":4491,"ĠHiá»ģn":4492,"ĠGold":4493,"ĠTháº©m":4494,"Ġbar":4495,"ĠCáº©m":4496,"Ġxá»ī":4497,"Ġkeo":4498,"Chiá»ģu":4499,"Dá»ĭch":4500,"ek":4501,"onesia":4502,"ĠPhilipp":4503,"ĠTrinh":4504,"sub":4505,"ĠhÆ°u":4506,"KH":4507,"ĠÄĲáº¿":4508,"min":4509,"ÃĬN":4510,"ĠLÃ£nh":4511,"Ġtuyáº¿t":4512,"ĠKiáº¿m":4513,"ĠMad":4514,"Ð»":4515,".[":4516,"ĠlÃ¹ng":4517,"ĠPC":4518,"ĠVáºŃn":4519,"ĠCA":4520,"ĠMÃłu":4521,"ĠToyota":4522,"ero":4523,"ĠÄĳÃ¹a":4524,"ĠIt":4525,"UBND":4526,"ĠNhÆ¡n":4527,"ĠPhá»ĳ":4528,"arden":4529,"Ġthá»ĭnh":4530,"Ġbai":4531,"ĠNhÃ¬n":4532,"ohn":4533,"ĠCal":4534,"ĠChr":4535,"ĠÄĳc":4536,"ĠTop":4537,"Ġquá»·":4538,"ĠÃ¢u":4539,"NhÃ¢n":4540,"ĠTÃ¡c":4541,"LÃłm":4542,"ĠxÃło":4543,"ĠCáº¥p":4544,"Ġ250":4545,"ï¼":4546,"Ġ320":4547,"Bá»ĩnh":4548,"Qua":4549,"ĠSiÃªu":4550,"ĠMo":4551,"Ġruá»Ļng":4552,"kin":4553,"soft":4554,"ale":4555,"Ġmá»ı":4556,"Ġthuáº«n":4557,"giá»":4558,"ĠCÃ¢y":4559,"ĠchiÃªm":4560,"ĠhÃ²n":4561,"MÃ¬nh":4562,"Ġhá»¥":4563,"ä¸":4564,"Ġbuá»ĵng":4565,"edia":4566,"Nam":4567,"ĠQuÃ¡n":4568,"ĠtÃ¡m":4569,"ĠSH":4570,"Ġ65":4571,"Ġ39":4572,"Ġhttps":4573,"ĠchuÃ´ng":4574,"ĠTÃŃn":4575,"ĠdÃ£y":4576,"eu":4577,"Ã¹n":4578,"ĠxÃ¡":4579,"Ġbá»ī":4580,"Ġmo":4581,"NháºŃn":4582,"?\"":4583,"ĠTrÃ¡i":4584,"LÃºc":4585,"uchia":4586,"Ġnáº¡i":4587,"Ġngá»¥":4588,"ĠÄĲiá»ģn":4589,"Ġmarketing":4590,"Ġká»ī":4591,"Khu":4592,"atch":4593,"Ġlogo":4594,"ĠThá»«a":4595,"PhÃ¡t":4596,"Ġcá»§ng":4597,"Ġdá»ĳc":4598,"Ġmáº¡":4599,"Ġå¤":4600,"ChÃło":4601,"org":4602,"ĠTN":4603,"ĠmÃłi":4604,"ĠnghiÃªng":4605,"vÃł":4606,"Ġve":4607,"Ġfull":4608,"TN":4609,"Pháº§n":4610,"Ġphanh":4611,"Ġrá»ī":4612,"ĠQuyá»ģn":4613,"ĠlÆ°á»Ŀng":4614,"Ġxoa":4615,"ĠmuÃ´n":4616,"Tiáº¿p":4617,"ĠÄĲÃ¨n":4618,"ĠBu":4619,"ĠkhÃ©p":4620,"ĠphÃ´":4621,"ĠchÃªnh":4622,"ona":4623,"ĠdáºŃp":4624,"Ġlá»įt":4625,"ĠÄĲáº£o":4626,"ĠTháº¥t":4627,"Ġmáº·n":4628,"ĠbÃ¹ng":4629,"Ġæľ":4630,"ĠXanh":4631,"ĠkhoÃ¡":4632,"Ġtro":4633,"à¸":4634,"CB":4635,"ĠBáº£ng":4636,"ThÃłnh":4637,"ieu":4638,"Ġq":4639,"Ġnáº£y":4640,"ÄĲáº§u":4641,"ĠthÃ¨m":4642,"ĠÄĳáº±ng":4643,"ĠTháºŃm":4644,"64":4645,"ere":4646,"Ġplay":4647,"ĠYáº¿n":4648,"Ġprotein":4649,"ĠASEAN":4650,"ert":4651,"Ġtráº¯c":4652,"ĠmÃ²":4653,"Ġcuá»Ļn":4654,"ĠIndonesia":4655,"ĠVáº¥n":4656,"ĠKÃŃch":4657,"ĠCO":4658,"ĠHá»Ĺ":4659,"ĠParis":4660,"Ġ;":4661,"á»ĺ":4662,"Ġdá»ĳi":4663,"ene":4664,"ĠÄĲá»įc":4665,"ĠxÃł":4666,"BÃ¬nh":4667,"ĠcÆ°á»¡ng":4668,"Ġsá»ī":4669,"for":4670,"lu":4671,"Ġráº¯c":4672,"ĠvÃ²i":4673,"Thá»§":4674,"EN":4675,"ĠVáºŃt":4676,"2010":4677,"Ġkiáº¿p":4678,"ĠFord":4679,"ĠthÆ°a":4680,"Viet":4681,"ĠNa":4682,"ĠBHXH":4683,"85":4684,"Ġrá»ĳt":4685,"ĠLáºŃp":4686,"Ġkaraoke":4687,"ĠnÃ©m":4688,"ĠThÃªm":4689,"ĠTá»·":4690,"Ġcáº¯p":4691,"Ġis":4692,"ĠÄĳÃłnh":4693,"ĠBang":4694,"Ġtriáº¿t":4695,"ĠxÄĥm":4696,"uyÃª":4697,"ĠVinhomes":4698,"ĠmÄĥ":4699,"ĠLÄĥng":4700,"ĠPan":4701,"Ġdáº»o":4702,"Ġbá»Ļi":4703,"Ġná»ĳt":4704,"ĠmÆ°á»£n":4705,"ĠCen":4706,"ĠEn":4707,"LiÃªn":4708,"ext":4709,"ire":4710,"ĠkÃ¨o":4711,"Æ¯u":4712,"ĠInter":4713,"ĠHáº§u":4714,"enz":4715,"Ġrá»ĵng":4716,"vent":4717,"ĠTáº¿":4718,"ley":4719,"Ġ195":4720,"Ġyáº¿t":4721,"agr":4722,"Ġcont":4723,"Ġbáº¥y":4724,"á»Ĭ":4725,"ĠhÃ²":4726,"ĠChá»£":4727,"Ġä½":4728,"ĠvÃ³c":4729,"Ġchá»£t":4730,"Ġwin":4731,"Ġ2007":4732,"ĠXuyÃªn":4733,"ĠKhang":4734,"ize":4735,"ĠPhá»§":4736,"ĠthÃ¬a":4737,"Cuá»Ļc":4738,"ĠYork":4739,"Ġlung":4740,"ĠNo":4741,"www":4742,"FF":4743,"ĠMÃ¹a":4744,"Ðº":4745,"áº¿ch":4746,"che":4747,"Ġtru":4748,"ĠhÆ¡":4749,"ĠMer":4750,"Ãºm":4751,"ĠCá»Ńu":4752,"á»ĩn":4753,"ĠngÃ´":4754,"Ġcáº¯n":4755,"Ġåħ":4756,"Ġpho":4757,"ĠThÃ¡p":4758,"Ãĵ":4759,"Ġláº¥n":4760,"Ġcá»įc":4761,"raz":4762,"Há»ĩ":4763,"Ġnghá»ĭch":4764,"Ġ64":4765,"Ġcar":4766,"Ġdá»ĵi":4767,"ĠOne":4768,"ĠLH":4769,"Ġsuá»ĳi":4770,"ĠcÃłnh":4771,"ĠthiÃª":4772,"ĠBay":4773,"Ġkhá»Ń":4774,"ĠtÆ°á»Ľi":4775,"ason":4776,"Ġ<":4777,"ĠhÃ¡i":4778,"QuÃ½":4779,"áº¿m":4780,"ĠTÆ°á»Ŀng":4781,"ĠHP":4782,"ĠÄĳáº·n":4783,"Ġrá»ħ":4784,"Ġle":4785,"Chá»ĭ":4786,"ĠSony":4787,"ĠnÃ´n":4788,"iano":4789,"&#":4790,"less":4791,"ĠSÃ´ng":4792,"col":4793,"ĠTuyáº¿t":4794,"Ġná»©t":4795,"ĠAng":4796,"ĠvÃ¢y":4797,"63":4798,"ĠLá»ĩ":4799,",..":4800,"ĠÄĳiá»ģn":4801,"ĠMod":4802,"ĠMÃ´":4803,"Ġsá»ĳc":4804,"áº»m":4805,"ĠmÆ°á»£t":4806,"Ġmp":4807,"ĠCampuchia":4808,"ĠÄĤn":4809,"ĠxÃŃch":4810,"Ġnhang":4811,"Ľt":4812,"lymp":4813,"ĠláºŃt":4814,"ka":4815,"==":4816,"ĠbÃ³p":4817,"Ġhat":4818,"Ġ1000":4819,"ĠGS":4820,"ĠÄĲáº¡t":4821,"QT":4822,"ĠmÃºa":4823,"TX":4824,"âĢĶ":4825,"ĠTrÃ¬nh":4826,"ĠPrem":4827,"ĠGu":4828,"ĠMau":4829,"list":4830,"ĠÆ¯":4831,"YT":4832,"ĠBÃ¡":4833,"Ġtphcm":4834,"ĠCai":4835,"ĠHi":4836,".,":4837,"ĠCháº¯c":4838,"ĠLiÃªm":4839,"ames":4840,"ĠxÃ¡m":4841,"Ġngá»Ļt":4842,"Ġcá»ĵn":4843,"cÃ¡c":4844,"ĠÄĳáº¯ng":4845,"ĠNghiá»ĩp":4846,"Ġthuá»·":4847,"ĠlÆ°á»Ľt":4848,"Ġæĺ":4849,"ence":4850,"Ġfacebook":4851,"ĠPhilippines":4852,"ĠTM":4853,"let":4854,"Pad":4855,"eck":4856,"ĠrÃ´":4857,"ĠThuá»ĳc":4858,"press":4859,"lÃłm":4860,"./.":4861,"ÄĤ":4862,"Ġxen":4863,"ux":4864,"Ġmanh":4865,"ĠBÃ¡ch":4866,"72":4867,"Ban":4868,"Ġtui":4869,"á»°":4870,"ĠCT":4871,"Ġráº¡ng":4872,"ÃĮ":4873,"ĠJohn":4874,"Ġthá»īnh":4875,"CD":4876,"Ġtoa":4877,"IT":4878,"Ġkhoáº£nh":4879,"SN":4880,"ĠLáº§n":4881,"ĠMax":4882,"ĠTranh":4883,"ĠHotline":4884,"Xin":4885,"ĠKitÃ´":4886,"Viá»ĩt":4887,"ĠQuá»¹":4888,"ThÃ¡ng":4889,"ĠthÃ¡m":4890,"US":4891,"ĠmÃ¢u":4892,"á»¤":4893,"bao":4894,"ĠTáº¡o":4895,"Ġhotline":4896,"=\"":4897,"ti":4898,"62":4899,"earl":4900,"Ġtrinh":4901,"ĠngÆ°ng":4902,"ĠMon":4903,"á»Ńng":4904,"Ġ99":4905,"Ġnhá»Ł":4906,"HÃ¬nh":4907,"Ġkiá»ĩt":4908,"ĠSeo":4909,"ĠKhai":4910,"AL":4911,"ĠnÆ°Æ¡":4912,"Ġrun":4913,"KhÃ¡ch":4914,"ĠÄĳá»Ľi":4915,"Má»įi":4916,"ĠRo":4917,"ĠtrÆ¡":4918,"ĠHiáº¿u":4919,"ĠGarden":4920,"ĠThÃºy":4921,"Ġview":4922,"iel":4923,"ĠChiáº¿c":4924,"ĠRiÃªng":4925,"Ġnghiá»ĩn":4926,"ngh":4927,"oly":4928,"ĠOlymp":4929,"ĠTáº§n":4930,"ĠthiÃªng":4931,"Ġsi":4932,"Ġuá»ĳn":4933,"Ġä¸į":4934,"ĠHyundai":4935,"ĠVáº¡n":4936,"gia":4937,"Ġgu":4938,"Ġdá»ĵn":4939,"Â»":4940,"ĠDiá»ĩp":4941,"Ġ800":4942,"ĠTre":4943,"cho":4944,"low":4945,"Ġluá»ĵng":4946,"ĠNÄĥng":4947,"ĠkiÃªng":4948,"Ġviá»ģn":4949,"Ġhe":4950,"ĠQuáº£":4951,"ĠsÃ©t":4952,"ĠÄĳáº¡m":4953,"ĠÆ°":4954,"ĠTHCS":4955,"Ġhá»¥t":4956,"Ġyáº¿n":4957,"ĠchÃ¡o":4958,"ĠhÃª":4959,"ĠPal":4960,"89":4961,"ĠSá»©c":4962,"ĠÄĲÃłn":4963,"ĠBáº¡c":4964,"bon":4965,"PhÃ²ng":4966,"Ġvá»Ł":4967,"Ġchá»Ńi":4968,"sea":4969,"udio":4970,"onald":4971,"Há»įc":4972,"tra":4973,"ĠÄĲan":4974,"Ġkhiáº¿t":4975,"ĠCÄĲ":4976,"ĠgÃ¡c":4977,"ĠkiÃª":4978,"ĠgÃµ":4979,"ĠxÆ°ng":4980,"ĠIII":4981,"Ġlui":4982,"ĠMÆ°á»Ŀi":4983,"Ġä¸įbáº¥t":4984,"ict":4985,"ĠxÃ´i":4986,"Ġgo":4987,"ĠTáº£i":4988,"ĠÄĳáº¡c":4989,"dr":4990,"ĠVua":4991,"ĠAP":4992,"ĠÄĲÃ´i":4993,"hoáº·c":4994,"DA":4995,"ĠXS":4996,"ĠChá»įn":4997,"Ġloi":4998,"ĠBi":4999,"74":5000,"agon":5001,"ĠlÃ¢":5002,"Ġwww":5003,"ĠSch":5004,"ĠNguá»ĵn":5005,"ital":5006,"ĠCá»ĳ":5007,"ĠTruyá»ĩn":5008,"ĠÄĳinh":5009,"Ġtáº¡":5010,"ĠHuá»ĩ":5011,"OR":5012,"Ġtrá»«ng":5013,"ĠÄĲÃ¡nh":5014,"chá»ī":5015,"Ġres":5016,"ĠBÃ¡t":5017,"iverside":5018,"Ġdá»Ł":5019,"ĠRob":5020,"76":5021,"ki":5022,"ĠdÅ©ng":5023,"cr":5024,"Ġdá»Ļi":5025,"ĠTÆ°Æ¡ng":5026,"ĠCÃ¡":5027,"Ġdáº£i":5028,"Ġby":5029,"ĠTÃ¹y":5030,"ĠÄĳan":5031,"ĠÄĳá»įng":5032,"tá»«":5033,"ory":5034,"Gia":5035,"enc":5036,"Ġki":5037,"Ġbáº¿":5038,"Ġdáº¡i":5039,"Ġ42":5040,"ĠSup":5041,"Ġchip":5042,"ĠÃ´tÃ´":5043,"Ġcuá»ĵng":5044,"ĠkÃ©p":5045,"ĠÄĳá»¥c":5046,"etro":5047,"Ġgas":5048,"ĠXi":5049,"Má»Ľi":5050,"ĠtÃł":5051,"Ġlá»¥":5052,"Ġcanxi":5053,"ĠxÃ³t":5054,"Ġcáº¡n":5055,"ĠchÃ¬a":5056,"Ġchá»ĳn":5057,"okia":5058,"lines":5059,"Ġyou":5060,"Thanh":5061,"MB":5062,"Ġ2006":5063,"ĠÄĳÃŃnh":5064,"áºłI":5065,"Tui":5066,"ĠFull":5067,"ower":5068,"ĠDiá»ĩu":5069,"An":5070,"Ġrá»ĩt":5071,"Ġá»¨ng":5072,"ĠMU":5073,"Ġtaxi":5074,"ĠÄĳáº¿m":5075,"BTC":5076,"ĠÄĳá»©t":5077,"á»ĩm":5078,"ji":5079,"400":5080,"Ġcháº·ng":5081,"ane":5082,"CÆ¡":5083,"ĠsÆ°á»Ŀn":5084,"ĠrÃ¢":5085,"ĠMe":5086,"AG":5087,"Ġxao":5088,"ĠhÆ°ng":5089,"ger":5090,"ĠSá»Ńa":5091,"Ta":5092,"ya":5093,"áº¤T":5094,"INH":5095,"Sá»Ł":5096,"Ġkhoang":5097,"ĠlÅ©y":5098,"ĠkhÆ¡i":5099,"ĠkiÃªm":5100,"ĠCáºŃp":5101,"ĠWebsite":5102,"ĠChÆ°a":5103,"Giáº£i":5104,"ĠNgÅ©":5105,"ĠWh":5106,"ĠrÃ¡o":5107,"ĠnhÃŃ":5108,"ĠViá»ħn":5109,"ĠSen":5110,"ĠÄĲiá»ĥn":5111,"Ba":5112,"Cá»¥":5113,"ĠèĢ":5114,"ĠTuá»ķi":5115,"li":5116,"ĠÄĳá»¥ng":5117,"42":5118,"ĠAt":5119,"Iáº¾":5120,"Ġdá»ĩt":5121,"43":5122,"Ġni":5123,"ĠÄĲáº·t":5124,"ĠGáº§n":5125,"ustral":5126,"nháº¥t":5127,"Ġgá»«ng":5128,"Ñĥ":5129,"tin":5130,"ĠEU":5131,"vÃ´":5132,"ĠHang":5133,"NhÃ¬n":5134,"Mua":5135,"Ġky":5136,"ĠBÃŃch":5137,"The":5138,"Lu":5139,"TÃ¬nh":5140,"ĠBÆ°á»Ľc":5141,"ĠÃło":5142,"ĠMicrosoft":5143,"ĠhoÃłnh":5144,"ÄĲÃ£":5145,"ura":5146,"thá»ĭ":5147,"Ġná»į":5148,"ĠgÃ£y":5149,"ĠNgÃ£i":5150,"ĠLá»±c":5151,"ĠLáº¡i":5152,"Ġcá»±":5153,"TÃ¬m":5154,"Ġå¾":5155,"Ãļ":5156,"ĠcÃºi":5157,"ĠÄĲáº¹p":5158,"ĠvÃ¡n":5159,"NguyÃªn":5160,"Ġtáº£n":5161,"ĠBÃ¢y":5162,"ĠchÃ¢":5163,"MP":5164,"mer":5165,"ĠTá»©":5166,"Ġdáº¹p":5167,"Ġnhá»¥c":5168,"ance":5169,"ĠbÃłng":5170,"].":5171,"ĠÄĲÃ¡":5172,"ĠxÆ°á»Ľc":5173,"port":5174,"ĠPhÃ¹":5175,"ari":5176,"ĠNghi":5177,"ĠbÃ¡ch":5178,"ĠÄĲáº¯k":5179,"ĠHáº¯n":5180,"FA":5181,"Ná»Ļi":5182,"ĠgiÃ²n":5183,"ĠVideo":5184,"ĠÄĳáº¯m":5185,"eng":5186,"Ġcá»į":5187,"hip":5188,"á»Ľn":5189,"Ġngá»±":5190,"Ġá»ĳm":5191,"Ġcá»Łi":5192,"Ġháº¡ch":5193,"Ġ49":5194,"600":5195,"ĠquÃ£ng":5196,"73":5197,"ĠsÃºc":5198,"Má»¹":5199,"ott":5200,"ega":5201,"TháºŃt":5202,"Cua":5203,"ĠNÃłng":5204,"Ġ95":5205,"Ġlá»į":5206,"RO":5207,"Ġá»§":5208,"ĠBÃ³ng":5209,"cÃ´ng":5210,"Tags":5211,"ĠKÃŃnh":5212,"Ġquáº§y":5213,"MS":5214,"AP":5215,"Ġvá»ĭt":5216,"Ġhá»ĳ":5217,"ĠChiá»ģu":5218,"ĠbÃ£":5219,"ĠThá»©c":5220,"elsea":5221,"ĠBá»ĭ":5222,"ĠCáºŃu":5223,"ĠCÆ°":5224,"ĠnghiÃª":5225,"Cuá»ĳi":5226,"ĠTai":5227,"tá»±":5228,"ĠCá»§a":5229,"mail":5230,"Ġdáº·n":5231,"Ġvo":5232,"Ġphe":5233,"Máº·t":5234,"ï¿½ï¿½":5235,"album":5236,"ĠHoÃł":5237,"ĠDÃ²ng":5238,"wit":5239,"uong":5240,"ann":5241,"ĠAb":5242,"ĠComp":5243,"ĠVal":5244,"ĠKá»·":5245,"ise":5246,"Ġgáº¯t":5247,"Tham":5248,"ĠHÃłm":5249,"HÆ¡n":5250,"Ġnhá»Ŀn":5251,"me":5252,"Ġeo":5253,"ĠtÃ¡nh":5254,"Sá»Ń":5255,"ĠSaigon":5256,"Ġbá»ĵ":5257,"lin":5258,"ĠngÃ¢y":5259,"Ãºn":5260,"Ġráº½":5261,"ĠtrÃ¢u":5262,"Ìģ,":5263,"táº£i":5264,"ĠLG":5265,"ĠLÆ°á»£ng":5266,"ĠTay":5267,"Tin":5268,"Ġbáº¡t":5269,"'s":5270,"Ġ85":5271,"ĠbÃ¹n":5272,"Ġ2005":5273,"room":5274,"ors":5275,"Ġau":5276,"ĠvÃłnh":5277,"Ġit":5278,"ĠCty":5279,"ĠsÃ¡p":5280,"ĠHiáº¿n":5281,"800":5282,"ĠrÃ¢u":5283,"CuaTui":5284,"ĠNhacCuaTui":5285,"ced":5286,"BÃ¡o":5287,"ĠTá»ĳt":5288,"Ġ43":5289,"ÃĤN":5290,"ĠvÆ°á»£ng":5291,"di":5292,"ode":5293,"Ġháº£":5294,"ustralia":5295,"ita":5296,"ĠXÃ´":5297,"ĠSky":5298,"áº¢nh":5299,"ĠAirlines":5300,"ĠTrÃ¬":5301,"Ġkhá»ĳng":5302,"ĠBlack":5303,"ĠSam":5304,"ĠChÃº":5305,"Ġstr":5306,"ĠtÃ³m":5307,"ĠSte":5308,"Ġvoi":5309,"Ġgáº¡t":5310,"ĠBV":5311,"ĠDá»¥ng":5312,"ĠThiá»ģn":5313,"ĠEuro":5314,"Ġdá»Ĺ":5315,"Ġmáº¹o":5316,"ĠBo":5317,"igh":5318,"nhÃ¢n":5319,"rl":5320,"ĠbÃ¡u":5321,"ĠgÃłng":5322,"ĠBá»ĳ":5323,"âĢ¦âĢĿ":5324,"ĠCB":5325,"razil":5326,"Ġlen":5327,"ler":5328,"ĠHÃĢ":5329,"ĠLand":5330,"ĠMadrid":5331,"2009":5332,"ĠGÃ²":5333,"ĠçĦ":5334,"ĠStar":5335,"ĠtrÃ¹m":5336,"PhÆ°Æ¡ng":5337,"ited":5338,"ts":5339,"ĠCap":5340,"ĠChá»©c":5341,"KT":5342,"iew":5343,"ĠlÆ°":5344,"á»£p":5345,"ĠViÃª":5346,"Ġ700":5347,"ĠItal":5348,"Ġnhá»Ļn":5349,"ĠKhÃª":5350,"Ġacid":5351,"Ġåı":5352,"ĠtÃ²":5353,"Ġthon":5354,"Hoa":5355,"ĠPháº©m":5356,"Ġcáº¥y":5357,"gh":5358,"ĠphÃ¬":5359,"ĠÄĳÄĥ":5360,"á»¦":5361,"ĠNote":5362,"Ġkáº¹o":5363,"ĠCháº¿":5364,"Ġgá»ī":5365,"Ġoff":5366,"ĠChamp":5367,"Ġxá»ĭt":5368,"ĠSÃ¡u":5369,">>":5370,"ĠSal":5371,"Ġxoáº¯n":5372,"86":5373,"TVT":5374,"Ġke":5375,"AND":5376,"ĠdÃª":5377,"Ġtrá»ħ":5378,"ĠgiÃłn":5379,"wer":5380,"ĠTÆ°á»Ľng":5381,"ĠMáºŃu":5382,"ĠVá»«a":5383,"ena":5384,"Ġvá»ī":5385,"Ġá»§i":5386,"ĠNS":5387,"ĠTrÃºc":5388,"ĠÄĳÃ²n":5389,"Kinh":5390,"aul":5391,"ĠÄĳÃ¹i":5392,"Ġbá»įt":5393,"Ġloss":5394,"TB":5395,"ĠPhÃ¹ng":5396,"CÃ¡i":5397,"AI":5398,"ĠÄĲáº¥ng":5399,"ĠiPad":5400,"Chi":5401,"Ġlaser":5402,"ĠCamera":5403,"ĠKiá»ĩt":5404,"ola":5405,"Ġsá»ıi":5406,"ĠPhá»¥c":5407,"rom":5408,"199":5409,"ĠVNÄĲ":5410,"Ġdong":5411,"ĠDV":5412,"ĠnhÃ¬":5413,"ĠMarketing":5414,"ĠGiÃ¡p":5415,"Quy":5416,"Ġcollagen":5417,"Ġplaylist":5418,"59":5419,"ĠGiÃºp":5420,"Ġgay":5421,"41":5422,"ĠTuyá»ĥn":5423,"ĠBitcoin":5424,"ĠRiverside":5425,"ĠMobile":5426,"ĠBÄĥng":5427,"ĠÄĲÃºng":5428,"ĠLang":5429,"MÃ¹a":5430,"Ġrang":5431,"Ġuáº¥t":5432,"Ġxáº¯n":5433,"ĠOb":5434,"MÃ´":5435,"Ġlá»¥a":5436,"ĠOff":5437,"2008":5438,"eal":5439,"ÄĲiá»ĥm":5440,"ĠMang":5441,"ĠTráº¡ch":5442,"á»Ľc":5443,"ney":5444,"ÃĿ":5445,"ĠBÃ©":5446,"Báº£n":5447,"oss":5448,"ĠChelsea":5449,"ĠChuyá»ĩn":5450,"ĠbÄĥ":5451,"Ġlossless":5452,"ĠNhÄ©":5453,"ĠKy":5454,"ĠYou":5455,"ĠhÃŃt":5456,"by":5457,"ĠChÃ¹a":5458,"Ġháº»m":5459,"ĠcháºŃt":5460,"oáº¡n":5461,"Thu":5462,"Ġfl":5463,"Ġnháº¥p":5464,"ĠAustralia":5465,"QG":5466,"ĠÄĳiÃªu":5467,"ĠBáº£y":5468,"!\"":5469,"ĠGh":5470,"EM":5471,"Ġvá»Ĺ":5472,"ifone":5473,"HÆ°á»Ľng":5474,"Æ°Æ¡m":5475,"ĠMá»©c":5476,"VÄĥn":5477,"ĠBS":5478,"Äģ":5479,"Ġkhuáº¥t":5480,"Ġwifi":5481,"Ġkiá»ģm":5482,"ĠNews":5483,"ashing":5484,"ĠBrazil":5485,"ĠTruy":5486,"Máº«u":5487,"Bank":5488,"ĠViáº¿t":5489,"TÃŃnh":5490,"ife":5491,"Ġåį":5492,"ĠxÃ¬":5493,"ĠKem":5494,"ĠSÃ³c":5495,"ĠMuá»ĳn":5496,"les":5497,"kr":5498,"DC":5499,"ĠVill":5500,"Ġlog":5501,"ĠðŁ":5502,"Ġchá»Ľ":5503,"ĠQuÃ¡":5504,"ĠgáºŃt":5505,"))":5506,"Ġngáº«u":5507,"ĠlÃ¡nh":5508,"ĠlÆ°Æ¡":5509,"Ġspa":5510,"ational":5511,"ĠTriá»ĥn":5512,"erry":5513,"Ġnáº¿n":5514,"Ġtap":5515,"ĠmÃ£nh":5516,"Sá»ĳ":5517,"ĠtrÃ¡n":5518,"Ġä»":5519,"Ġláº·n":5520,"Thay":5521,"ĠIran":5522,"uatui":5523,"ĠThuáºŃt":5524,"ĠLá»Ļ":5525,"ĠBáº¿p":5526,"ĠdÃło":5527,"aphone":5528,"ĠbÃ³c":5529,"Ġnhá»įn":5530,"ĠtÃº":5531,"cuatui":5532,"ashington":5533,"Ġlá»Ļt":5534,"ins":5535,"¯a":5536,"ĠMil":5537,"Ġlanh":5538,"way":5539,"ooth":5540,"ĠHá»Ļ":5541,"Ġkbps":5542,"ĠCÃºc":5543,"ĠNi":5544,"Ġïĥ":5545,"Ġgá»Ļi":5546,"ĠchÃ©m":5547,"AD":5548,"Ġpost":5549,"ĠLiá»ĩu":5550,"ĠTá»§":5551,"ings":5552,"Ġkáº¹t":5553,"Ġngáº¡ch":5554,"ĠTrÆ°ng":5555,"ĠÄĲÃłm":5556,"ron":5557,"Ġ47":5558,"ĠTáº¡p":5559,"TáºŃp":5560,"ĠÄĳá»ĳng":5561,"aki":5562,"onaldo":5563,"tá»©c":5564,"ĠhÆ°á»Ľc":5565,"ĠGT":5566,"KS":5567,"ĠchÃł":5568,"ĠGreen":5569,"ĠquÃŃ":5570,"ĠNhaccuatui":5571,"ĠIm":5572,"ĠHÃ£ng":5573,"Ġnan":5574,"ĠKháº£":5575,"Ġgolf":5576,"Ġlá»Ł":5577,"ĠxÃ´":5578,"Ġkhao":5579,"ĠMC":5580,"ream":5581,"ĠkhÃŃa":5582,"Ġtrá»ĩt":5583,"Ġmuá»Ĺi":5584,"unt":5585,"que":5586,"ĠmÃ¢m":5587,"erm":5588,"aza":5589,"AO":5590,"Ġsá»¥p":5591,"ĠHiá»ĥu":5592,"ĠChuyá»ĥn":5593,"ĠVá»ĩ":5594,"ĠKÃ½":5595,"Ġxáº£o":5596,"ĠSang":5597,"ĠhÃ´ng":5598,"ban":5599,"ĠMáº¡ng":5600,"ĠLÃ£o":5601,"ĠNhÃ³m":5602,"ll":5603,"ĠTour":5604,"ĠSÃ¢n":5605,"ĠCNTT":5606,"ĠÂ«":5607,"ĠVan":5608,"Ġgen":5609,"ĠTá»³":5610,"rael":5611,"ĠnhÆ°á»Ŀng":5612,"Nguyá»ħn":5613,"ĠVP":5614,"å¤":5615,"ĠVÃĢ":5616,"Ġdá»Ŀi":5617,"Æ¡ng":5618,"Ġniá»ĩu":5619,"Ġnghiá»ĩt":5620,"Ráº¥t":5621,"Ġ46":5622,"otel":5623,"Ġdáº·m":5624,"Ġá»Ĳ":5625,"AY":5626,"ĠDonald":5627,"ĠSP":5628,"ĠÄĳÃ£ng":5629,"ĠtÃ¡t":5630,"Ø§":5631,"ĠDT":5632,"Ġnháº·t":5633,"Ġluá»Ļc":5634,"Ġvuá»ĳt":5635,"................................":5636,"Le":5637,"Home":5638,"theo":5639,"ives":5640,"ĠKhÃŃ":5641,"irc":5642,"Ġtá»³":5643,"Du":5644,"ÄĲá»ĭa":5645,"Ġngáº¯t":5646,"Ġkháº½":5647,"ĠâĨ":5648,"ONG":5649,"isa":5650,"Hz":5651,"ĠCÃĶNG":5652,"ĠKháº£i":5653,"Ġgá»ĳm":5654,"ĠMáº¡c":5655,"Ġ44":5656,"ĠdÃ©p":5657,"ietnam":5658,"Vá»ĭ":5659,"ĠRom":5660,"Ġmy":5661,"83":5662,"Ġlá»ĳp":5663,"Ġmodel":5664,"ĠHN":5665,"ĠHoáº¡t":5666,"Ġcáº±m":5667,"ĠRa":5668,"Ġnhá»ĭn":5669,"Ġráº¡p":5670,"Ġsá»Ŀ":5671,"ĠHong":5672,"ĠLá»Ľp":5673,"ĠTuáº§n":5674,"uto":5675,"ĠkhiÃªm":5676,"uki":5677,"ĠLiÃªu":5678,"gen":5679,"ĠTá»ĳi":5680,"ĠBlu":5681,"bur":5682,"Ġgr":5683,"itar":5684,"Ġbanh":5685,"arm":5686,"Ġmuá»Ĺng":5687,"ĠÄĲá»ı":5688,"Ġalbum":5689,"tion":5690,"ther":5691,"iforn":5692,"áº¿ng":5693,"ĠBro":5694,"ĠThuáº¿":5695,"Ġlá»Ļi":5696,"oga":5697,"ChuyÃªn":5698,"Ġcháº£o":5699,"ĠUá»·":5700,"Ġgom":5701,"Ġä¸Ģ":5702,"ĠsÃ¹i":5703,"ĠHan":5704,"ĠÆ¯u":5705,"ĠPet":5706,"Ġcard":5707,"hay":5708,"ĠCÆ°Æ¡ng":5709,"ĠWashington":5710,"Ġset":5711,"Ġrá»ĥ":5712,"ĠAM":5713,"Cáº£m":5714,"á»£t":5715,"aomi":5716,"ĠDuyÃªn":5717,"Ġgiáº¿ng":5718,"ĠchÃ´n":5719,"ĠBiáº¿t":5720,"ĠSá»ĳng":5721,"Ġgá»Łi":5722,"Ġas":5723,"ĠcÃ³c":5724,"NÆ°á»Ľc":5725,"ĠBÃ¡nh":5726,"ĠCro":5727,"ĠloÃ©t":5728,"inho":5729,"Ġ41":5730,"ĠBiá»ĩt":5731,"><":5732,"ĠMong":5733,"ifornia":5734,"ĠïĢ½":5735,"ĠCháº¥p":5736,"Ñı":5737,"Ġnhuyá»ħn":5738,"ĠKhá»ĳi":5739,"ĠTá»ĭnh":5740,"Æ¯Æł":5741,"ondon":5742,"otor":5743,"á»Ķ":5744,"ĠCor":5745,"Ñĭ":5746,"Ġngá»¥c":5747,"icon":5748,"Ġtuá»³":5749,"ĠTrÄĥng":5750,"ĠchÃ¬":5751,"Ġtáº¡ng":5752,"vÃ¢n":5753,"ĠRAM":5754,"HD":5755,"Ġuá»·":5756,"ĠResort":5757,"ĠphÆ°á»Ľc":5758,"ĠrÃ¡ch":5759,"Ġváº¯t":5760,"van":5761,"ĠGrand":5762,"Ġphot":5763,"ĠÄĳÃ¨":5764,"Ġoan":5765,"ĠmÃło":5766,"%)":5767,"ĠMin":5768,"ĠMich":5769,"61":5770,"Ġkhiáº¿p":5771,"alog":5772,"Há»ĵ":5773,"Ġtá»ĵi":5774,"ĠVND":5775,"Ġranh":5776,"ĠCD":5777,"Ġbá»Ļc":5778,"ĠhÆ°Æ¡":5779,"Ġ110":5780,"ele":5781,"HÃłng":5782,"ĠGiai":5783,"ĠVui":5784,"Ġchá»įc":5785,"ĠTá»ĳng":5786,"aka":5787,"Ġvá»©":5788,"ĠgÃ²":5789,"ĠchÃ¹m":5790,"Ġmá»īm":5791,"ĠBÃ£i":5792,"Ġcau":5793,"sc":5794,"71":5795,"ĠMc":5796,"ĠbÆ°u":5797,"Ãµm":5798,"http":5799,"ĠCu":5800,"der":5801,"ĠTho":5802,"ainer":5803,"apa":5804,"ĠTag":5805,"Ġ51":5806,"ĠIsrael":5807,"tÆ°Æ¡ng":5808,"So":5809,"Ġ900":5810,",âĢĿ":5811,"æľ":5812,"Ġcá»Ľ":5813,"ĠNhiá»ĩt":5814,"84":5815,"ĠæŃ":5816,"ĠbÃºn":5817,"ĠHá»ıa":5818,"ĠçĶ":5819,"âľ":5820,"ĠchiÃª":5821,"ĠKhá»Łi":5822,"outh":5823,"ĠÄĲá»Ļc":5824,"Ð°Ð":5825,"ĠtoÃł":5826,"phá»¥c":5827,"ĠHome":5828,"Ġrong":5829,"ĠJe":5830,"ĠNhuáºŃn":5831,"ody":5832,"Ġex":5833,"ĠGo":5834,"Ġat":5835,"ĠCM":5836,"ĠKhoáº£n":5837,"ĠNgá»¯":5838,"Ġnguá»Ļi":5839,"UYá»":5840,"ĠPer":5841,"ĠHO":5842,"ĠSil":5843,"uck":5844,"ater":5845,"DÆ°á»Ľi":5846,"ĠEmail":5847,"ĠArsen":5848,"Ġtest":5849,"ĠKháº¯c":5850,"ĠiOS":5851,"ĠloÃ£ng":5852,"Ġpr":5853,"Ġmá»§":5854,"ĠSU":5855,"ĠTC":5856,"ĠNGH":5857,"ĠlÆ°á»Ŀi":5858,"ĠRá»ĭa":5859,"ĠPhiÃªn":5860,"ĠÃĤn":5861,"Ġmuá»Ļi":5862,"Ġnhiáº¿p":5863,"ĠsÆ°á»Łi":5864,"ĠTráº¯ng":5865,"ĠOlympic":5866,"ĠxuÃ´i":5867,"ĠMÃłn":5868,"ĠVTV":5869,"ĠCas":5870,"Ġä¸Ģnháº¥t":5871,"ĠDav":5872,"Å©a":5873,"ĠbuÃ½t":5874,"ĠPS":5875,"ĠMess":5876,"Æ¯á»ľ":5877,"ĠMá»Ŀi":5878,"ĠVIá»Ĩ":5879,"giÃ¡":5880,"Cl":5881,"ĠnÃ¡ch":5882,"Ġviáº¿ng":5883,"Ġcach":5884,"ĠSE":5885,"Ġbá»«ng":5886,"St":5887,"ĠKhuyáº¿n":5888,"ĠShi":5889,"ĠKhoáº£ng":5890,"ĠNgÃ´i":5891,"ĠbÆ°á»Łi":5892,"ĠSV":5893,"istan":5894,"Ġváº·n":5895,"eta":5896,"ĠBÃ¡i":5897,"avel":5898,"ĠChampions":5899,"ĠvÃ£":5900,"ĠAngel":5901,"Ġhiáº¿p":5902,"ĠGiÃ¡ng":5903,"ĠMobifone":5904,"TÆ°":5905,"Cháº¥t":5906,"Ġáº¢":5907,"quy":5908,"ĠLondon":5909,"ĠMart":5910,"ĠDis":5911,"ĠtÄĥm":5912,"ĠÄĳoan":5913,"Ġnuá»ĳt":5914,"etooth":5915,"thu":5916,"Ġbá»±c":5917,"ĠRonaldo":5918,"HP":5919,"ĠDáº¡":5920,"ĠSÆ¡":5921,"Ġnhung":5922,"Ġgieo":5923,"xx":5924,"aha":5925,"ĠMÃ³n":5926,"anmar":5927,"ĠrÃ©t":5928,"ual":5929,"za":5930,"Ġgáº§y":5931,"ĠtÃºng":5932,"ĠJu":5933,"Ġday":5934,"Ġnghiá»ģn":5935,"PP":5936,"ĠNhÃ£":5937,"lÃ´":5938,"87":5939,"Æ¯ÆłNG":5940,"ava":5941,"ANH":5942,"ÃĮNH":5943,"RE":5944,"Ġliá»ħu":5945,"ĠnÃłn":5946,"ĠGen":5947,"kheo":5948,"Ġcháº£i":5949,"Ġkiá»ģu":5950,"Danh":5951,"Ġyoutube":5952,"ĠThÃ¬":5953,"ĠCalifornia":5954,"Ġque":5955,"Báº£o":5956,"Ġ52":5957,"82":5958,"Ġthoáº£":5959,"lÃł":5960,"Ġsal":5961,"be":5962,"ĠSuper":5963,"ĠgÃ¢n":5964,"ĠSá»¹":5965,"Chiáº¿c":5966,"Ġngá»¡":5967,"cl":5968,"Ġngáº·t":5969,".-":5970,"itan":5971,"DI":5972,"ÄĲÃºng":5973,"ĠGTVT":5974,"opy":5975,"ĠKr":5976,"Ġmáº§u":5977,",\"":5978,"ĠDes":5979,"Äĳáº¡i":5980,"ĠsÃłnh":5981,"ĠPlay":5982,"ĠVáº¥p":5983,"ÄĲá»«ng":5984,"ster":5985,"ÄĲá»ģ":5986,"ĠMP":5987,"play":5988,"ĠTháº¥y":5989,"ĠBá»ī":5990,"Ġnhuá»Ļm":5991,"ĠâĢĶ":5992,"ĠVinaphone":5993,"Ġvá»īa":5994,"amil":5995,"pool":5996,"ishi":5997,"Ġmá»ĵi":5998,"ĠthÆ°Æ¡":5999,"ĠAN":6000,"ĠQL":6001,"2007":6002,"Ai":6003,"52":6004,"Ġsáº§m":6005,"Ġvá»ĭnh":6006,"!!!":6007,"able":6008,"ĠTower":6009,"Ġ00":6010,"ĠSpa":6011,"Ġkáº¹p":6012,"ĠçĦ¡":6013,"Ġor":6014,"\":":6015,"ĠdÃ¢":6016,"Ġgiáº·c":6017,"mg":6018,"ĠBM":6019,"over":6020,"Ġæĸ":6021,"Ġ2004":6022,"...]":6023,"OV":6024,"ixel":6025,"ĠBus":6026,"ÄĲÆ°á»Ŀng":6027,"54":6028,"ĠEr":6029,"ham":6030,"ÂŃ":6031,"Ġsc":6032,"nhÃł":6033,"ĠLÃ´":6034,"ĠHIV":6035,"Ġun":6036,"%;":6037,"ĠÄĳuá»ĳi":6038,"\",\"":6039,"ĠbÃ¨n":6040,"ĠNhanh":6041,"Ġghen":6042,"ĠLuÃ¢n":6043,"ĠghÃª":6044,"ova":6045,"TD":6046,"ĠrÃ¡t":6047,"ĠkhÃ¡nh":6048,"ĠÃ¡":6049,"ĠBlog":6050,"Ġcomp":6051,"ĠThÃ¹y":6052,"ĠkiÃªu":6053,"ical":6054,"ĠTáº·ng":6055,"ĠKon":6056,"Ġlá»Ļng":6057,"ĠĠĠĠĠĠĠĠ":6058,"Ġdang":6059,"ĠMaria":6060,"Ġcá»«":6061,"Ġgel":6062,"ĠgÃ³t":6063,"ĠnÃ³n":6064,"br":6065,"Nháº±m":6066,"ĠUV":6067,"Báº¥t":6068,"ĠRed":6069,"ement":6070,"ĠLáº¥y":6071,"Ġkáº½m":6072,"Ġå¦":6073,"Ġká»µ":6074,"ĠNay":6075,"Ġráº£i":6076,"Ġláº«y":6077,"ANG":6078,"ĠbÆ°á»Ľ":6079,"Ġstress":6080,"fo":6081,"ĠChia":6082,"ĠVina":6083,"Ġsá»¥n":6084,"ĠTech":6085,"ĠNokia":6086,"ĠKang":6087,"eview":6088,"ĀĀĀĀĀĀĀĀĀĀĀĀĀĀĀĀĀĀĀĀĀĀĀĀĀĀĀĀĀĀĀĀĀĀĀĀĀĀĀĀĀĀĀĀĀĀĀĀĀĀĀĀĀĀĀĀĀĀĀĀĀĀĀĀĀĀĀĀĀĀĀĀĀĀĀĀĀĀĀĀĀĀĀĀĀĀĀĀĀĀĀĀĀĀĀĀĀĀĀĀĀĀĀĀĀĀĀĀĀĀĀĀĀĀĀĀĀĀĀĀĀĀĀĀĀĀĀĀĀĀĀĀĀĀĀĀĀĀĀĀĀĀĀĀĀĀĀĀĀĀĀĀĀĀĀĀĀĀĀĀĀĀĀĀĀĀĀĀĀĀĀĀĀĀĀĀĀĀĀĀĀĀĀĀĀĀĀĀĀĀĀĀĀĀĀĀĀĀĀĀĀĀĀĀĀĀĀĀĀĀĀĀĀĀĀĀĀĀĀĀĀĀĀĀĀĀĀĀĀĀĀĀĀĀĀĀĀĀĀĀĀĀĀĀĀĀĀĀĀĀĀĀĀĀĀĀĀĀĀĀĀĀĀĀĀĀĀĀĀĀĀĀĀĀĀĀĀĀĀĀĀĀĀĀĀĀĀĀĀĀĀĀĀĀĀĀĀĀĀĀĀĀĀĀĀĀĀĀĀĀĀĀĀĀĀĀĀĀĀĀĀĀĀĀĀĀĀĀĀĀĀĀĀĀĀĀĀĀĀĀĀĀĀĀĀĀĀĀĀĀĀĀĀĀĀĀĀĀĀĀĀĀĀĀĀĀĀĀĀĀĀĀĀĀĀĀĀĀĀĀĀĀĀĀĀĀĀĀĀĀĀĀĀĀĀĀĀĀĀĀĀĀĀĀĀĀĀĀĀĀĀĀĀĀĀĀĀĀĀĀĀĀĀĀĀĀĀĀĀĀĀĀĀĀĀĀĀĀĀĀĀĀĀĀĀĀĀĀĀĀĀĀĀĀĀĀĀĀĀĀĀĀĀĀĀĀĀĀĀĀĀĀĀĀĀĀĀĀĀĀĀĀĀĀĀĀĀĀĀĀĀĀĀĀĀĀĀĀĀĀĀĀĀĀĀĀĀĀĀĀĀĀ":6089,"ĠTÃŃch":6090,"Ġnhá»ķ":6091,"ĠthÃªu":6092,"ĠgiÃ£":6093,"ĠpháºŃt":6094,"gent":6095,"ĠÄĲang":6096,"ĠXII":6097,"ĠKiá»ĥu":6098,"ition":6099,"ĠLee":6100,"ĠâĨĴ":6101,"thi":6102,"ĠxÃłi":6103,"»¿":6104,"ĠBTC":6105,"ĠTrá»±c":6106,"ĠFran":6107,"Ġ2003":6108,"lÆ°á»£ng":6109,"ĠÂ·":6110,"ĠPhu":6111,"Ġcode":6112,"ÄĲá»©c":6113,"nhá»¯ng":6114,"Ġrá»§":6115,"Ġbáº©m":6116,"Ġcáº©m":6117,"ĠåĲ":6118,"Ġ72":6119,"ĠchÃ©o":6120,"ae":6121,"Ġ180":6122,"DS":6123,"ĠBHYT":6124,"ĠkhiÃªu":6125,"ĠUyÃªn":6126,"ĠçĦ¡vÃ´":6127,"ĠphiÃªu":6128,"ĠtriÃª":6129,"ÐµÐ":6130,"ĠdÃ¬":6131,"ford":6132,"ĠÄĳao":6133,"ĠThoáº¡i":6134,"bin":6135,"ĠArsenal":6136,"kyo":6137,"Ġkhinh":6138,"Ã©c":6139,"Ġback":6140,"ĠTri":6141,"ĠbÃ¢":6142,"ĠNgÃ´n":6143,"Ġäºĳ":6144,"Ġchapter":6145,"ĠÄĲá»ĳng":6146,"ĠVy":6147,"Ġkhay":6148,"BÃ¡c":6149,"zu":6150,"Ġdá»¡":6151,"ĠtÆ°á»Ľc":6152,"ĠDan":6153,"áº¦N":6154,"ĠVÃ²ng":6155,"aine":6156,"ĠTuáº¥t":6157,"ĠSáº½":6158,"Ġmore":6159,"DF":6160,"ĠäºĳvÃ¢n":6161,"ĠVitamin":6162,"Vá»«a":6163,"ĠMyanmar":6164,"ĠMit":6165,"ĠvÆ°":6166,"esterol":6167,"ÄĲi":6168,"Ġ54":6169,"Ġus":6170,"%/":6171,"Äĳá»ĥ":6172,"ven":6173,"pa":6174,"acute":6175,"âĢ¦)":6176,"ĠKÃ´ng":6177,"Ġ360":6178,"BT":6179,"Ġtoan":6180,"ĠrÃ²":6181,"Ġseo":6182,"á»¨":6183,"Ġmicro":6184,"Ġngáº¥t":6185,"page":6186,"Re":6187,"ĠMu":6188,"ÃĲ":6189,"Ġsá»¥t":6190,"ĠåĪ":6191,"Ġen":6192,"vá»Ľi":6193,"700":6194,"ĠhÃ¢n":6195,"cedes":6196,"Ġæĺ¯":6197,"58":6198,"ĠPGS":6199,"......":6200,"ĠMáºŃt":6201,"ĠSport":6202,"ĠAT":6203,"ÄĳÃ£":6204,"Ġwith":6205,"ons":6206,"IP":6207,"ĮC":6208,"ĠTá»©c":6209,"Náº±m":6210,"ĠPhÃŃa":6211,"Ġnhai":6212,"ĠdÆ°ng":6213,"rm":6214,"ĠChÄĥm":6215,"Ġ63":6216,"ĠMÆ°á»Ŀng":6217,"Máº¹":6218,"ĠAC":6219,"khoáº£ng":6220,"56":6221,"ĠLáº¡ng":6222,"ĠPhá»ķ":6223,"Ġæĺ¯thá»ĭ":6224,"ĠMat":6225,"oint":6226,"há»¯u":6227,"bi":6228,"Ġxá»ĳp":6229,"Ġhoáº¡":6230,"ĠÄĲÃªm":6231,"Ġhack":6232,"Ġnhiá»ħu":6233,"ĠMel":6234,"ĠhiÃªn":6235,"Gáº§n":6236,"ÄĳÆ°á»£c":6237,"ĠNgÆ°á»£c":6238,"ĠRang":6239,"ĠlÃ¡ng":6240,"ĠNáº±m":6241,"ĠhÃ£m":6242,"ĠWord":6243,"ĠGiáº£m":6244,"ĠTÃ¡m":6245,"ĠSáº¯c":6246,"ĠÆ°á»Ľp":6247,"ĠQuáº§n":6248,"Ġvá»£t":6249,"ĠcÃło":6250,"ĠmÃ¢":6251,"Ġtháº¡o":6252,"DL":6253,"trung":6254,"Ġhuyá»ĩt":6255,"ĠMáº¡ch":6256,"ella":6257,"ĠBen":6258,"py":6259,"Ġdec":6260,"OL":6261,"ĠPower":6262,"á»ķn":6263,"ĠKhÃ³a":6264,"äº":6265,"TiÃªu":6266,"ĠObama":6267,"otte":6268,"Ġ1975":6269,"iverpool":6270,"ĠYo":6271,"ĠVu":6272,"Ġgáº§m":6273,"ĠEco":6274,"td":6275,"ĠhoÃ£n":6276,"ÃĴ":6277,"dro":6278,"ĠThiÃªm":6279,"ĠMiá»ħn":6280,"ĠGIÃģ":6281,"Quyáº¿t":6282,"Ġ@":6283,"____":6284,"Phim":6285,"ĠPremier":6286,"ĠCá»ķng":6287,"ĠgiÃ²":6288,"ĠIV":6289,"Cáº£":6290,"sau":6291,"Chu":6292,"Quáº£ng":6293,"Ġgáº¥u":6294,"ĠMT":6295,"Ġvn":6296,"ĠChar":6297,"ĠTokyo":6298,"ĠXiaomi":6299,"ĠBer":6300,"CÄĲ":6301,"Ġchá»Ľp":6302,"ĠUnited":6303,"pearl":6304,"ĠcÆ°ng":6305,"cÃ´":6306,"Tu":6307,"ouse":6308,"Ġ220":6309,"ĠÃĲá»©c":6310,"omb":6311,"ĠcuÃ´":6312,"ĠTáº¡":6313,"bal":6314,"ĠÄĳÆ¡":6315,"ĠKCN":6316,"ĠCÃģ":6317,"Ġrá»Ļ":6318,"ĠLáº¡p":6319,"Ġcáº©u":6320,"Ġlá»ĵn":6321,"ĠNhung":6322,"ĠTiáº¿t":6323,"Ġbalo":6324,"PN":6325,"ĠchÆ°á»Ľng":6326,"ĠMá»Ł":6327,"ĠISO":6328,"aco":6329,"ĠBig":6330,"150":6331,"ĠCá»©u":6332,"Bá»Łi":6333,"Ġkhuya":6334,"thÃłnh":6335,"ĠMÃ´ng":6336,"TTg":6337,"ja":6338,"Ġnáº£n":6339,"ĠOp":6340,"ĠSi":6341,"ters":6342,"HS":6343,"ett":6344,"DÃ¢n":6345,"ĠHol":6346,"Ġ68":6347,"duc":6348,"ĠKá»ĥ":6349,"MI":6350,"Ġdr":6351,"PhÃ³":6352,"Ġéģ":6353,"ĠKing":6354,"Ã³p":6355,"ĠTiá»ĩn":6356,"Ġvá»±ng":6357,"ĠcÃºm":6358,"ĠKhÃ¡c":6359,"ĠJack":6360,"UNG":6361,"LÃ½":6362,"ĠGiáº£":6363,"DN":6364,"Ġlay":6365,"VÃŃ":6366,"ĠhÄĥng":6367,"ora":6368,"ips":6369,"ĠGl":6370,"ko":6371,"ĠKong":6372,"Ġ88":6373,"ĠLiá»ħu":6374,"ĠÃģp":6375,"Giá»Ľi":6376,"ĠbÃ©n":6377,"Ġlá»Ńng":6378,"ny":6379,"Ĥ«":6380,"Ġ56":6381,"ingroup":6382,"Ġtháº£n":6383,"ates":6384,"PC":6385,"Ġhoi":6386,"peria":6387,"ĠHÄĲQT":6388,"ĠBiá»ĥu":6389,"ĠDÄ©":6390,"ĠnÆ°":6391,"ĠTÃ¡t":6392,"ĠCáº£ng":6393,"ĠMos":6394,"Ġdáº¡n":6395,"Ġchol":6396,"Ġtá»¥i":6397,"ĠBank":6398,"Phá»¥":6399,"star":6400,"ĠGiÃ¡c":6401,"ami":6402,"Ġcá»Ĺ":6403,"Ġquáº¥n":6404,"ĠThuyáº¿t":6405,"sinh":6406,"ĠhÃ©t":6407,"ĠNiÃªn":6408,"53":6409,"ĠGB":6410,"atin":6411,"Ġchá»ĳc":6412,"ĠMÃ¹i":6413,"Ġ>>":6414,"aya":6415,"CÃ¢y":6416,"biz":6417,"ser":6418,"ĠnÃłnh":6419,"ĠVÆ°á»Ŀn":6420,"witter":6421,"TÃ¢n":6422,"ĠmáºŃp":6423,"ĠView":6424,"áº¬T":6425,"air":6426,"ÑĮ":6427,"ani":6428,"anc":6429,"Ġtráº§y":6430,"Ġel":6431,"shine":6432,"work":6433,"Ġ--":6434,"Ġiphone":6435,"ĠChuáº©n":6436,"ĠmÃ¡c":6437,"2006":6438,"ĠUkr":6439,"ĠRá»ĵng":6440,"ĠEng":6441,"oster":6442,"giáº£":6443,"err":6444,"ĠquyÃª":6445,"ĠKhÃ¡m":6446,"Ġxoang":6447,"Ġcat":6448,"áº®":6449,"ĠHiá»ĥn":6450,"xÃ£":6451,"USD":6452,"Há»į":6453,"ĠchÃ¨n":6454,"ĠSw":6455,"Ġná»ĩm":6456,"ĠPin":6457,"Ġæķ":6458,"ĠtÆ°Æ¡":6459,"pro":6460,"ĠKi":6461,"57":6462,"ĠDel":6463,"ĠlÆ°á»£n":6464,"ĠbÃ¬a":6465,"ĠMag":6466,"ĠcÃºp":6467,"Ġ59":6468,"CCC":6469,"agrave":6470,"Ġbáº¡":6471,"ĠChrist":6472,"ĠÄĳiá»ģm":6473,"ĠvÃłn":6474,"xe":6475,"Ġcá»ĳi":6476,"?âĢĿ.":6477,"Ġnhá»įc":6478,"Ġsáº¿p":6479,"Pr":6480,"ĠVá»ĭnh":6481,"FC":6482,"Ġnoi":6483,"ĠVingroup":6484,"xem":6485,"ĠShow":6486,"ĠAlex":6487,"Tá»ķ":6488,"ĠNgÃłnh":6489,"Ġsáº§u":6490,"ĠEle":6491,"ĠMore":6492,"ĠchÃ³i":6493,"Sinh":6494,"ĠngáºŃm":6495,"Ġsty":6496,"ĠLiverpool":6497,"ĠÄĲá»Ŀi":6498,"ĠSn":6499,"Tá»ĳi":6500,"Lá»Ŀi":6501,"du":6502,"ĠLi":6503,"Ġje":6504,"asonic":6505,"Ġgiu":6506,"ĠMá»«ng":6507,"Ġcontainer":6508,"âĢ¦âĢ¦âĢ¦âĢ¦âĢ¦âĢ¦âĢ¦âĢ¦":6509,"exico":6510,"ĠPha":6511,"áº½n":6512,"Ġngoáº¡n":6513,"GiÃ¡o":6514,"ĠTáº§ng":6515,"Ġchui":6516,"ĠSá»¯a":6517,"Ġhost":6518,"ĠmiÃªu":6519,"TO":6520,"ĠchuyÃª":6521,"ĠNet":6522,"ĠMÃª":6523,"Ġthá»ı":6524,"ĠVol":6525,"html":6526,"Ġnhat":6527,"PhÃ¡p":6528,"ator":6529,"TÄĥng":6530,"dotel":6531,"ĠRead":6532,"ĠÄĳá»Ļn":6533,"ĠÃ¢":6534,"ĠEver":6535,"ĠSÃłn":6536,"itt":6537,"ĠAll":6538,"BA":6539,"Ġdes":6540,"CL":6541,"men":6542,"ĠTrÃłng":6543,"fÃ©":6544,"Thá»ĭ":6545,"Ġsho":6546,"Ġvá»©t":6547,"Ġsá»«ng":6548,"combank":6549,"ĠGP":6550,"áº¶":6551,"ĠÄĳÃłng":6552,"áº¢N":6553,"Ġcholesterol":6554,"ony":6555,"azon":6556,"ĠvÃ´i":6557,"Ġgym":6558,"wood":6559,"cc":6560,"ĠWar":6561,"ĠPhÃŃ":6562,"Ġ58":6563,"Com":6564,"Ġ=>":6565,"Æ°á»Ŀm":6566,"ĠphÃ¡c":6567,"Ġå¸":6568,"ĠnÃªm":6569,"Ġthá»ĳi":6570,"NV":6571,"Ġloan":6572,"ThÃ¡i":6573,"Ġquáº¥y":6574,"ĠláºŃn":6575,"ĠÃģi":6576,"TA":6577,"ĠWal":6578,"ĠTá»ĳ":6579,"ĠBos":6580,"Äĳá»ĳi":6581,"ĠTáº¡ng":6582,"ĠSl":6583,"ii":6584,"ĠTháºŃp":6585,"ado":6586,"ThiÃªn":6587,"Láº§n":6588,"ĠgáºŃy":6589,"ĠLed":6590,"ward":6591,"HoÃłng":6592,"ĠHill":6593,"ept":6594,"Ġcr":6595,"QH":6596,"ĠxÃ©":6597,"Ġ350":6598,"Nghe":6599,"mÃ´n":6600,"Ġgá»¥c":6601,"phi":6602,"Ġkhá»ĳc":6603,"Ġsáº£nh":6604,"pha":6605,"ĠMercedes":6606,"ĠLaser":6607,"ĠngÆ¡":6608,"Huyá»ĩn":6609,"ific":6610,"ĠCÃ´n":6611,"ĠIntel":6612,"Ġmáº¯ng":6613,"eed":6614,"ĠcÃºc":6615,"fr":6616,"Ġâľ":6617,"Ġ1900":6618,"ery":6619,"ĠPhá»¥ng":6620,"Hy":6621,"ĠPlaza":6622,"ĠCEO":6623,"Má»¥c":6624,"ĠVá»£":6625,"giá»Ŀ":6626,"Ġform":6627,"Ġnhá»ĵi":6628,"QL":6629,"ĠHÃ²n":6630,"ĠID":6631,"Ġblock":6632,"ĠnhÃ¡y":6633,"ĠLuáºŃn":6634,"Ġæľī":6635,"áº¬N":6636,"Cá»Ńa":6637,"ĠnÃª":6638,"Ġráº¡n":6639,"ĠFLC":6640,"Ġgirl":6641,"ĠNháºŃp":6642,"evel":6643,"Ġkhan":6644,"Ġ53":6645,"ĠxuÃ¢":6646,"BÃłn":6647,"ĠMobi":6648,"ction":6649,"Ġcáº·n":6650,"ĠchÆ°ng":6651,"iga":6652,"ThÃªm":6653,"ĠliÃªng":6654,"thanh":6655,"ĠSmart":6656,"Ġsil":6657,"ĠgiÃ¡ng":6658,"Ġthá»¥c":6659,"ĠtoÃ¡t":6660,"ĠnháºŃu":6661,"gentina":6662,"ĠViÃªm":6663,"day":6664,"ourinho":6665,"ĠGeo":6666,"Ġchat":6667,"my":6668,"Ġ).":6669,"ĠAg":6670,"ĠTÆ°á»Łng":6671,"MA":6672,"CV":6673,"Ġrá»Ĺi":6674,"ĠÄĲáº£m":6675,"ĠLÄĲ":6676,"ĠÄĳÅ©a":6677,"ĠnhÃ¡i":6678,"ĠNAM":6679,"ĠJo":6680,"TE":6681,"utin":6682,"ĠSá»ķ":6683,"box":6684,"ĠNÃºi":6685,"ÄĲá»Ļi":6686,"ĠSol":6687,"uild":6688,"AV":6689,"Ġphai":6690,"Ġåľ":6691,"ĠLCD":6692,"Ġtháº¯p":6693,"word":6694,"lic":6695,"Ġä¹ĭ":6696,"ĠnhÅ©":6697,"Ġrob":6698,"xin":6699,"ĠkhÃŃt":6700,"Ġæľīhá»¯u":6701,"2019":6702,"Ġ98":6703,"oshi":6704,"ĠMr":6705,"Ġ%":6706,"Ġngoa":6707,"Ġå¿":6708,"Ġtáº¡c":6709,"Ġep":6710,"ĠmÃ©p":6711,"ĠTuyáº¿n":6712,"Ġthiáº¿p":6713,"ĠLÃ¡":6714,"ĠvÃ¡c":6715,"ĠMexico":6716,"ĠrÃ²ng":6717,"Ġ62":6718,"ĠÄĲá»ĳc":6719,"uz":6720,"ĠTY":6721,"Ġtháº¯n":6722,"ĠnhÃłm":6723,"ĠTom":6724,"Ġráº£nh":6725,"Ġè¦":6726,"ĠNghiÃªm":6727,"ĠTQ":6728,"ĠLáº¯p":6729,"Ġcomment":6730,"Ġmobile":6731,"ĠRoy":6732,"Cam":6733,"Iá»ĨN":6734,"Háº§u":6735,"Ġ69":6736,"Ġkhuáº¥y":6737,"Ġbá»ķn":6738,"ĠâĢĭ":6739,"ĠChá»¯":6740,"Ġä¹ĭchi":6741,"Ìī,":6742,"ĠTráº¥n":6743,"ĠWest":6744,"GA":6745,"ĠDavid":6746,"ÃĢN":6747,"51":6748,"ĠhÃ³c":6749,"Äĳá»ĵng":6750,"Ġdata":6751,"Ġbus":6752,"Ġphá»Ł":6753,"ĠÄĲÃ¡ng":6754,"ĠUnivers":6755,"ĠHotel":6756,"ĠthÃŃnh":6757,"Ġquá»³":6758,"ĠChá»ĳng":6759,"PháºŃt":6760,"ĠPCCC":6761,"Ġnew":6762,"ĠCont":6763,"Nhá»Ŀ":6764,"Ġ~":6765,"ima":6766,"cher":6767,"Ġlá»¥t":6768,"Ġmon":6769,"osa":6770,"½©":6771,")-":6772,"Ġtáº¥u":6773,"Ìģ.":6774,"ĠYam":6775,"ĠkÃ©t":6776,".)":6777,"ican":6778,"Ġcity":6779,"Ġbá»Ľi":6780,"Ġgoogle":6781,"ĠnÃ¡o":6782,"ĠTwitter":6783,"ĠTK":6784,"ĠphÃ´ng":6785,"Ġthat":6786,"',":6787,"ĠTum":6788,"oria":6789,"Ġháº¯c":6790,"ĠXÃ¡":6791,"Tiá»ĥu":6792,"Ġcháº§n":6793,"Ġvá»Ľt":6794,"ĠlÃ©n":6795,"ĠBinh":6796,"ĠChÆ¡i":6797,"Ġkhá»ĳn":6798,"ĠNov":6799,"ĠCá»±c":6800,"Chia":6801,"vá»ĭ":6802,"ĠTá»ĳc":6803,"ĠrÃ£":6804,"ĠKha":6805,"ĠHTX":6806,"Ġphá»¥ng":6807,"phÃºt":6808,"ĠKar":6809,"ille":6810,"date":6811,"nhÆ°ng":6812,"Įnh":6813,"ĠQuáº¿":6814,"ĠÐ¿":6815,"sá»±":6816,"ĠÄĲen":6817,"Ġrá»Ľt":6818,"á»ļ":6819,"ĠNhiÃªn":6820,"Ġchuá»ĵng":6821,"ĠÄĳáºŃy":6822,"ĠVIá»ĨT":6823,"ĠnhÃ¡t":6824,"Ġniá»ģng":6825,"âĸ":6826,"Ġngháº¹t":6827,"ĠCá»§":6828,"ĠDÃ¢y":6829,"ĠVinpearl":6830,"ĠArgentina":6831,"Ġhorm":6832,"ĠrÆ°á»Ľc":6833,"Â°":6834,"ged":6835,"Ġthá»§ng":6836,"thá»Ŀi":6837,"ĠWe":6838,"Ġquáº¿":6839,"Æ¯á»ļ":6840,"Ġbá»ĩ":6841,"Ġrá»Ĺng":6842,"ori":6843,"ĠmÃŃa":6844,"national":6845,"Buá»ķi":6846,"¥nh":6847,"ĠÄĳá»Ŀ":6848,"Ġpiano":6849,"ult":6850,"ĠMaster":6851,"ĠInst":6852,"UB":6853,"ĠMus":6854,"Ġdau":6855,"ĠWill":6856,"ĠIr":6857,"ĠLÃłng":6858,"ï»¿":6859,"Ġgáº·t":6860,"ÃģN":6861,"92":6862,"Ġare":6863,"Ġ\\":6864,"ĠSG":6865,"900":6866,"Ġ128":6867,"ĠDao":6868,"TTQ":6869,"ĠMourinho":6870,"Ġsize":6871,"Ah":6872,"Ġngá»ĳc":6873,"berg":6874,"ĠKhÆ°Æ¡ng":6875,"Ġtháº£y":6876,"ĠDáº§n":6877,"ĠSouth":6878,"ĠTimes":6879,"vÃ¬":6880,"ĠmiÃªn":6881,"ĠStr":6882,"Ġ125":6883,"ĠÄĳÃ¡i":6884,"Ġ130":6885,"ĠsáºŃp":6886,"táº¡i":6887,"ĠdiÃª":6888,"ĠtuÃ½":6889,"Quan":6890,"Ġnáº¿m":6891,"ĠHáº¡t":6892,"ĠVict":6893,"huyá»ĩn":6894,"Ġcháº±m":6895,"IL":6896,"Ġren":6897,"Ġlim":6898,"ĠHÃ¢n":6899,"Ná»¯":6900,"ĠKhuÃª":6901,"TÃłi":6902,"ÃĢI":6903,"Ġquá»µ":6904,"mua":6905,"ning":6906,"ato":6907,"ÑģÑĤ":6908,"ĠMS":6909,"Chung":6910,"NÃ³":6911,"----------------":6912,"Ġcheck":6913,"NQ":6914,"2005":6915,"ĠCV":6916,"BÃ¢y":6917,"ĠGolden":6918,"Ġxua":6919,"Ġhoáº¡n":6920,"ĠPa":6921,"åı":6922,"ĠgáºŃp":6923,"Ġ57":6924,"ĠChÃłng":6925,"224":6926,"crip":6927,"pad":6928,"Ġä¾":6929,"ĠHÃ´":6930,"Ġcalo":6931,"ĠSÃ¡t":6932,"âĢ¦,":6933,"ĠCenter":6934,"zada":6935,"ĠSapa":6936,"ĠoÃ¡n":6937,"ĠLáº¯k":6938,"ĠHá»ķ":6939,"Chuyá»ĩn":6940,"Fi":6941,"Ġláº©u":6942,"ĠchoÃ¡ng":6943,"Ġrá»ķ":6944,"ĠMessi":6945,"Loáº¡i":6946,"anda":6947,"ToÃłn":6948,"ĠVÄĲ":6949,"ĠMiss":6950,"gan":6951,"ĠRO":6952,"ĠKhanh":6953,"ĠChinh":6954,"try":6955,"Ġkháº¯t":6956,"TW":6957,"tÃ¢m":6958,"ĠPM":6959,"Ġquyá»ĩn":6960,"ealand":6961,"viet":6962,"Vá»¥":6963,"250":6964,"ĠNÃ¢ng":6965,"ĠGa":6966,"ĠCR":6967,"Ġcá»«u":6968,"Ġshowroom":6969,"ĠYoutube":6970,"Ġná»ī":6971,"ĠchÄĥ":6972,"eme":6973,"ĠPi":6974,"viáº¿t":6975,"ĠHTC":6976,"Ġbáº»":6977,"Ġresort":6978,"cá»ĳ":6979,"ĠÄĳá»ĳ":6980,"ĠGDP":6981,"ĠDáºŃu":6982,"Ġbáº«y":6983,"Nguá»ĵn":6984,"sá»ĳ":6985,"Ġphá»ĳt":6986,"Ġváº¥p":6987,"ĠLaptop":6988,"Ġ->":6989,"ĠGiá»ĳng":6990,"Pháº£i":6991,"Ġruá»ĵi":6992,"ĠLin":6993,"Ġtháº¡c":6994,"ĠæĽ":6995,"ĠthiÃªu":6996,"ĠTuyá»ĩt":6997,"Ġhá»ĩt":6998,"Cháº¯c":6999,"ĠçĽ":7000,"ĠnghÃª":7001,"DÃ¹ng":7002,"ĠDO":7003,"oli":7004,"Khoáº£ng":7005,"TÃ¡c":7006,"oney":7007,"sÆ°":7008,"Ġphiáº¿n":7009,"uba":7010,"ĠchÃ´":7011,"lish":7012,"Ġstart":7013,"celona":7014,"san":7015,"win":7016,"Ġcáº¡o":7017,"Ġå¦Ĥ":7018,"ĠDH":7019,"iness":7020,"otov":7021,"XD":7022,"Ġnáº¥y":7023,"Ġmenu":7024,"TÃªn":7025,"mÃ¡y":7026,"ĠTra":7027,"á»£n":7028,"ject":7029,"Ġngháº½n":7030,"ush":7031,"ĠmÄ©":7032,"ÃĹ":7033,"jet":7034,"96":7035,"ĠXÃ©t":7036,"Ġchen":7037,"any":7038,"ĠliÃª":7039,"Ġ2002":7040,"tÃ´i":7041,"ĠLá»Ľn":7042,"Ġ66":7043,"DT":7044,"ÄĲáº¥t":7045,"Ð²":7046,"áº¨":7047,"Co":7048,"ĠTrá»¥":7049,"Ġtab":7050,"dex":7051,"ĠtrÃ¹":7052,"atar":7053,"ĠVÃ¹ng":7054,"ĠTAND":7055,"Ġstyle":7056,"Chá»įn":7057,"ĠWi":7058,"Ġnhá»Ľt":7059,"Ġpoly":7060,"ĠCTC":7061,"ĠCáºŃn":7062,"ĠAp":7063,"Ġáº£":7064,"EX":7065,"lor":7066,"ida":7067,"chá»ĭ":7068,"Ġïģ":7069,"eon":7070,"ĠsÃ¡o":7071,"ĠAv":7072,"ĠHam":7073,"Phong":7074,"Lá»ħ":7075,"ĠhÃ©":7076,"ĠÄĳá»ĳm":7077,"ÄĲÃ¡nh":7078,"ĠvÃ²m":7079,"ĠThÃŃ":7080,"Ġxáº»":7081,"ĠPR":7082,"car":7083,"cÃ¡i":7084,"ĠUN":7085,"chÃºng":7086,"Ġhinh":7087,"Ġráº¡ch":7088,"cá»§a":7089,"ĠVC":7090,"Ġngáº£":7091,"2020":7092,"cÄĥn":7093,"quáºŃn":7094,"ĠDinh":7095,"ĠMá»Ļng":7096,"á»¬":7097,"cÃ¡ch":7098,"ĠDÆ°":7099,"BL":7100,"ĠPhao":7101,"ĠgÃ¡y":7102,"ĠGar":7103,"ĠXÃ¡c":7104,"ELTS":7105,"subishi":7106,"Ġwh":7107,"Ġ1990":7108,"ĠNgá»į":7109,"ocopy":7110,"city":7111,"mark":7112,"ĪĴ":7113,"tam":7114,"ĠNhá»Ľ":7115,"báº¡n":7116,"ĠSho":7117,"ĠJun":7118,"yn":7119,"ĠHiÃªn":7120,"chester":7121,"ĠcÃły":7122,"ĠLÄ©nh":7123,"ds":7124,"ĠÄĲá»ģn":7125,"Ġthuá»Ł":7126,"ĠMá»Ļ":7127,"ĠxÃ¡t":7128,"ChÃº":7129,"Ġdep":7130,"ĠnhÃłn":7131,"QuáºŃn":7132,"ĠFu":7133,"awa":7134,"khi":7135,"itr":7136,"NháºŃt":7137,"ĠPanasonic":7138,"ĠlÅ©ng":7139,"ĠtrÃªu":7140,"otovietnam":7141,"ĠlÃ¡ch":7142,"Ġsanotovietnam":7143,"Ġom":7144,"Æ¯á»ľNG":7145,"TK":7146,"Ġçľ":7147,"ĠHel":7148,"urn":7149,"'.":7150,"Ġhoc":7151,"ĠLÃ²":7152,"Ġnung":7153,"ĠPhÃª":7154,"ÄĲÄĥng":7155,"ware":7156,"âĢĻ.":7157,"âĢĿ;":7158,"Ġdecal":7159,"link":7160,"ĠSm":7161,"][":7162,"ĠrÃ£nh":7163,"ĠcÃ²i":7164,"ĢN":7165,"ĠDell":7166,"ĠVH":7167,"ÄĲoÃłn":7168,"ĠZealand":7169,"Ġmail":7170,"ĠMaz":7171,"Ġtá»¥t":7172,"Ġtá»ĳng":7173,"Ġæ³":7174,"ĠmuÃ´":7175,"chain":7176,"esh":7177,"ĠThuÃª":7178,"Báº±ng":7179,"ĠGiáº£ng":7180,"ci":7181,"ĠJose":7182,"ĠcÆ°a":7183,"ĠÄĲáº±ng":7184,"ĠMetro":7185,"ĠsÄĥ":7186,"ĠBB":7187,"Ġben":7188,"ĠRem":7189,"ĠBuÃ´n":7190,"NghiÃªn":7191,"Ġrobot":7192,"Ġtáº¥p":7193,"ChÆ°a":7194,"ĠPutin":7195,"dÄ©":7196,"ĠbÃºp":7197,"otton":7198,"ĠDong":7199,"plant":7200,"Ġ160":7201,"ĠBuá»ķi":7202,"NÃªn":7203,"ĠMáº¥y":7204,"ĠHá»ıi":7205,"Ġ{":7206,"ĠBMW":7207,"PL":7208,"han":7209,"Ġeuro":7210,"Ġdien":7211,"Ġ67":7212,"ĠThao":7213,"ĠÆ¯á»Ľc":7214,"ks":7215,"ĠLen":7216,"ĠTuá»ĩ":7217,"ĠkÃ¬m":7218,"Ġlike":7219,"tri":7220,"Ġvá»įt":7221,"Ì£,":7222,"ĠRao":7223,"Ġmg":7224,"ĠSunshine":7225,"ÄĳÆ°á»Ŀng":7226,"ĠHá»ĮC":7227,"ild":7228,"ĠxÃŃu":7229,"Â«":7230,"ĠhoÄĥ":7231,"ĠXá»Ń":7232,"Read":7233,"ĠBluetooth":7234,"Ã²e":7235,"ĠDiá»ħm":7236,"qua":7237,"ĠBáº¯t":7238,"ĠBarca":7239,"ĠvÃŃt":7240,"ĠUl":7241,"ĠAsia":7242,"ĠNN":7243,"Ġtáº©m":7244,"ĠDai":7245,"!âĢĿ.":7246,"Ġsáº¥u":7247,"ĠÃª":7248,"ĠHoÃ¡":7249,"ÄĲiá»ĩn":7250,"Ġteen":7251,"VC":7252,"ĠTráº¡m":7253,"81":7254,"Ġapp":7255,"ni":7256,"si":7257,"ĠNhá»ĭ":7258,"ĠÄĳÃ¨o":7259,"Ġcas":7260,"ĠXa":7261,"ThÆ°Æ¡ng":7262,"ĠPP":7263,"Sao":7264,"ga":7265,"sk":7266,"ĠSec":7267,"ĠCSGT":7268,"ĠïĢ«":7269,"Ġkhuynh":7270,"MÃ£":7271,"form":7272,"uis":7273,"ael":7274,"Ġgl":7275,"kok":7276,"Äĳa":7277,"HN":7278,"Sá»Ńa":7279,"ĠCá»±u":7280,"Ġnháº¥c":7281,"ĠXI":7282,"Â®":7283,"ĠClick":7284,"Pl":7285,"ĠJong":7286,"Ġ61":7287,"Ġlon":7288,"Tá»§":7289,"ĠIELTS":7290,"ĠMark":7291,"Ġngá»Ńa":7292,"á»¥i":7293,"Â²":7294,"ĠItalia":7295,"Ġvip":7296,"ĠchÃ¹i":7297,"lad":7298,"Ġ^":7299,"ĠGá»įi":7300,"Xuáº¥t":7301,"TÆ°Æ¡ng":7302,"ĠxoÃłi":7303,"ĠPT":7304,"MC":7305,"ĠÃºy":7306,"Ġbuá»ĳt":7307,"Ġæī":7308,"thiÃªn":7309,"HO":7310,"Tráº£":7311,"Ġ....":7312,"ĠCÃ¢n":7313,"RL":7314,"ĠnÃ¨":7315,"ĠnhÃºng":7316,"ĠAFF":7317,"ĠSuz":7318,"Ġtá»§y":7319,"ĠÄĳáº£":7320,"Ġ2001":7321,"bit":7322,"Ġthá»Ńa":7323,"Chiáº¿n":7324,"HÃłnh":7325,"Ġcap":7326,"IÃĬN":7327,"ĠVer":7328,"Pro":7329,"Ġmáº«n":7330,"ĠxÆ°á»Ľng":7331,"cÃ²n":7332,"Ġå®":7333,"Ġcac":7334,"Ġserver":7335,"Ġtáº£o":7336,"ppo":7337,"ĠVIP":7338,"ĠForm":7339,"ĠAmazon":7340,"ĠGiÃ³":7341,"ĠNÃ´":7342,"ĠTha":7343,"ĠèĢħ":7344,"ela":7345,"loud":7346,"ĠChap":7347,"gmail":7348,"ette":7349,"Ġphá»ĵng":7350,"Ġná»©c":7351,"aby":7352,"ĠBarcelona":7353,"ĠLÃ¢u":7354,"ĠGames":7355,"SC":7356,"Ġngáº¥m":7357,"ĠBL":7358,"ĠMun":7359,"ĠDá»¥c":7360,"Ġå°":7361,"Ġliáº¿c":7362,"ĠNÃły":7363,"Â·":7364,"Ká»ĥ":7365,"Diá»ħn":7366,"Ġthá»ģ":7367,"ĠgÃ²n":7368,"ĠLÃªn":7369,"dio":7370,"Ġnhe":7371,"phong":7372,"elf":7373,"ĠCanh":7374,"ĠèĢħgiáº£":7375,"Ġmáº©n":7376,"ĠHung":7377,"ĠTá»Ľi":7378,"Ġlá»«ng":7379,"Ġhd":7380,"ĠMed":7381,"120":7382,"Ġthá»ĳt":7383,"ĠtrÄĥn":7384,"EF":7385,"andal":7386,"Ġbá»ĵng":7387,"ĠUp":7388,"ĠtÃ¡ng":7389,"ĠéĽ":7390,"Ġtp":7391,"League":7392,"orm":7393,"ĠTráºŃn":7394,"ĠOpt":7395,"ĠInternational":7396,"Ġmá»ĳt":7397,"ĠEbook":7398,"ÃįNH":7399,"Łd":7400,"ĠkhiÃª":7401,"ĠÃºt":7402,"ĠHáº¡o":7403,"ĠGá»Ĺ":7404,"Äĳá»ģ":7405,"ĠcafÃ©":7406,"Iá»Ĥ":7407,"ĠJet":7408,"iger":7409,"ĠTrans":7410,"ĠbÃ¡i":7411,"ĠBal":7412,"ĠST":7413,"ĠNho":7414,"ĠOanh":7415,"ĠTrÃ£i":7416,"ĠNat":7417,"Ġtrau":7418,"oid":7419,"Ġ_":7420,"ĠÄĲá»ĵn":7421,"Diá»ĩn":7422,"Ġhá»Ŀ":7423,"Ġsáº£ng":7424,"Ġfree":7425,"ĠTá»ĭch":7426,"ury":7427,"Cháº³ng":7428,"ĠAud":7429,"ĠmÃ¹ng":7430,"ÄĤn":7431,"ĠSeoul":7432,"kinh":7433,"raq":7434,"ĠThiá»ĩu":7435,"Tráº§n":7436,"lam":7437,"ĠGTGT":7438,"ĠPVC":7439,"Ġar":7440,"Ġviettel":7441,"ĠLink":7442,"Ġ79":7443,"hiá»ĩn":7444,"ĠPe":7445,"ision":7446,"Ġmá»ĵm":7447,"row":7448,"eral":7449,"ĠLiá»ĩt":7450,"ĠMáº¯t":7451,"Ex":7452,"Ġvá»¥n":7453,"LuáºŃt":7454,"ĠcháºŃp":7455,"ĠHá»Ļp":7456,"Ġmix":7457,"ĠRiver":7458,"888":7459,"ĠMÅ©i":7460,"ĠngÃ³":7461,"king":7462,"ĠCentral":7463,"minh":7464,"ĠïĢŃ":7465,"rit":7466,"ĠNV":7467,"å½©":7468,"Ġáº¨":7469,"sm":7470,"Ġbl":7471,"ÃŃu":7472,"Ġ[...]":7473,"rolet":7474,"ĠThÃ´i":7475,"ĠMas":7476,"ĠPHÃģ":7477,"Tiá»ģn":7478,"ĠResid":7479,"ĠCá»ĳc":7480,"ĠLoa":7481,"Ġmoi":7482,"Ġbiáº¿u":7483,"ĠKT":7484,"bÃ¡n":7485,"evrolet":7486,"stem":7487,"atia":7488,"Ġnhá»§":7489,"Cung":7490,"ĠÄĳÆ°":7491,"áº³m":7492,"ĠTD":7493,"ĠModel":7494,"Ãµng":7495,"ĠMB":7496,"Bao":7497,"Ġcuá»ĳng":7498,"ĠGem":7499,"ĠTHU":7500,"ude":7501,"ĠlÃ¬":7502,"ĠÄĳáº¥m":7503,"ĠÄĲo":7504,"ĠChÃło":7505,"Tiáº¿ng":7506,"á»ª":7507,"ĠÎ":7508,"ĠRich":7509,"ovo":7510,"Ġáº§m":7511,"Ġtáº·c":7512,"ĠHal":7513,"ĠHÃłi":7514,"Ġ86":7515,"ĠÄĳáº½":7516,"Ġ73":7517,"ĠdÆ°Æ¡":7518,"ĠçĤ":7519,"TÃ¹y":7520,"ĠÄĳÃ´n":7521,"ira":7522,"ĠBÃ¨":7523,"ĠhÃ¨n":7524,"light":7525,"ĠUkraine":7526,"Ġ]":7527,"get":7528,"ĠMedia":7529,"umb":7530,"ĠbÄĥm":7531,"sanh":7532,"cess":7533,"ĠThÃ¡m":7534,"Ġ1999":7535,"Ġbiáº¿ng":7536,"ĠdÃ´ng":7537,"ĠCÃ¡n":7538,"ÄĲÃ¨n":7539,"EP":7540,"ĠMazda":7541,"Ġèĩ":7542,"ĠÄĲá»ĩ":7543,"ĠQuá»·":7544,"ĠnÃ©":7545,"ĠJames":7546,"Muá»ĳn":7547,"ĠTravel":7548,"ĠBill":7549,"ĠDiá»ĩm":7550,"Ġ89":7551,"Ġthung":7552,"ĠIraq":7553,"Ġnet":7554,"Al":7555,"ĠphÆ°á»£ng":7556,"ĠHáº£o":7557,"ĠchÃ¨o":7558,"ĠBol":7559,"Ġ101":7560,"iki":7561,"ĠWhite":7562,"XÃ¢y":7563,"ĠShin":7564,"ĠsÃłi":7565,"Ġap":7566,"Ġáº¥u":7567,"ViÃªm":7568,"ĠmÃºt":7569,"Æ¯á»¢":7570,"ĠDay":7571,"PhÃ¢n":7572,"ç¥":7573,"ĠArch":7574,"ĠTrÃ²":7575,"ĠTi":7576,"áº¦U":7577,"ĠBT":7578,"ĠnÃ£y":7579,"ĠngÃ³i":7580,"Ġlá»Ŀ":7581,"eco":7582,"Ġkhá»ī":7583,"Ãģo":7584,"Kim":7585,"ĠGam":7586,"¸ı":7587,"Trao":7588,"ĠÄĲÃ¡p":7589,"tream":7590,"ĠPhÃ³ng":7591,"Ð¾Ð²":7592,"ĠGiá»¯a":7593,"Ġthis":7594,"ĠGV":7595,"hy":7596,"ĠXX":7597,"ĠChiÃªu":7598,"0000":7599,"ĠPaul":7600,"Ġ96":7601,"ĠDVD":7602,"à¤":7603,"ĠKhÃºc":7604,"Ġ92":7605,"ĠæĪ":7606,"ĠSS":7607,"ĠXÆ°Æ¡ng":7608,"Ġná»Ļ":7609,"Thuá»ĳc":7610,"ĠComment":7611,"ĠrÃ¡n":7612,"ĠPost":7613,"Ġ140":7614,"ĠTui":7615,"ĠMitsubishi":7616,"ĠGÃł":7617,"Ġ82":7618,"ĠGeor":7619,"Ġå¤§":7620,"ĠxoÃ¡y":7621,"ĠÄĳÃ¡n":7622,"AA":7623,"ĠthuÃ´":7624,"ĠTÆ¯":7625,"ĠSant":7626,"Ġhá»ĳt":7627,"HC":7628,"Ġhen":7629,"ahoo":7630,"ĠQuÃ´":7631,"Ar":7632,"tron":7633,"ĦN":7634,"Ġhan":7635,"ĠLÃ¢n":7636,".....":7637,"ĠThÃº":7638,"Ġ450":7639,"ese":7640,"Äĳáº§u":7641,"Ġ81":7642,"Ġcá»Ńu":7643,"Ġlá»¯":7644,"ĠKÃªnh":7645,"ĠRanh":7646,"isco":7647,"Äĥk":7648,"Ñĩ":7649,"quan":7650,"ech":7651,"ÄĲÃ´i":7652,"ield":7653,"ĠçĤº":7654,"ĠHÃ¡t":7655,"ĠMen":7656,"cean":7657,"ĠrÃ³t":7658,"Ġ78":7659,"«sÆ°":7660,"Ġháº¡m":7661,"],":7662,"ĠnghÃªnh":7663,"há»įc":7664,"thá»Ń":7665,"Ġå¦ĤnhÆ°":7666,"BM":7667,"MÃłu":7668,"ĠTrÃ¡nh":7669,"Ġab":7670,"ats":7671,"chá»§":7672,"Ġná»ĥ":7673,"ĠHÃ³c":7674,"ĠTÃºi":7675,"á»°C":7676,"åħ":7677,"ŁdÃ£":7678,"rÃ´":7679,"ĠvÄĥng":7680,"Ġä¹ŁdÃ£":7681,"ÃŃp":7682,"ika":7683,"Ġhá»§":7684,"ĠIN":7685,"Ġsáº¡m":7686,"Ġkhang":7687,"TR":7688,"ĠRam":7689,"Ġ240":7690,"Báº£ng":7691,"yo":7692,"ival":7693,"ken":7694,"ĠRáº»":7695,"ĠvÃ¡":7696,"ĠGel":7697,"ĠSC":7698,"</":7699,"Ġguitar":7700,"Ġphotocopy":7701,"ĠbÆ°á»Ľm":7702,"ago":7703,"Song":7704,"ĠBÃŃnh":7705,"Váº¥n":7706,"ĠKáº»":7707,"ĠAss":7708,"cao":7709,"Ġ71":7710,"ĠKia":7711,"ru":7712,"ila":7713,"ĠFI":7714,"Ġsá»įc":7715,"Sim":7716,"mobile":7717,"Ġgá»įt":7718,"Ġhá»ķng":7719,"vÄĥn":7720,"Tá»±":7721,"illa":7722,"ĠBangkok":7723,"ĠvÃ¢ng":7724,"ĠHer":7725,"thiáº¿t":7726,"ĠAB":7727,"Ġquai":7728,"hai":7729,"ĠÑģ":7730,"ME":7731,"Ġkhong":7732,"ĠTÆ°á»£ng":7733,"ĠphÃ´i":7734,"ĠthuÃ¢":7735,"ading":7736,"225":7737,"ĠbÃªnh":7738,"ĠToÃł":7739,"gin":7740,"ĠmiÃª":7741,"Ã¤":7742,"ĠxÃ´n":7743,"aint":7744,"Įh":7745,"ĠçĶŁ":7746,"Ð¼":7747,"ĠBÃłng":7748,"ĠMTV":7749,"ï¸ı":7750,"tÄĥng":7751,"ĠHouse":7752,"ĠAR":7753,"ĠUá»ĳng":7754,"ĠManchester":7755,"ĠSO":7756,"Ġäºº":7757,"ĠGháº¿":7758,"thÆ°á»£ng":7759,"ĠXV":7760,"ĠCÃłng":7761,"Ġthá»ģm":7762,"board":7763,"Kiáº¿n":7764,"á»Ĩ":7765,"¥c":7766,"Ġrem":7767,"po":7768,"Ġhanh":7769,"ys":7770,"ĠDC":7771,"ĠÄĲáº¥u":7772,"ĠCuba":7773,"Ġbáº§y":7774,"áº¢I":7775,"ÄĲÃł":7776,"ĠKe":7777,"ala":7778,"Giá»Ŀ":7779,"ĠÐ²":7780,"%),":7781,"Ġvung":7782,"ĠØ":7783,"ĠÄĲáºŃu":7784,"ĠMotor":7785,"Ġå¸«sÆ°":7786,"ĠVáº«n":7787,"Ġ84":7788,"áº©ng":7789,"ĠgÃ¢":7790,"ĠKhÃ´i":7791,"ĠbÃ³i":7792,"ĠOs":7793,"ĠkÃŃp":7794,"Háº£i":7795,"Ġtháº¯m":7796,"2000":7797,"vo":7798,"burg":7799,"2004":7800,"Äĳi":7801,"ations":7802,"ÃĻ":7803,"Ġamin":7804,"ĠArt":7805,"Ġnuá»ĳi":7806,"emon":7807,"ĠSX":7808,"ĠnÄĥ":7809,"Æ£":7810,"thÆ°á»Ŀng":7811,"Ġpháº¥t":7812,"ĠÄĲÃ´n":7813,"ĠLuÃ´n":7814,"Ġchá»«":7815,"ĠTráº£":7816,"ĠFin":7817,"ĠLau":7818,"Ġdc":7819,"ĠÄĳoa":7820,"ĠphÃłm":7821,"ÄĲáº·t":7822,"Ġgiá»ı":7823,"ĠHuÃ¢n":7824,"ĠLá»¯":7825,"ĠCSVN":7826,"ĠTÃ½":7827,"ĠClin":7828,"Ġyoga":7829,"Ġxá»ĩ":7830,"ĠRoyal":7831,"ĠCat":7832,"fer":7833,"ĠPas":7834,"SV":7835,"ĠPhá»ĳi":7836,"Ġváº§n":7837,"ader":7838,"acom":7839,"ĠCáº£i":7840,"ĠSá»©":7841,"arch":7842,"ÄĲá»įc":7843,"ĠtrÆ°":7844,"ĠMilan":7845,"ÄĤN":7846,"ĠBÆ°u":7847,"MO":7848,"ĠâĢ¦.":7849,"ĠMTTQ":7850,"cÆ¡":7851,"ĠVÄ©":7852,"ĠkhoÃ¡t":7853,"ĠBCH":7854,"ange":7855,"can":7856,"Ġdat":7857,"ĠDá»ħ":7858,"ilm":7859,"%).":7860,"ÐµÐ½":7861,"Ġvá»Ŀ":7862,"ĠYamaha":7863,"ĠThai":7864,"ĠXu":7865,"Ġhuá»·":7866,"ĠInn":7867,"ĠVn":7868,"Ġtá»¥y":7869,"ĠçĶŁsanh":7870,"Ġngáº¡o":7871,"Ġdá»©a":7872,"SA":7873,"Ġyour":7874,"Ġsl":7875,"doc":7876,"ĠsÃºp":7877,"HÄĲ":7878,"Ġá»©":7879,"ĠAmer":7880,"ĠChÃ¡u":7881,"ĠçĤºvi":7882,"áº¾T":7883,"ĠOm":7884,"Ġhcm":7885,"ĠAI":7886,"ista":7887,"SP":7888,"LL":7889,"CáºŃu":7890,"Ġ76":7891,"ĠdÃ¨":7892,"ĠÄĲiá»ĩp":7893,"kim":7894,"NhÃ³m":7895,"ĠnhÃ³c":7896,"ĠMichael":7897,"Ġåī":7898,"ĠNgÆ°":7899,"ĠLÃ²ng":7900,"====":7901,"Ġhormone":7902,"ĠQuyÃªn":7903,"ÙĦ":7904,"III":7905,"Ġbá»ĭt":7906,"ĠâĢĭâĢĭ":7907,"ĠSÃ¢m":7908,"ĠtrÃ³i":7909,"ÄĲá»ĵ":7910,"Net":7911,"ĠMor":7912,"DÃ²ng":7913,"tháº¿":7914,"ĠhÃ¡o":7915,"ĠVisa":7916,"olog":7917,"ĠGrab":7918,"Ġcty":7919,"ĠgÃ´":7920,"PTNT":7921,"ĠHT":7922,"Háº¯n":7923,"âĢ¦..":7924,"Ġchan":7925,"QuÃ¡":7926,"fl":7927,"å¤©":7928,"ÌĢ,":7929,"Ġcopy":7930,"allet":7931,"ĠPremium":7932,"ĠThan":7933,"tech":7934,"...)":7935,"ĠmÃªnh":7936,"Ġtháº³m":7937,"Ġflash":7938,"Ġsáº¡t":7939,"ĠATM":7940,"ĠChiáº¿t":7941,"Ġcotton":7942,"HÃ£ng":7943,"ĠSak":7944,"ĠVAT":7945,"Rá»ĵi":7946,"ĠKiá»ĩn":7947,"Ġtá»īa":7948,"ĠBlue":7949,"ÃĤY":7950,"ĠFC":7951,"ĠVá»įng":7952,"nb":7953,"issan":7954,"ĠTáº¥m":7955,"ĠHigh":7956,"Ġnháº¹n":7957,"ÄĲÆ¡n":7958,")âĢ¦":7959,"Giao":7960,"ĠKHÃĶNG":7961,"ĠGiÃły":7962,"ĠvÃµng":7963,"Ġçķ":7964,"Ġmin":7965,"97":7966,"khu":7967,"ĠäººnhÃ¢n":7968,"view":7969,"ĠFree":7970,"ST":7971,"ĠtrÃ³c":7972,"the":7973,"Âº":7974,"appy":7975,"ound":7976,"Ġè«":7977,"lobal":7978,"ĠLight":7979,"YÃªu":7980,"ĠMÆ¡":7981,"thÃ´ng":7982,"ĠGá»Ńi":7983,"å®":7984,"ye":7985,"COM":7986,"ĠChÆ°":7987,"Ġná»Ľi":7988,"ĠThuá»·":7989,"ÄĲa":7990,"reat":7991,"ĠLuyá»ĩn":7992,"ĠHÃĢNG":7993,"ÄĲÃªm":7994,"ĠåĽ":7995,"ĠCroatia":7996,"ĠSum":7997,"Ġngáº¡t":7998,"ĠRep":7999,"Ġvali":8000,"ĠCPU":8001,"Tinh":8002,"Ġtruyen":8003,"ĠTan":8004,"ĠIphone":8005,"Ġkhiáº¿m":8006,"Ġout":8007,"ThÆ°á»Ŀng":8008,"Ġtag":8009,"ĠLux":8010,"à¹":8011,"ĠTur":8012,"94":8013,"ĠmÃŃt":8014,"giáº£i":8015,"Ġvá»¯a":8016,"ĠNhiá»ĩm":8017,"ĠÃ¹n":8018,"Ġseries":8019,"Ġdáº§m":8020,"kiáº¿n":8021,"ĠNor":8022,"ennis":8023,"ĠHÃ¨":8024,"Fone":8025,"ĠCle":8026,"ká»³":8027,"ĠÄĲá»ķi":8028,"Ġgiáº¥m":8029,"ĠTIáº¾":8030,"cript":8031,"ĠAuto":8032,"chu":8033,"ĠSuzuki":8034,"ĠKhung":8035,"order":8036,"mo":8037,"JC":8038,"ĠthÃ¢u":8039,"web":8040,"RiÃªng":8041,"Ġmat":8042,"ĠnÃ³c":8043,"...\"":8044,"treet":8045,"ĠHua":8046,"ĠTháº¡c":8047,"ĠnhÆ¡":8048,"LA":8049,"Ġthong":8050,"ĠDon":8051,"Ġmá»©t":8052,"hoa":8053,"ĠLib":8054,"ersion":8055,"ĠBOT":8056,"oom":8057,"ĠgiÆ°":8058,"ventus":8059,"Ġngá»Ŀi":8060,"ĠnhÄ©":8061,"hÃł":8062,"Ġæķħ":8063,"Cao":8064,"ĠlÃµm":8065,"Ġmá»³":8066,"Ġshare":8067,"no":8068,"Cáº§u":8069,"IG":8070,"ĠKo":8071,"ĠThá»Ľi":8072,"ĠTháº»":8073,"ĠngÃłng":8074,"ĠCáº§m":8075,"dong":8076,"edit":8077,"Ġ77":8078,"ĠTráº£i":8079,"ĠNHNN":8080,"Ġæ³ķ":8081,"ĠThÃ¬n":8082,"ĠsÃło":8083,"Ġæķħcá»ĳ":8084,"ĠCÃ¡p":8085,"ren":8086,"ĠMáº§m":8087,"ĠTor":8088,"Giáº¥y":8089,"ĠbÃºa":8090,"oma":8091,"Ġghe":8092,"ĠnÃ´i":8093,"tt":8094,"agram":8095,"á»ĲC":8096,"ĠFed":8097,"ĠlÃ³c":8098,"ĠZen":8099,"PhÃº":8100,"ĠTrÃ¢n":8101,"Ġngáº©ng":8102,"ieng":8103,"ĠCTCP":8104,"ati":8105,"ever":8106,"Ġteam":8107,"TÃ³m":8108,"px":8109,"Ġèª":8110,"ĠnÃºm":8111,"ĠNik":8112,"Ġnot":8113,"ĠSUV":8114,"ĠTel":8115,"wei":8116,"ĠNháº±m":8117,"Ġchá»įi":8118,"Ġtua":8119,"Kem":8120,"ĠMáº¡i":8121,"ĠcÃ²":8122,"táº¥n":8123,"Ġtrá»ķ":8124,"LS":8125,"âĢĶâĢĶ":8126,"ĠDownload":8127,"Cáº£nh":8128,"á»¤C":8129,"trÃªn":8130,"Nghá»ĩ":8131,"ĠBox":8132,"Sh":8133,"nay":8134,"wa":8135,"Ġbá»į":8136,"Ġ87":8137,"ĠNar":8138,"ĠKhá»ķng":8139,"Gh":8140,"OO":8141,"ĠDragon":8142,"ĠThá»ĭt":8143,"Káº¿":8144,"uss":8145,"Ġå¤©":8146,"right":8147,"sá»Ł":8148,"ĠAPEC":8149,"ider":8150,"aacute":8151,"Tráº»":8152,"CÃ¡":8153,"ĠXperia":8154,"Ġnick":8155,"ric":8156,"ĠÄĲá»ĺ":8157,"ĠTal":8158,"Ġsiáº¿t":8159,"Index":8160,"BV":8161,"Ġngáº«m":8162,"Lá»ĭch":8163,"ĠAsus":8164,"ÃģY":8165,"Ġfrom":8166,"Ġ1992":8167,"âĢĻ,":8168,"ĠSuá»ĳi":8169,"ĠHOT":8170,"ĠcÄĥm":8171,"Book":8172,"PA":8173,"trang":8174,"ĠlÃ¬a":8175,"une":8176,"amine":8177,"ĠHÃło":8178,"ĠOffice":8179,"Ġmá»ģ":8180,"Ġ1995":8181,"PH":8182,"ece":8183,"Ġmiá»ĩt":8184,"ĠFan":8185,"cam":8186,"ĠLÃĢ":8187,"Ġphen":8188,"Quáº£":8189,"ĻĤ":8190,"Ġváº¯c":8191,"Ġshowbiz":8192,"Ġ^^":8193,"Ġur":8194,"KD":8195,"ĠÄĳÃ²":8196,"bl":8197,"ĠNgÆ°Æ¡i":8198,"read":8199,"tuáº§n":8200,"ĠåŃ":8201,"Nghá»ĭ":8202,"GÄĲ":8203,"****":8204,"ĠSub":8205,"Ġbá»«a":8206,"ĠéĢ":8207,"OA":8208,"Äĳáº·c":8209,"ĠHá»©a":8210,"Ġgio":8211,"ĠrÄĥn":8212,"Ġyáº¿m":8213,"Tháº§y":8214,"quang":8215,"ĠAV":8216,"Ġall":8217,"ĠHá»£i":8218,"Ġ1998":8219,"apan":8220,"ĠHáº¡ng":8221,"ĠHit":8222,"ĠthÃł":8223,"ĠmÃ©o":8224,"aku":8225,"ĠFranc":8226,"elle":8227,"ule":8228,"ĠTá»«ng":8229,"ĠnhÃło":8230,"ĠNgÃ£":8231,"ĠtrÆ°á»Ľng":8232,"ĠtÆ¡i":8233,"ĠâĤ«":8234,"tinh":8235,"Ġngá»¥y":8236,"Ġ1997":8237,"TPO":8238,"LT":8239,"tÃ¡t":8240,"ĠChevrolet":8241,"Ġri":8242,"Post":8243,"back":8244,"Wh":8245,"mon":8246,"Ġ74":8247,"exus":8248,"á¹":8249,"ĠAf":8250,"ĠxÃª":8251,"ĠVo":8252,"Ġhá»ĳc":8253,"2003":8254,"nham":8255,"Ġgiá»ģng":8256,"Tiáº¿n":8257,"ĠBÃª":8258,"âĢĿâĢ¦":8259,"aba":8260,"ĠOcean":8261,"ĠlÄĥm":8262,"93":8263,"Ġhom":8264,"ĠSoi":8265,"ĠBiáº¿n":8266,"Ġsite":8267,"Ġphao":8268,"gio":8269,"ĠBook":8270,"ĠnhÃ¡":8271,"ĠLim":8272,"ĠÄĳáº¥ng":8273,"Ġlá»ĵi":8274,"mÃł":8275,"gy":8276,"Ġlá»¥y":8277,"Doanh":8278,"Ġsáº£":8279,"Ġsexy":8280,"ble":8281,"ĠGÄĲ":8282,"ĠPhot":8283,"tá»Ń":8284,"lywood":8285,"Ġpháº«n":8286,"ĠLove":8287,"Ġhá»·":8288,"ĠArab":8289,"Chuyá»ĥn":8290,"ĠFlor":8291,"ĠFe":8292,"ĠVNPT":8293,"ĠCHá»":8294,"ĠVietjet":8295,"ĠChina":8296,"Ġmá»įt":8297,"ĠChe":8298,"ĠngÃ¡n":8299,"¤thá»Ń":8300,"den":8301,"ĠrÃ¹a":8302,"ĠTuÃ¢n":8303,"rogen":8304,"ĠgÄĥ":8305,"ious":8306,"Ð´":8307,"HT":8308,"KÃŃnh":8309,"ĠBá»ĳn":8310,"Ġngá»ı":8311,"Sá»¯a":8312,"nes":8313,"ĠxoÃ¡":8314,"ĠÄĳáº«m":8315,"Ġkhoáº¯n":8316,"uilding":8317,"Æ°á»Ľu":8318,"oshop":8319,"trá»«":8320,"Ġváº«y":8321,"UN":8322,"ĠTIN":8323,"ĠTuyá»ģn":8324,"Ġ''":8325,"ĠCore":8326,"ĠDig":8327,"ĠsÃ²ng":8328,"ĠMÃ¡c":8329,"ĠThá»¥c":8330,"Má»Ł":8331,"ĠOut":8332,"ĠPol":8333,"Link":8334,"Tube":8335,"ĠÆł":8336,"Ġneo":8337,"ĠOppo":8338,"ĠCÃ¹":8339,"Ġins":8340,"ĠMini":8341,"Ġráº§m":8342,"Ġmac":8343,"ĠItaly":8344,"danh":8345,"ĠHáº¡n":8346,"KhÃ¡c":8347,"Ġláº¡y":8348,"Ġ3000":8349,"Äĳá»ĭa":8350,"ĠÃįt":8351,"ĠCNC":8352,"ĠBlock":8353,"ĠVictoria":8354,"Äĳáº¯c":8355,"ĠUniversity":8356,"ĠJuventus":8357,"ĠIC":8358,"ĴNG":8359,"ĠCá»¦":8360,"ĠRock":8361,"ĠNiá»ĩm":8362,"ulin":8363,"á»ĺI":8364,"ĠUr":8365,"á»¨C":8366,"BÃŃ":8367,"Ġ83":8368,"ĠnhÃ©t":8369,"Ġvest":8370,"ĠquyÃªn":8371,"ĠtuyÃª":8372,"Láº¥y":8373,"Ġandroid":8374,"Ġbox":8375,"tÃªn":8376,"ªth":8377,"vÃŃ":8378,"Ġluyáº¿n":8379,"ĠTáº£":8380,"ĠSL":8381,"Ġtráº·c":8382,"Cá»©":8383,"ĠÄĳá»±c":8384,"ĠTB":8385,"tai":8386,"ĠThang":8387,"Ġadmin":8388,"ĠBÃ´ng":8389,"cháº¥t":8390,"UR":8391,"Ġion":8392,"ĠLá»±a":8393,"ift":8394,"Ġmag":8395,"ĠHAG":8396,"ĠSIM":8397,"ĠThÃ©p":8398,"hu":8399,"phouse":8400,"Ġgold":8401,"Ġml":8402,"ĠhÅ©":8403,"ĠTáºłI":8404,"ĠÄĳá»ĳn":8405,"ĠtÄĥ":8406,"Äĳáº¡o":8407,"á»¨ng":8408,"ĠchÃ¡t":8409,"Ġchuá»Ļc":8410,"Láº¡i":8411,"ĠGÃ³c":8412,"eland":8413,"aker":8414,"tect":8415,"Ġgang":8416,"tháº§n":8417,"yc":8418,"ĠmÃ¨":8419,"edan":8420,"ĠCard":8421,"ĠNhÆ°á»£c":8422,"Ġá»Ķ":8423,"ĠchÆ°á»Ľc":8424,"ĠGhi":8425,"DR":8426,"Há»ĵi":8427,"auty":8428,"bour":8429,"cow":8430,"ĠSá»Ńu":8431,"ender":8432,"Ġcasino":8433,"ĠSur":8434,"Ġbáº©y":8435,"ĠNano":8436,"ĠhÃ¡":8437,"Ġsáº¯n":8438,"ĠWifi":8439,"ĠnhÃ´":8440,"info":8441,"Ġcá»¥t":8442,"ĠThuá»Ļt":8443,"ĠsuÃ´n":8444,"Iá»ĨU":8445,"ĠDÆ°á»¡ng":8446,"ĠbÃŃt":8447,"ĠÄĲáº¯c":8448,"ĠLos":8449,"brid":8450,"Ġmica":8451,"ĠæŃ¤thá»Ń":8452,"ple":8453,"ĠNgÆ°u":8454,"dy":8455,"Hu":8456,"ĠCollagen":8457,"ĠHarry":8458,"ling":8459,"ĠÃĬ":8460,"ĠFort":8461,"cer":8462,"Ġtanh":8463,"Ġ105":8464,"ĠkhÃ³e":8465,"ĠABS":8466,"ĠLouis":8467,"ĠrÃªu":8468,"mÃ¬nh":8469,"ĠchÃ³t":8470,"ĠPle":8471,"ĠÃĶn":8472,"ĠVang":8473,"ĠDá»±a":8474,"Ġnáº¡o":8475,"XX":8476,"âĢĺ":8477,"ĠCoc":8478,"ĠrÄĥ":8479,"ĠThá»Ń":8480,"Ġ97":8481,"axi":8482,"pháº§n":8483,"ĠráºŃp":8484,"ĠCá»¦A":8485,"ĠRÃµ":8486,"Ã¼":8487,"Ĩl":8488,"ĠpH":8489,"Ġ108":8490,"Ġnem":8491,"Ġ93":8492,"Ġbik":8493,"Ġcá»Ļi":8494,"ĠquáºŃt":8495,"dep":8496,"Tuá»ķi":8497,"Ġthoai":8498,"1000":8499,"MÃłn":8500,"ĠYoung":8501,"ĠGiá»¯":8502,"ĠRÄĥng":8503,"ĠSnap":8504,"tv":8505,"ĠçŁ":8506,"KV":8507,"ument":8508,"ĠhÃ£nh":8509,"á»ĬCH":8510,"cÅ©ng":8511,"ĠÄĲáº§m":8512,"off":8513,"Ġtáº»":8514,"ĠRáº¡ch":8515,"Ġtrá»ı":8516,"Long":8517,"ĠMÃ£o":8518,"yÃªu":8519,"Tháº¥y":8520,"ĠgÃło":8521,"Ġlá»ĳc":8522,"ĠÐ½":8523,"aily":8524,"ĠCÃºp":8525,"Ġtá»ĩp":8526,"Ġngáº©n":8527,"357":8528,"Ġsup":8529,"chÆ°a":8530,"ĠHá»ĺ":8531,"Ġcabin":8532,"ĠPearl":8533,"ĠCanon":8534,"???":8535,"Ġlá»ģu":8536,"Ġä»¥":8537,"ĠJul":8538,"ĠUng":8539,"Ġthá»ĳn":8540,"Ġfr":8541,"zz":8542,"ĠquÃ´":8543,"ĠNhÆ°á»¡ng":8544,"ĠAudio":8545,"ĠcÃ´i":8546,"Ġbung":8547,"ĠVai":8548,"ĠtrÃ¡":8549,"ĠCondotel":8550,"Game":8551,"''":8552,"Ġfix":8553,"ĠChá»ĵng":8554,"Báº¯c":8555,"(\"":8556,"HÃłn":8557,"ids":8558,"ages":8559,"Ġtáº¯n":8560,"ĠvÃ£ng":8561,"NgÆ°Æ¡i":8562,"iana":8563,"++":8564,"Ad":8565,"Cha":8566,"ated":8567,"ĠCá»Ŀ":8568,"ĠhÃ¡n":8569,"á»ľ":8570,"ĠPu":8571,"Ġváº£y":8572,"amond":8573,"La":8574,"irst":8575,"enger":8576,"hire":8577,"ĠvÃ¹i":8578,"thuá»Ļc":8579,"Ġ1996":8580,"tho":8581,"ĠæĽ°":8582,"Ġä»¥dÄ©":8583,"ĠlÃºng":8584,"Ġå¾Ĺ":8585,"ating":8586,"XS":8587,"yan":8588,"ĠÃĲáº¡i":8589,"GP":8590,"Ġbook":8591,"ĠæĽ°viáº¿t":8592,"Ġ1980":8593,"esel":8594,"Press":8595,"ĠÐ¸":8596,"OC":8597,"ĠthÃ¡n":8598,"ten":8599,"hang":8600,"NÃłng":8601,"ĠDJ":8602,"ÃĢNH":8603,"Ġhosting":8604,"BÃ¡nh":8605,"ĠRanger":8606,"OP":8607,"ĠDec":8608,"ĠæĹ":8609,"MÃ³n":8610,"LÃ¢m":8611,"Ġå¾ĹÄĳáº¯c":8612,"ĠPac":8613,"ĠrÆ°á»¡i":8614,"Ãī":8615,"ĠNHÃĢ":8616,"ĠBá»ķ":8617,"Ġbody":8618,"Ġ1994":8619,"Ġhá»©c":8620,"ĠPo":8621,"Ġkali":8622,"ĠTrÃ¢m":8623,"ï¼Į":8624,"ChÃºc":8625,",,":8626,"Ġå¿ĥ":8627,"Máº¥y":8628,"ĠïĤ":8629,"ĠTriáº¿t":8630,"ĠQuÃ¡ch":8631,"ison":8632,"ĠVTC":8633,"ĠSeries":8634,"ĠSar":8635,"ĠtÃ©":8636,"umin":8637,"Ġthen":8638,"Ġmel":8639,"ĠGolf":8640,"INE":8641,"ThÆ°a":8642,"Ġ2030":8643,"91":8644,"LÃª":8645,"ĠSchool":8646,"ĠDS":8647,"its":8648,"TÄĲ":8649,"ots":8650,"Ã¶":8651,"inch":8652,"Tp":8653,"ĠServer":8654,"ĠNá»ģn":8655,"Ġhuá»ĩ":8656,"ĠráºŃm":8657,"ĠSá»Ĳ":8658,"Ìī.":8659,"ING":8660,"obi":8661,"ĠVNCH":8662,"Ġ),":8663,"Ġenz":8664,"ĠVietcombank":8665,"NA":8666,"ĠBID":8667,"Thiáº¿u":8668,"ĠStore":8669,"May":8670,"ĠLiga":8671,"ĠTX":8672,"áº¢O":8673,"Web":8674,"ĠÆ°Æ¡m":8675,"fin":8676,"ĠtrÃºt":8677,"Ġå±":8678,"ĠLU":8679,"res":8680,"XB":8681,"360":8682,"ĠHDMI":8683,"ĠYouTube":8684,"Ġhá»Ļt":8685,"Ġngháº¹n":8686,"ĠHáº¯c":8687,"Ġnguoi":8688,"erson":8689,"Ġmiáº¿u":8690,"rop":8691,"amb":8692,"Ġá»ĳ":8693,"ret":8694,"ĠBur":8695,"ĠTOP":8696,"...,":8697,"ĠChiá»ĥu":8698,"Ġå¯":8699,"ĠMao":8700,"istics":8701,"TÃ¢y":8702,"ĠMoscow":8703,"ĠAD":8704,"Ġwap":8705,"ĠGioan":8706,"ĠIT":8707,"Ġlogic":8708,"PhiÃªn":8709,"ĠOf":8710,"báº£n":8711,"ĠPop":8712,"ĠCit":8713,"ĠCÃ¡m":8714,"VOV":8715,"nguyÃªn":8716,"999":8717,"NgÃ´i":8718,"Ġest":8719,"ĠFB":8720,"VÃ²ng":8721,"cast":8722,"GDVN":8723,"verter":8724,"ĠGÃ³i":8725,"Ġ115":8726,"uters":8727,"ÄĤNG":8728,"edu":8729,"ager":8730,"ffee":8731,"ĠTex":8732,"hot":8733,"IF":8734,"ĠvÃ£n":8735,"ļĦ":8736,"trÆ°á»Ľc":8737,"ĀĀĀĀĀĀĀĀĀĀĀĀĀĀĀĀĀĀĀĀĀĀĀĀĀĀĀĀĀĀĀĀĀĀĀĀĀĀĀĀĀĀĀĀĀĀĀĀĀĀĀĀĀĀĀĀĀĀĀĀĀĀĀĀĀĀĀĀĀĀĀĀĀĀĀĀĀĀĀĀĀĀĀĀĀĀĀĀĀĀĀĀĀĀĀĀĀĀĀĀĀĀĀĀĀĀĀĀĀĀĀĀĀĀĀĀĀĀĀĀĀĀĀĀĀĀĀĀĀĀĀĀĀĀĀĀĀĀĀĀĀĀĀĀĀĀĀĀĀĀĀĀĀĀĀĀĀĀĀĀĀĀĀĀĀĀĀĀĀĀĀĀĀĀĀĀĀĀĀĀĀĀĀĀĀĀĀĀĀĀĀĀĀĀĀĀĀĀĀĀĀĀĀĀĀĀĀĀĀĀĀĀĀĀĀĀĀĀĀĀĀĀĀĀĀĀĀĀĀĀĀĀĀĀĀĀĀĀĀĀĀĀĀĀĀĀĀĀĀĀĀĀĀĀĀĀĀĀĀĀĀĀĀĀĀĀĀĀĀĀĀĀĀĀĀĀĀĀĀĀĀĀĀĀĀĀĀĀĀĀĀĀĀĀĀĀĀĀĀĀĀĀĀĀĀĀĀĀĀĀĀĀĀĀĀĀĀĀĀĀĀĀĀĀĀĀĀĀĀĀĀĀĀĀĀĀĀĀĀĀĀĀĀĀĀĀĀĀĀĀĀĀĀĀĀĀĀĀĀĀĀĀĀĀĀĀĀĀĀĀĀĀĀĀĀĀĀĀĀĀĀĀĀĀĀĀĀĀĀĀĀĀĀĀĀĀĀĀĀĀĀĀĀĀĀĀĀĀĀĀĀĀĀĀĀĀĀĀĀĀĀĀĀĀĀĀĀĀĀĀĀĀĀĀĀĀĀĀĀĀĀĀĀĀĀĀĀĀĀĀĀĀĀĀĀĀĀĀĀĀĀĀĀĀĀĀĀĀĀĀĀĀĀĀĀĀĀĀĀĀĀĀĀĀĀĀĀĀĀĀĀĀĀĀĀĀĀĀĀĀĀĀĀĀĀĀĀĀĀĀĀĀĀĀĀĀĀĀĀĀĀĀĀĀĀĀĀĀĀĀĀĀĀĀĀĀĀĀĀĀĀĀĀĀĀĀĀĀĀĀĀĀĀĀĀĀĀĀĀĀĀĀĀĀĀĀĀĀĀĀĀĀĀĀĀĀĀĀĀĀĀĀĀĀĀĀĀĀĀĀĀĀĀĀĀĀĀĀĀĀĀĀĀĀĀĀĀĀĀĀĀĀĀĀĀĀĀĀĀĀĀĀĀĀĀĀĀĀĀĀĀĀĀĀĀĀĀĀĀĀĀĀĀĀĀĀĀĀĀĀĀĀĀĀĀĀĀĀĀĀĀĀĀĀĀĀĀĀĀĀĀĀĀĀĀĀĀĀĀĀĀĀĀĀĀĀĀĀĀĀĀĀĀĀĀĀĀĀĀĀĀĀĀĀĀĀĀĀĀĀĀĀĀĀĀĀĀĀĀĀĀĀĀĀĀĀĀĀĀĀĀĀĀĀĀĀĀĀĀĀĀĀĀĀĀĀĀĀĀĀĀĀĀĀĀĀĀĀĀĀĀĀĀĀĀĀĀĀĀĀĀĀĀĀĀĀĀĀĀĀĀĀĀĀĀĀĀĀĀĀĀĀĀĀĀĀĀĀĀĀĀĀĀĀĀĀĀĀĀĀĀĀĀĀĀĀĀĀĀĀĀĀĀĀĀĀĀĀĀĀĀĀĀĀĀĀĀĀĀĀĀĀĀĀĀĀĀĀĀĀĀĀĀĀĀĀĀĀĀĀĀĀĀĀĀĀĀĀĀĀĀĀĀĀĀĀĀĀĀĀĀĀĀĀĀĀĀĀĀĀĀĀĀĀĀĀĀĀĀĀĀĀĀĀĀĀĀĀĀĀĀĀĀĀĀĀĀĀĀĀĀĀĀĀĀĀĀĀĀĀĀĀĀĀĀĀĀĀĀĀĀĀĀĀĀĀĀĀĀĀĀĀĀĀĀĀĀĀĀĀĀĀĀĀĀĀĀĀĀĀĀĀĀĀĀĀĀĀĀĀĀĀĀĀĀĀĀĀĀĀĀĀĀĀĀĀĀĀĀĀĀĀĀĀĀĀĀĀĀĀĀĀĀĀĀĀĀĀĀĀĀĀĀĀ":8738,"ĠNob":8739,"ĠHen":8740,"ĠGian":8741,"Ġnao":8742,"ĠphÃ¡ch":8743,"aria":8744,"ĠNiáº¿t":8745,"earch":8746,"obe":8747,"VÃ©":8748,"ÃģCH":8749,"Ġéĸ":8750,"Ġxáº¥p":8751,"Ġwas":8752,"Ġchuyen":8753,"anel":8754,"Ġå¿ĥtÃ¢m":8755,"ĠId":8756,"ĠVá»ĳn":8757,"yle":8758,"ĠBR":8759,"long":8760,"Ġliáº¿m":8761,"Ġ170":8762,"Ġsáº£o":8763,"ĠPhÃłm":8764,"Äĳiá»ģu":8765,"ĠchÃŃch":8766,"ĠhÃ¢":8767,"ĠCÄĲV":8768,"ĠTá»µ":8769,"TÃ¢m":8770,"ĠÄĲau":8771,"ĠVÄĲV":8772,"Ã³e":8773,"ĠMá»ĩnh":8774,"ĠèĪ":8775,"Bá»ĭ":8776,"ĠrÆ¡m":8777,"Ġpart":8778,"cu":8779,"ĠÄĳiáº¿u":8780,"ĠPoly":8781,"Má»©c":8782,"Ġgiá»¥c":8783,"Ġsub":8784,"ĠThom":8785,"ĠTÃ³c":8786,"organ":8787,"ĠLÃ£ng":8788,"ĠHat":8789,"ĠNissan":8790,"AB":8791,"ĠÃºp":8792,"ĠAudi":8793,"Ġ1993":8794,"áºº":8795,"ĠPak":8796,"Ġfol":8797,"Ġ91":8798,"NgÃ¢n":8799,"ĠNÃło":8800,"ĠOpen":8801,"RP":8802,"ĠAk":8803,"ĠéĿ":8804,"ĠBre":8805,"cha":8806,"ĠcÃ¯":8807,"iku":8808,"set":8809,"ĠLat":8810,"ĠvÃªnh":8811,"Ñħ":8812,"ĠTW":8813,"ĠCáº¥u":8814,"ember":8815,"Ġvá»Ľ":8816,"ĠGiá»įng":8817,"Ġháº¯t":8818,"ĠTá»įa":8819,"ness":8820,"Truyá»ĩn":8821,"láº§n":8822,"Ġroi":8823,"ĠNáº¥m":8824,"Ġok":8825,"Ká»³":8826,"ĠKangnam":8827,"ĠTitan":8828,"ĠlÄĥ":8829,"Ġline":8830,"ĠWilli":8831,"IDS":8832,"ĠCháº¥n":8833,"Ġ000":8834,"Ġä¸ī":8835,"á»ıe":8836,"ĠJava":8837,"Ġship":8838,"Ġsá»į":8839,"ĠÄĲáº³ng":8840,"GiÃ¡m":8841,"ĠHuyáº¿t":8842,"ĠÙ":8843,"Ġnano":8844,"Æ¯á»ļC":8845,"ĠBC":8846,"âĢĿ:":8847,"Ġvietsub":8848,"achi":8849,"NÆ¡i":8850,"ĠCÃ¡nh":8851,"ĠKey":8852,"ĠtoÃ¡i":8853,"ĠLÃ¡i":8854,"ĠTá»Ŀ":8855,"Ġword":8856,"ĠToshi":8857,"ĠColle":8858,"ĠBy":8859,"Æ°á»Ľn":8860,"ottenham":8861,"ĠKhiÃªm":8862,"Quyá»ģn":8863,"ĠRi":8864,"ĠPháº£n":8865,",âĢ¦.":8866,"hÃ¬nh":8867,"Vin":8868,"chen":8869,"NÃły":8870,"ogr":8871,"ĠkÃ¨":8872,"Há»Ĺ":8873,"ĠVir":8874,"Ġvv":8875,"nd":8876,"ĠTráº¡i":8877,"ĠbÆ°ng":8878,"ĠRobert":8879,"háº¡":8880,"Ġquáº¥t":8881,"ĠÄĲoáº¡n":8882,"Ġlá»£p":8883,"ĠtÃ²i":8884,"bÃł":8885,"Ġmake":8886,"táº¥t":8887,"ĠPat":8888,"Ġforum":8889,"Ġcá»§i":8890,"ĠchÆ°á»Łng":8891,"ĠReuters":8892,"ĠExpress":8893,"Ġclass":8894,"ĠgÄĥng":8895,"ĠCá»±":8896,"ape":8897,"ĠHollywood":8898,"Ġnil":8899,"ÃĬU":8900,"ĠphÆ°á»£t":8901,"ĠBin":8902,"ĠBá»įn":8903,"ĠCá»Ń":8904,"160":8905,"xuáº¥t":8906,"thá»§":8907,"ander":8908,"sá»Ńa":8909,"umi":8910,"Ġä¸Ń":8911,"ĠÄĲB":8912,"thá»±c":8913,"ĠGáº·p":8914,"ĠrÃªn":8915,"ĠngÃ¡y":8916,"ĠvÃ¡ng":8917,"âĢĻâĢĻ":8918,"ĠDá»±ng":8919,"ĠInox":8920,"SÆ¡n":8921,"Ġoai":8922,"ker":8923,"ĠDáº«n":8924,"Tráº£i":8925,"Tá»įa":8926,"ÄĲÃ´ng":8927,"ĠInstagram":8928,"KhÃ³a":8929,"cá»ķ":8930,"round":8931,"iter":8932,"ĠEVN":8933,"Ġsáº§n":8934,"âĻ":8935,"Ġ1945":8936,"á»Ģ":8937,"Ġtá»Ļt":8938,"ĠMoon":8939,"ĠnÆ¡":8940,"iko":8941,"101":8942,"ĠPhaolÃ´":8943,"ĠngÃ²i":8944,"ĠClub":8945,"Ġáº¯t":8946,"Cháº¿":8947,"ĠHuawei":8948,"bÃ¬nh":8949,"á»ļI":8950,"ÄĲÃ¡ng":8951,"ĠBayern":8952,"Thi":8953,"ĠPre":8954,"Ġah":8955,"ushi":8956,"ĠsÃ¹ng":8957,"ĠÄĲá»īnh":8958,"ĠJi":8959,"ĠVat":8960,"phim":8961,"GVN":8962,"ä¸Ń":8963,"jp":8964,"ĠShar":8965,"ĠKen":8966,"XÃ©t":8967,"ington":8968,"Minh":8969,"Ġèĭ":8970,"ient":8971,"âĺ":8972,"ĠHoan":8973,"cent":8974,"Ġfanpage":8975,"ĠNá»ķi":8976,"ThÆ°":8977,"ĠnÃ²ng":8978,"ÃĤM":8979,"ius":8980,"zo":8981,"ĠSM":8982,"Ġsá»¡":8983,"ĠFDI":8984,"Æ°á»£m":8985,"TU":8986,"ĠMir":8987,"ĠMeg":8988,"ĠHAGL":8989,"ĠÄĲÆ°Æ¡ng":8990,"ION":8991,"ĠMA":8992,"ĠZing":8993,"áº¤P":8994,"Ġá»ĵ":8995,"Ġáº¿ch":8996,"NÃ¢ng":8997,"tÃ¡c":8998,"Ġsá»§ng":8999,"ĠCC":9000,"ĠTab":9001,"ĠDáº¡y":9002,"ĠAu":9003,"ĠcÆ°Æ¡":9004,"Ġcal":9005,"Ġvin":9006,"ĠJetstar":9007,"Ġcá»ĵng":9008,"tá»īnh":9009,"vel":9010,"ology":9011,"Ġpass":9012,"ĠtÆ°ng":9013,"iff":9014,"ior":9015,"ĠSD":9016,"xa":9017,"ĠĠĠĠĠĠĠĠĠĠĠĠĠĠĠĠ":9018,"Quá»ĳc":9019,"báº£o":9020,"ĠTao":9021,"enter":9022,")...":9023,"ĠphÃłn":9024,"Ġsáº·c":9025,"ĠPart":9026,"Ġdáº¥n":9027,"Ġet":9028,"ĠÃ´i":9029,"ĠTÃ¡o":9030,"Hoáº¡t":9031,"Ġbitcoin":9032,"æĹ":9033,"Camera":9034,"ĠColor":9035,"ÐµÑĢ":9036,"ĠSK":9037,"ĠHá»ĵn":9038,"ĠGe":9039,"EW":9040,"ĠbÃºi":9041,"ĠmÆ°":9042,"Ġtá»µ":9043,"ĠQuÃł":9044,"ÄĲH":9045,"ÌĤ":9046,"vin":9047,"pping":9048,"ĠNhan":9049,"ĠMacbook":9050,"Ġreview":9051,"ĠBáº§u":9052,"ĠNoel":9053,"Ġéĩ":9054,"Ġtoáº£":9055,"Ġnáºµng":9056,"ĠxÃ¡o":9057,"ĠmÃ¡ng":9058,"ĽPháºŃt":9059,"ãĢģ":9060,"gl":9061,"Ġkhuáº¿ch":9062,"ĠnÆ°á»Ľu":9063,"ĠFrank":9064,"ĠCur":9065,"idan":9066,"ĠBas":9067,"ĠLenovo":9068,"siÃªu":9069,"Ġ1080":9070,"ĠVÆ°á»£ng":9071,"ĠÄĲÆ°a":9072,"ä»":9073,"bá»Ļ":9074,"ĠAF":9075,"Ġcháº±ng":9076,"ĠLá»ĩnh":9077,"ĠquÃ½t":9078,"Ġgáº¯m":9079,"ĠBel":9080,"Ġtrá»ĩ":9081,"ĠSat":9082,"ĠBon":9083,"Ð°Ð½":9084,"osite":9085,"Ø±":9086,"Kiá»ĥm":9087,"ĠRÆ°á»£u":9088,"ĠÄĳá»ĭt":9089,"ĠJW":9090,"áº¬P":9091,"ĠBá»Ļt":9092,"ĠVen":9093,"ateg":9094,"Ġè¨":9095,"ĠHim":9096,"?.":9097,"ĠMáº«n":9098,"ĠStudio":9099,"Ġká»ĭ":9100,"Ġper":9101,"Ġvun":9102,"Ġdáº«u":9103,"Ġ750":9104,"ĠWordPress":9105,"ĠQÃºy":9106,"Ġthoi":9107,"tiá»ģn":9108,"inja":9109,"EA":9110,"Ġbáº£":9111,"Hay":9112,"Ġchao":9113,"ĠXinh":9114,"ĠTáº§m":9115,"ĠFIFA":9116,"ĠMÃ£i":9117,"Ġray":9118,"ĠMall":9119,"ĠRec":9120,"ĠSoc":9121,"vice":9122,"ĠEnter":9123,"of":9124,"thÃ¢n":9125,"Ġdan":9126,"phÃ¡t":9127,"ĠSJC":9128,"ray":9129,"ĠÃ¡ch":9130,"ĠThá»¥":9131,"seo":9132,"PhÃŃa":9133,"Ġcháº¡p":9134,"ĠÄĲá»©ng":9135,"Ġáº¡t":9136,"ĠPok":9137,"Ġháº¥u":9138,"Ġsá»ĩt":9139,"Ġ1800":9140,"Ġkey":9141,"otion":9142,"asy":9143,"ĠUSA":9144,"Ġéł":9145,"ĠBÃ´":9146,"ä¹":9147,"tha":9148,"ĠFace":9149,"Ġï¿½":9150,"Tuyá»ĥn":9151,"Ġè¦ĭ":9152,"ĠOl":9153,"may":9154,"Nháº¯c":9155,"yme":9156,"ĠPhÃ¡":9157,"ĠthÃ²i":9158,"ĠNe":9159,"ĠDub":9160,"Ġbá»©t":9161,"UYÃĬN":9162,"Ġä½ĽPháºŃt":9163,"ju":9164,"hÃłng":9165,"ustin":9166,"ĠTexas":9167,"áº¶T":9168,"ĠsuÃ½t":9169,"åĲ":9170,"ĠnÃŃu":9171,"ĠLáº¡nh":9172,"Ġä½ķ":9173,"oC":9174,"els":9175,"Giá»ĳng":9176,"ĠVincity":9177,"ĠKháº£o":9178,"ĠExcel":9179,"sÆ¡":9180,"ĠLÃ¡ng":9181,"ãģ®":9182,"ĠCHO":9183,"ĠbÃ¹i":9184,"ĠCafe":9185,"ĠTottenham":9186,"Ġyeu":9187,"ĠnÃ£":9188,"Ġnai":9189,"ĠNap":9190,"Ġè¡":9191,"ĠRu":9192,"Ġsá»§a":9193,"ĠngÃ¡ch":9194,"á»£c":9195,"Ġgiáº§y":9196,"aly":9197,"ÄĲá»Ļ":9198,"Ġden":9199,"ÄĲang":9200,"VTV":9201,"jo":9202,"Ġè¦ĭkiáº¿n":9203,"ĠRá»Ńa":9204,"SiÃªu":9205,"ĠngÃł":9206,"Báº¯t":9207,"Ġ1991":9208,"ĠPho":9209,"ĠHuáº¥n":9210,"MN":9211,"ways":9212,"Ká»¹":9213,"Ġlá»±u":9214,"EU":9215,"ĠbÃ¨o":9216,"ĠDesign":9217,"HÃ²a":9218,"oucher":9219,"âĢ¦âĢĿ.":9220,"omat":9221,"ĠNav":9222,"ĠTem":9223,"ĠChá»¯a":9224,"Ġä½ķhÃł":9225,"Ġcáº·c":9226,"Ġdáº§y":9227,"Ġhand":9228,"Ġráº«y":9229,"ĠKTS":9230,"phÃ¡p":9231,"ĠLum":9232,"ĠFire":9233,"Ġphan":9234,"Trá»Ł":9235,"ĠTÃł":9236,"ĠthÃ©t":9237,"ĠRáºŃp":9238,"Ġmá»įng":9239,"af":9240,"ĠClass":9241,"ĠnÄĥn":9242,"ĠmÆ°á»Ľt":9243,"ĠÐ¾":9244,"ĠnhÆ¡n":9245,"Man":9246,"trÆ°á»Ŀng":9247,"ms":9248,"sáº½":9249,"ĠQue":9250,"Ġcarbon":9251,"ĠThÆ°á»Łng":9252,"eymar":9253,"iac":9254,"ĠTá»Ļi":9255,"Ġcatalog":9256,"Ġreo":9257,"ĠPN":9258,"ÄĲáº¡o":9259,"ĠDÃłi":9260,"Ġhon":9261,"ady":9262,"ĠÃģn":9263,"ĠTHÃĶNG":9264,"ĠEX":9265,"Ġrá»ĳn":9266,"ĠYoga":9267,"Ġpm":9268,"khá»§ng":9269,"ĠmÃ¡ch":9270,"ĠnghÄ©nh":9271,"ental":9272,"Hi":9273,"Ġ304":9274,"Ġèģ":9275,"ESCO":9276,"Ġrep":9277,"Ġcá»Ļ":9278,"çļĦ":9279,"ĠÄĳay":9280,"ĠMov":9281,"ĠTivi":9282,"Ġsá»¥c":9283,"ĠvÆ¡i":9284,"ĠCÃłi":9285,"cÃ¹ng":9286,"ĠLS":9287,"1975":9288,"ĠhoÃ¡n":9289,"ĠrÃłnh":9290,"thá»©c":9291,"Ġáº¯c":9292,"ĠOk":9293,"ĠtrÆ°á»£ng":9294,"ĠSaudi":9295,"ĠLip":9296,"pháº£i":9297,"Ġváº§y":9298,"dis":9299,"TrÃ¡i":9300,"Ġtriá»ģn":9301,"ĠPep":9302,"dney":9303,"LÃ£nh":9304,"Ġsum":9305,"EG":9306,"Ġngá»§i":9307,"Ġ1970":9308,"Ġtrá»įt":9309,"Ġä¸Ńtrung":9310,"toc":9311,"ĠthuyÃªn":9312,"ĠMobiFone":9313,"Ġ94":9314,"ĠCry":9315,"ĠBá»©c":9316,"ĠGÃ¡i":9317,"ĠVKS":9318,"ĠsÃ³i":9319,"Ġngá»Ńi":9320,"ĠSA":9321,"ATO":9322,"ĠKQ":9323,"ĠMÃ¨o":9324,"Ġdel":9325,"ĠæīĢ":9326,"ĠcÃ¹":9327,"ĠchoÃłng":9328,"thÃ¬":9329,"ĠUB":9330,"bÃłn":9331,"ĠAut":9332,"ç¥¨":9333,"chÃŃnh":9334,"Ġ111":9335,"Ġtráº§u":9336,"ĠMur":9337,"uel":9338,"Ġpar":9339,"Ġá»ī":9340,"ĠAct":9341,"df":9342,"ĠluÃ¢":9343,"ĠChÃŃn":9344,"ĠResidence":9345,"Dá»±a":9346,"ĠBosch":9347,"Vi":9348,"Ġtuá»Ļt":9349,"Ġone":9350,"Ġmui":9351,"ĠVa":9352,"ashion":9353,"ĠKáº¡n":9354,"ibank":9355,"ĠPay":9356,"ĠDream":9357,"file":9358,"ĠTang":9359,"ĠvÃ©t":9360,"Dr":9361,"Cá»¥c":9362,"To":9363,"ĠquÃ¢y":9364,"ĠPacific":9365,"ĠÃį":9366,"Nhanh":9367,"ĠAndre":9368,"Ġtáº©u":9369,"ĠLÆ°":9370,"ema":9371,"Ġ365":9372,"Ġoffline":9373,"ĠNu":9374,"str":9375,"âĢĭâĢĭ":9376,"ĠGlobal":9377,"Ġquáº©n":9378,"ĠCuá»ĳn":9379,"á»®":9380,"ĠDiÃªn":9381,"Ġoi":9382,"asc":9383,"Ġmá»Ľ":9384,"ĠComplex":9385,"Ġláº½o":9386,"ĠLÃ´i":9387,"ĠBIDV":9388,"tÆ°":9389,"vá»ģ":9390,"Ġnáº·n":9391,"ffet":9392,"Ġxui":9393,"ĠÄĲÄĥk":9394,"Ġdáº»":9395,"ĠæīĢsá»Ł":9396,"ĠSel":9397,"pi":9398,"ĠTU":9399,"ĠtrÃ¡m":9400,"rolux":9401,"ĠBuilding":9402,"ĵng":9403,"KÃŃch":9404,"MÃł":9405,"tÃ¬nh":9406,"ĠNhá»±a":9407,"ĠÄĳÆ°Æ¡c":9408,"ĠxÃ¹":9409,"ĠCÃ¡o":9410,"Ġä¸ītam":9411,"Ġkhoanh":9412,"Dáº§u":9413,"shop":9414,"asa":9415,"ïĢ":9416,"ĠCorp":9417,"ĠSex":9418,"ĠRub":9419,"ĠRad":9420,"ĠKhá»ıe":9421,"ween":9422,"Ġ1960":9423,"DÆ°Æ¡ng":9424,"tÃŃnh":9425,"áºłN":9426,"ĠLab":9427,"Ġlove":9428,"TTP":9429,"ĠZalo":9430,"ĠtÃ¬":9431,"ĠRS":9432,"Ġoto":9433,"BH":9434,"ĠNhÃ¢m":9435,"ÄĲá»Ļng":9436,"ĠEnglish":9437,"field":9438,"Ġbit":9439,"Tranh":9440,"ilet":9441,"ĠvÃ²":9442,"ĠtuÃ½p":9443,"Ġå¤§Äĳáº¡i":9444,"Ð¾ÑĢ":9445,"tor":9446,"Ġtone":9447,"Ð¿":9448,"Ġvir":9449,"ĠMet":9450,"tiáº¿ng":9451,"ews":9452,"ĠtÃ£":9453,"ston":9454,"Ġváº©y":9455,"ĠKS":9456,"ĠToshiba":9457,"ĠÄĲÃª":9458,"ĠNá»ĺI":9459,"online":9460,"âŀ":9461,"App":9462,"Ġmá»¥":9463,"emo":9464,"arton":9465,"Ġsáº£y":9466,"ĠNguy":9467,"ĠReg":9468,"GDÄĲT":9469,"ĠcÆ°á»¡i":9470,"nect":9471,"OH":9472,"Tai":9473,"!!!!":9474,"gáº§n":9475,"ĠSÆ°Æ¡ng":9476,"made":9477,"ĠhÃ²m":9478,"ĠVilla":9479,"Ä¨":9480,"aga":9481,"ĠTrá»£":9482,"ĠÄĳáº·ng":9483,"ĠMÆ°a":9484,"Ġlives":9485,"ĠAngeles":9486,"ĠPen":9487,"ĠnáºŃp":9488,"Ġitem":9489,"tháºŃp":9490,"Pháº¡m":9491,"Ġxiáº¿t":9492,"ĠTrÃ¹ng":9493,"á»¸":9494,"hÃ´":9495,"Ġéģĵ":9496,"BÄĲ":9497,"VÆ°Æ¡ng":9498,"VP":9499,"ovic":9500,"Ġ135":9501,"Ġmáº£i":9502,"Linh":9503,"ding":9504,"XVN":9505,"></":9506,"uma":9507,"ĠrÃ¹i":9508,"Posted":9509,"ĠComm":9510,"ĠRos":9511,"ĠOai":9512,"ÄĳÃ¡nh":9513,"Ġ098":9514,"Ġáº¤t":9515,"ze":9516,"Ġteo":9517,"ĠxoÄĥn":9518,"nÆ°á»Ľc":9519,"ĠNÃł":9520,"Hoáº·c":9521,"khÃ¡ch":9522,"ĠNghÄ©":9523,"ĠUber":9524,"Vn":9525,"ĠPage":9526,"Äĳá»Ļ":9527,"ĠTTC":9528,"Ghi":9529,"ĠPort":9530,"ather":9531,"Ġquáº§ng":9532,"Ġtrá»£n":9533,"Äĳiá»ĥm":9534,"Ġ188":9535,"ĠXá»©":9536,"Ġhá»ķi":9537,"Ġchá»ķ":9538,"Giá»¯a":9539,"á»Į":9540,"Įnhi":9541,"ĠphÃ¨n":9542,"bet":9543,"fone":9544,"xu":9545,"ĠuyÃªn":9546,"ugin":9547,"ĠVÃ©":9548,"ĠèĢĮnhi":9549,"phen":9550,"phÃ²ng":9551,"WC":9552,"ĠMah":9553,"ram":9554,"Ì£.":9555,"tim":9556,"ĠThÆ°a":9557,"Ġtiá»ĩt":9558,"bar":9559,"nal":9560,"Ġsam":9561,"Ġá»Ĳc":9562,"Má»Ŀi":9563,"dom":9564,"TÃ²a":9565,"212":9566,"ĠMartin":9567,"chÃ¢n":9568,"báº±ng":9569,"Ġá»Ĳng":9570,"ĠMÃģY":9571,"çĶ":9572,"ÃģO":9573,"Quáº£n":9574,"å½©ç¥¨":9575,"ĠNguyen":9576,"ĠtrÃ¨o":9577,"Ġwe":9578,"EE":9579,"sch":9580,"under":9581,"ĠSydney":9582,"?!":9583,"ĠOS":9584,"https":9585,"ĠNGHIá»Ĩ":9586,"sÆ¡n":9587,"Ġbáº§n":9588,"110":9589,"áº¸":9590,"cont":9591,"Ġcoin":9592,"ĠSaf":9593,"dragon":9594,"ĠViv":9595,"ĠdÆ¡":9596,"ĥ½":9597,"ĠthÄĥ":9598,"Shop":9599,"dá»ĭch":9600,"Ġsá»¯ng":9601,"Ġtime":9602,"una":9603,"Há»ıi":9604,"ito":9605,"eek":9606,"Ĺı":9607,"Ìĥ,":9608,"ĠSand":9609,"Â¯":9610,"Ġtráº¡ch":9611,"ĠMá»ħ":9612,"cÃ¡":9613,"Báº¿p":9614,"dan":9615,"ĠXH":9616,"ĠDom":9617,"ĠrÃŃt":9618,"xt":9619,"ĠCÃģC":9620,"ĠMega":9621,"Di":9622,"ĠVFF":9623,"ĠKháº©u":9624,"ĠáºŃp":9625,"ĠLeg":9626,"003":9627,"ĠBusiness":9628,"Nga":9629,"Ġváº¡t":9630,"Ġgiun":9631,"ĠCáº©n":9632,"Tuáº§n":9633,"ĠLav":9634,"iber":9635,"Ġå·":9636,"350":9637,"tÃ¹y":9638,"ĤN":9639,"ĠbÃŃch":9640,"urity":9641,"ĠLife":9642,"åĽ":9643,"ĠComments":9644,"ĠWon":9645,"ĠContin":9646,"ĠSir":9647,"ĠURL":9648,"ĠJan":9649,"Ġkheo":9650,"Ġnháº§y":9651,".(":9652,"ĠsÃ²":9653,"ĠèŃ":9654,"lan":9655,"ĠXung":9656,"gram":9657,"ĠPSG":9658,"Ġcol":9659,"ĠCá»ı":9660,"ĠStreet":9661,"Ġnat":9662,"ĠÐº":9663,"Ġduá»Ĺi":9664,"Ġmet":9665,"ĠHH":9666,"ĠNeymar":9667,"ĠSMS":9668,"PG":9669,"Tam":9670,"Ġzin":9671,"Ġláº«m":9672,"ĠSav":9673,"Vietnam":9674,"ĠCang":9675,"Ġgá»ıi":9676,"Ġav":9677,"ĠèĻ":9678,"Ġngá»«":9679,"BD":9680,"IK":9681,"tis":9682,"alaxy":9683,"ĠVig":9684,"ĠPL":9685,"ros":9686,"ĠWC":9687,"ĠFre":9688,"TráºŃn":9689,"ĠCoun":9690,"XÃ£":9691,"aro":9692,"ĠPháº¥n":9693,"uter":9694,"Ġtennis":9695,"ĠRau":9696,"phÆ°Æ¡ng":9697,"cap":9698,"ĠcÃ¡u":9699,"dá»±":9700,"ĠtuÃ´":9701,"wo":9702,"Ġ230":9703,"Ġxá»ĭn":9704,"ĠGod":9705,"Sang":9706,"ĠGuard":9707,"span":9708,"ĠLazada":9709,"ify":9710,"ĠQuáº¡t":9711,"ĠTáºŃn":9712,"ĠWil":9713,"apter":9714,"ĠNhÃłn":9715,"ĠsÆ°a":9716,"ĠOld":9717,"gá»įi":9718,"ĠSáº¢N":9719,"ĠtruyÃª":9720,"suzu":9721,"cos":9722,"Ġláº§y":9723,"lÃŃt":9724,"ets":9725,"ĠkÃ©n":9726,"ĠDiamond":9727,"ĠquÃ¢":9728,"Vá»£":9729,"Ġne":9730,"ĠngÃ³ng":9731,"Ġnguyá»ģn":9732,"ĠDA":9733,"ĠTrá»Ł":9734,"ĠHuynh":9735,"ãģĦ":9736,"ÃģC":9737,"ĠHun":9738,"ĠPDF":9739,"ister":9740,"ĠMÃ¡i":9741,"Ġpol":9742,"Ġlip":9743,"teur":9744,"ĠVene":9745,"ĠFun":9746,"VA":9747,"Ġyá»ĥ":9748,"ĠBBC":9749,"Ġphoto":9750,"icÃ´":9751,"ĠUNESCO":9752,"led":9753,"ĠUyá»ĥn":9754,"ĠVincom":9755,"iller":9756,"ChÃ¢n":9757,"pson":9758,"ĠHaw":9759,"Ġsá»ĵi":9760,"ido":9761,"ĠGiuse":9762,"ÆłN":9763,"ĠhÆ°Æ¡u":9764,"ĠChiáº¿u":9765,"âĢĿ-":9766,"chá»©c":9767,"---":9768,"ĠCá»¥m":9769,"Thá»ĥ":9770,"ĠSqu":9771,"ĠSung":9772,"vis":9773,"Ġnhá»ĳt":9774,"Ma":9775,"ĠRoma":9776,"ĠngÃ¹ng":9777,"ĠBeach":9778,"ĠTime":9779,"Ġop":9780,"osh":9781,"Ġvá»¥ng":9782,"å¹":9783,"cal":9784,"ĠtÃŃa":9785,"Ġnháºµn":9786,"Mang":9787,"Ġgluc":9788,"ĠRap":9789,"jpg":9790,"Biáº¿t":9791,"ĠPakistan":9792,"Bá»ĳ":9793,"ĠRet":9794,"LE":9795,"Ġnilon":9796,"NK":9797,"Ser":9798,"ĠCHÃįNH":9799,"ĠTráº§m":9800,"Ġmá»ĭ":9801,"ĠRá»«ng":9802,"Ġoxi":9803,"Tá»·":9804,"quá»ĳc":9805,"ĠMÃ¢y":9806,"Ġtráº»o":9807,"Ġpixel":9808,"Phi":9809,"Ġtá»§i":9810,"Ġ096":9811,"Un":9812,"ĠBá»Ńu":9813,"alk":9814,"Ġhit":9815,"ĠSuy":9816,"ĠThá»ıa":9817,"ĠNhÃ£n":9818,"Ġhuá»³nh":9819,"ĠÄĲÃ¢u":9820,"ÑģÐº":9821,"Ġsáº«m":9822,"estival":9823,"riday":9824,"ĠTown":9825,"ĠVÃłi":9826,"ĠÄĲam":9827,"Ġ!!!":9828,"váº¥n":9829,"Ġid":9830,"ĠLÃłnh":9831,"reg":9832,"ĠCasio":9833,"strong":9834,"Ġphone":9835,"ĠWat":9836,"ĠxÃ²e":9837,"ĠTiáº¿u":9838,"ĠOK":9839,"cept":9840,"Ġsedan":9841,"ĠSanh":9842,"ĠUE":9843,"Ġchá»¯ng":9844,"urt":9845,"ĠKhac":9846,"GM":9847,"ĠGeorge":9848,"dÃ¢n":9849,"gá»ĵm":9850,"ĠÄĲáº¥y":9851,"âĢ¦).":9852,"ĠTá»ģ":9853,"Ġá»ķi":9854,"ĠLÃ£":9855,"ĠSEA":9856,"ĠâĪĴ":9857,"OD":9858,"ĠPalace":9859,"ĠBat":9860,"dam":9861,"ĠBack":9862,"Ġcháº¯p":9863,"unce":9864,"ĠÄĥ":9865,"Ġtrans":9866,"Ġ720":9867,"amilk":9868,"æĸ":9869,"á»ľI":9870,"ĠrÆ¡":9871,"[/":9872,"ĠAgr":9873,"Ġnhá»ĩn":9874,"ĠStart":9875,"ĠGPS":9876,"ĠÄĳá»Ŀm":9877,"ĠrÃ¢m":9878,"ĠDáº¥u":9879,"ĠYu":9880,"ĠPhanx":9881,"ĠVá»ı":9882,"ĠQuÃª":9883,"nÄĥng":9884,"Ġdáº¿":9885,"ĠPeter":9886,"ffe":9887,"ĠKore":9888,"ĠnhÃ¡m":9889,"ĠPhilips":9890,"ĠtÃŃt":9891,"Ġuáº©n":9892,"ĠChÄĥn":9893,"ĠDigital":9894,"ĠTTT":9895,",.":9896,"Ġ5000":9897,"Ġcáº¥n":9898,"phÃ¢n":9899,"ĠPhÃ¡o":9900,"cung":9901,"iag":9902,"ĠIOS":9903,"Ħ¢":9904,"ĠGHP":9905,"ĠTouch":9906,"sao":9907,"Ġoáº£i":9908,"Ġmáº©u":9909,"Ġlick":9910,"ĠTÃ¡":9911,"entine":9912,"giai":9913,"ĠIsuzu":9914,"ĠNext":9915,"Báº¡ch":9916,"Ġnáº¯n":9917,"ĠCast":9918,"Sáº½":9919,"ĠPiece":9920,"Ġsamsung":9921,"letico":9922,"ĠHarv":9923,"Ġsá»Ļ":9924,"ĠBerlin":9925,"ĠVietin":9926,"ĠNghá»ģ":9927,"Ġ}":9928,"180":9929,"Ġ1989":9930,"Ġâľħ":9931,"\">":9932,"ĠHost":9933,"ĠNáº¯m":9934,"Ġmá»ĵng":9935,"Ġnheo":9936,"Įnhá»ĭ":9937,"ĠÐ´":9938,"nÃ³i":9939,"ĠPU":9940,"ĠTeam":9941,"Ġhá»ħ":9942,"Sá»ķ":9943,"ĠnhÃŃu":9944,"ĠMusic":9945,"nbsp":9946,"Ġsua":9947,"ĠHU":9948,"ĠTháº±ng":9949,"________":9950,"lott":9951,"Ġjean":9952,"Ġá»ıi":9953,"ĠControl":9954,"ĠDáºŃt":9955,"Ġblogger":9956,"ĠChuyáº¿n":9957,"Ġráº©y":9958,"ĠlÃºn":9959,"Ġchá»ķi":9960,"ĠHá»įa":9961,"game":9962,"ĠSk":9963,"face":9964,"ĠÄĳong":9965,"Ġmap":9966,"ĠSnapdragon":9967,"Berry":9968,"vic":9969,"ism":9970,"TML":9971,"ĠSaint":9972,"ĠTer":9973,"Ð±":9974,"Ġ1988":9975,"obs":9976,"ĠNon":9977,"ĠnghÃłnh":9978,"Ġåĸ":9979,"Ġ123":9980,"Quáº§n":9981,"ĠTest":9982,"ÐµÑĤ":9983,"pol":9984,"ĠÃºng":9985,"ĠmÃºi":9986,"ĠBá»ı":9987,"ĠBern":9988,"ĠThÃºc":9989,"NS":9990,"aa":9991,"Ġxá»Ļn":9992,"ĠÄĲIá»ĨN":9993,"Ġhydro":9994,"ĠHom":9995,"áº¤N":9996,"Ġåĩ":9997,"Ġblu":9998,"inger":9999,"ĠABC":10000,"Ġåįģ":10001,"ThÃ¢n":10002,"Ġnuoc":10003,"Ġcháº£nh":10004,"Ġ1200":10005,"Ġcháº¯t":10006,"Ġjeans":10007,"Ġgram":10008,"Ġbon":10009,"Ġsilicon":10010,"ĠWater":10011,"Ġ090":10012,"ĠLáº§u":10013,"ories":10014,"ĠKÄĲT":10015,"ĠFlash":10016,"ĠReview":10017,"Ġnau":10018,"ĠTar":10019,"ĠÄĲoan":10020,"130":10021,"Ġmem":10022,"HoÃłn":10023,"ĠÃļt":10024,"ĠJapan":10025,"Ra":10026,"ĠWall":10027,"ĠchÃ²m":10028,"ÃĴNG":10029,"Ġæĥ":10030,"ĠES":10031,"Ġdown":10032,"ĠÃ³ng":10033,"Lá»±a":10034,"Ġ1500":10035,"Lá»Ľp":10036,"You":10037,"ĠTá»ī":10038,"ĠLog":10039,"Ġfont":10040,"ĠðŁĺ":10041,"ĠtÃ½":10042,"ĠHáº¿t":10043,"ĠChim":10044,"ĠJin":10045,"oxy":10046,"mit":10047,"esus":10048,"Ġbass":10049,"ula":10050,"Lá»£i":10051,"Ġxá»īu":10052,"ĠäºĮnhá»ĭ":10053,"ĠchÃłi":10054,"Ġ102":10055,"2002":10056,"ráº¥t":10057,"Ġhá»ī":10058,"Ġ1954":10059,"now":10060,"ĠTHá»Ĭ":10061,"Giai":10062,"ĠSGK":10063,"Ġgá»Ľm":10064,"Ġthá»ıi":10065,"HLV":10066,"ĠnhÃºn":10067,"ĠHÆ¡i":10068,"Top":10069,"QuÃ¢n":10070,"ĠliÃªm":10071,"ency":10072,"ĠÃ¡t":10073,"ĠXá»ķ":10074,"giÃ¡o":10075,"zy":10076,"Ġomega":10077,"ĠJung":10078,"ĬthÆ°á»£ng":10079,"Ġtháº¹n":10080,"ÙĨ":10081,"ĠçĽ¸":10082,"ars":10083,"Ġ103":10084,"Land":10085,"Ġimplant":10086,"ĠSmartphone":10087,"Ġbikini":10088,"ĠSystem":10089,"Ġbáº§m":10090,"ĠChiÃªm":10091,"Ġdam":10092,"VT":10093,"Ġ1968":10094,"Ġdá»Ļt":10095,"ĠMid":10096,"ĠCream":10097,"Ġ650":10098,"Bl":10099,"ĠCáº¯t":10100,"emy":10101,"ĠÄĲÃ³ng":10102,"ĠTrai":10103,"ĠNhá»ı":10104,"ĠCel":10105,"ume":10106,"ĠLuc":10107,"ĠæĢ":10108,"NgÃłnh":10109,"apixel":10110,"elfie":10111,"ĠVáº£i":10112,"Ġfe":10113,"ĠHÃ´n":10114,"Ġprotect":10115,"Da":10116,"Ġplus":10117,"Ġblockchain":10118,"alth":10119,"ĠArchives":10120,"ĠEth":10121,"ector":10122,"VÅ©":10123,"ĠÄĳá»Ĺi":10124,"loáº¡i":10125,"mann":10126,"ĠTá»¥c":10127,"Ġxá»īn":10128,"ĠÄĲá»Ĭ":10129,"Ġláº¹":10130,"ká»ĥ":10131,"ĠGym":10132,"á»ģnh":10133,"ĠAz":10134,"¡n":10135,"=>":10136,"ĠNhÃ¬":10137,"wan":10138,"Ġrá»įi":10139,"ĠCáº·p":10140,"Tá»Ń":10141,"Loa":10142,"Váº«n":10143,"Ð¾Ð»":10144,"ĠQuay":10145,"ĠTak":10146,"ĠtrÃ¢":10147,"ĠÏ":10148,"uay":10149,"giáº£m":10150,"ĠAh":10151,"ĠbÆ°á»Ľu":10152,"Ġâĸ":10153,"Ġváº¯n":10154,"giá»Ľi":10155,"ĠvÅ©ng":10156,"ĠPhone":10157,"ĠAlpha":10158,"ĠElect":10159,"ÄĲÃłn":10160,"ĠVÄĤN":10161,"rey":10162,"ĠRev":10163,"ĠGHPGVN":10164,"comm":10165,"ÛĮ":10166,"Ð°ÑĤ":10167,"240":10168,"\")":10169,"Ġhoay":10170,"Ġáº¤y":10171,"ĠPass":10172,"Ġes":10173,"ĠliÃªu":10174,"Táº£i":10175,"Ġupdate":10176,"ania":10177,"243":10178,"åĪ":10179,"bá»ĭ":10180,"Ġæĺİ":10181,"ĠgiÃ¢":10182,"Ġ210":10183,"Ġtáº¡t":10184,"Ġdis":10185,"Tá»īnh":10186,"káº¿t":10187,"ĠÄĳÃły":10188,"ĠCy":10189,"ĠASIA":10190,"Ġshort":10191,"âĿ":10192,"Ġvar":10193,"ĠgÃ¡n":10194,"sáº£n":10195,"Sp":10196,"ĠJean":10197,"ĠnhÄĥ":10198,"ĠCá»«":10199,"ĠAward":10200,"Ġtáº¥c":10201,"ĠSN":10202,"ĠMÃ³ng":10203,"Nháº¡c":10204,"ThÃ¡nh":10205,"ĠtrÃ²ng":10206,"ves":10207,"ĠKhÃ³":10208,"Ġluá»ĵn":10209,"ĠcÆ¡ng":10210,"ĠHC":10211,"oot":10212,"ĠYahoo":10213,"ThÃŃch":10214,"ĠVÃłnh":10215,"ĠMont":10216,"Ġlazada":10217,"ĠMá»ĳi":10218,"Giáº£m":10219,"ĠDie":10220,"ghan":10221,"Viá»ĩn":10222,"ĠtrÃłm":10223,"Ġdon":10224,"ĠSÃ³ng":10225,"ublic":10226,"NET":10227,"tham":10228,"îĢ":10229,"ĠngoÃ£n":10230,"ĠCÄĲT":10231,"ĠVlad":10232,"ĠNgá»¥y":10233,"well":10234,"Chá»©ng":10235,"ĠClinton":10236,"PV":10237,"ĠÄĲÃ¡m":10238,"Ġsun":10239,"ĠBud":10240,"ĠQUá»ĲC":10241,"Ġngao":10242,"Ġ/>":10243,"Ġbá»Ļn":10244,"nghÄ©a":10245,"Ġhá»Ŀn":10246,"ĠchÃłm":10247,"ĠPleiku":10248,"ĠKm":10249,"ĠQH":10250,"ĠPasteur":10251,"Ġmar":10252,"azz":10253,"ĠKan":10254,"ĠHappy":10255,"ĠChris":10256,"Ġ1982":10257,"Ġmá»ĭt":10258,"Ġngoáº·t":10259,"ĠNXB":10260,"ross":10261,"Ġkhá»ıa":10262,"ĠSakura":10263,"ĠBá»ģ":10264,"val":10265,"Ġthiet":10266,"Ġcarton":10267,"giao":10268,"ĠKhá»ķ":10269,"ĠAtletico":10270,"Ġinsulin":10271,"RA":10272,"ĠâĢĺâĢĻ":10273,"ĠGuitar":10274,"chung":10275,"ĠRod":10276,"pho":10277,"iso":10278,"ĠtuÃ´n":10279,"ĠbÃłnh":10280,"ĠBec":10281,"á»ım":10282,"Äĳáº¥t":10283,"ĠTMCP":10284,"Ġnáº¡t":10285,"ĠDaily":10286,"Ġtoilet":10287,"ĠCHÃļ":10288,"Ð½Ñĭ":10289,"ÄĲÃ¡p":10290,"Ġpage":10291,"ĠïĢ¨":10292,"ĠÄĳÃ³a":10293,"ĠBá»ĥ":10294,"RS":10295,"Ġdáº¡t":10296,"ĠPA":10297,"ĠTÃło":10298,"ĠBit":10299,"ĠXK":10300,"Ġstartup":10301,"ĠTon":10302,"Ġåį³":10303,"ĠNgá»ĵi":10304,"Kiá»ĥu":10305,"Ġtáº±m":10306,"des":10307,"Ġthuy":10308,"Nhu":10309,"ichi":10310,"ĠFormosa":10311,"Há»£p":10312,"shi":10313,"á»ĲI":10314,"ĠÃ±":10315,"witch":10316,"Ġuyá»ĥn":10317,"ĠCapital":10318,"ĠÃ¹":10319,"thá»©":10320,"Ġ550":10321,"ĠTPP":10322,"ĠTHÃĢNH":10323,"Ġsalad":10324,"phá»¥":10325,"ution":10326,"ĠGirl":10327,"âĤ«":10328,"ĠxiÃªn":10329,"ÄĤM":10330,"Ġmain":10331,"Ġnguyá»ħn":10332,"Truyá»ģn":10333,"TÃ´":10334,"ĠUltra":10335,"Iá»ĢN":10336,"Ġåį³tá»©c":10337,"ĠFer":10338,"ĠJac":10339,"Ġ1986":10340,"Ġtoáº¡":10341,"Ġsuyá»ħn":10342,"ĠrÃ¹ng":10343,"aland":10344,"Ġec":10345,"á»Ĵ":10346,"ĠâĻ":10347,"Khoa":10348,"ĠMá»±c":10349,"ĠTL":10350,"ĠPhÃ¡i":10351,"Gháº¿":10352,"Triá»ĥn":10353,"Ġká»ģnh":10354,"ĠSSD":10355,"Iá»Ģ":10356,"ĠmáºŃn":10357,"ĠNan":10358,"ĠNgá»Ļ":10359,"VáºŃn":10360,"ÄĳÄĥng":10361,"ĠClip":10362,"ĠquÄĥng":10363,"gu":10364,"Ġnháº£":10365,"Sá»©c":10366,"ience":10367,"raft":10368,"ĠSuá»ĳt":10369,"ĠbuÃ´":10370,"vietnam":10371,"Ġcondotel":10372,"Há»ĵng":10373,"ĠElec":10374,"LáºŃp":10375,"Iáº¾T":10376,"ĠVillas":10377,"Ġcup":10378,"á»Ŀng":10379,"ĠChrome":10380,"Triá»ĩu":10381,"Cá»ĳ":10382,"ĠGIA":10383,"inal":10384,"ures":10385,"Ġdáº±n":10386,"Ġæĺİminh":10387,"Ġnhá»©t":10388,"ĠMak":10389,"irm":10390,"attle":10391,"Æ¯T":10392,"phÆ°á»Ŀng":10393,"Ġ190":10394,"count":10395,"ĠBeauty":10396,"ĠCÃĵ":10397,"Ġdáº¥y":10398,"uda":10399,"PE":10400,"ombia":10401,"Ġnháº½":10402,"uts":10403,"ĠHack":10404,"ĠnÃł":10405,"chiáº¿n":10406,"Ġcrack":10407,"Ġhave":10408,"123":10409,"ĠçŁ¥":10410,"aroo":10411,"ĠManh":10412,"ove":10413,"Ġå¹":10414,"áºłO":10415,"ĠPhanxicÃ´":10416,"Ġthá»Ľt":10417,"Ġthá»«ng":10418,"CÃł":10419,"itle":10420,"ĠnhÃ¢m":10421,"ĠNHáº¤T":10422,"ĠgÃºt":10423,"ĠGiá»ıi":10424,"don":10425,"ĠSanta":10426,"IO":10427,"ĠYang":10428,"ĠBest":10429,"reak":10430,"ĠSINH":10431,"ĠSacom":10432,"rah":10433,"ĠNetwork":10434,"pop":10435,"ĠØ§":10436,"acc":10437,"ĠCL":10438,"anks":10439,"ĠBlackBerry":10440,"ĠkhÆ¡ng":10441,"ĠBTS":10442,"ring":10443,"ĠDubai":10444,"ĠBaby":10445,"ĠHDV":10446,"linh":10447,"Táº¡o":10448,"ĠTs":10449,"ĠNÃª":10450,"eter":10451,"anin":10452,"Ġevent":10453,"gar":10454,"1945":10455,"ĠxÆ°":10456,"ĠThomas":10457,"ĠNiá»ģm":10458,"Äĳá»ĭnh":10459,"ĠWatch":10460,"Ġä¸ĬthÆ°á»£ng":10461,"Ġestrogen":10462,"ĠsÃ¡m":10463,"ÄĲau":10464,"220":10465,"ills":10466,"ĠJesus":10467,"Ġdá»ĥ":10468,"quÃ¡":10469,"uri":10470,"Nha":10471,"ĠBBQ":10472,"ĠdÄ©a":10473,"ĠGÆ°Æ¡ng":10474,"Can":10475,"æľŁ":10476,"ittle":10477,"PM":10478,"loween":10479,"watch":10480,"ĠJenn":10481,"thay":10482,"ĠData":10483,"Ġscandal":10484,"itor":10485,"ĠchÆ¡":10486,"ĠPHÃģT":10487,"2001":10488,"berry":10489,"ĠDem":10490,"Ġduong":10491,"Ġ116":10492,"ĠVáº·t":10493,"Ġnail":10494,"Ġráº±m":10495,"irl":10496,"Tháº»":10497,"ĠChÃłm":10498,"host":10499,"Hiá»ĩp":10500,"áº¨M":10501,"Ġinter":10502,"Ġmic":10503,"nÃªn":10504,"ghanistan":10505,"ÌĢ.":10506,"Ġopt":10507,"Ġart":10508,"Ġdiesel":10509,"ibaba":10510,"Ãģnh":10511,"ĠÄĳÃ¹ng":10512,"Ġç¾":10513,"phu":10514,"ĠÃįch":10515,"bay":10516,"ĠNgu":10517,"Ġloay":10518,"ĠJae":10519,"ĠbáºŃy":10520,"xÃŃt":10521,"ĠLexus":10522,"ĠMÄ©":10523,"Ġ0938":10524,"eller":10525,"ĠdÃ£i":10526,"ĠMs":10527,"lá»£i":10528,"Ġchang":10529,"ĠGiÃªng":10530,"ĠThÃ¹ng":10531,"ocus":10532,"DV":10533,"Ġtáº¥y":10534,"ĠIns":10535,"ĠÄĲá»¨":10536,"tay":10537,"ĠmÃ¬n":10538,"ĠGM":10539,"ĠHQ":10540,"ris":10541,"lanh":10542,"ĠBÃģN":10543,"247":10544,"bes":10545,"ĠNm":10546,"ĠDj":10547,"má»Ĺi":10548,"Ġèĩª":10549,"Ġmax":10550,"Ġ2021":10551,"SÃłn":10552,"tá»ķ":10553,"ĠThÃ¡c":10554,"Tháº§n":10555,"Ġæĸ¼":10556,"táºŃp":10557,"estay":10558,"ï¿½ï¿½ï¿½ï¿½":10559,"ĠCost":10560,"Kháº£":10561,"ense":10562,"ĠxÃŃt":10563,"ĠMáº¥t":10564,"ÃĤm":10565,"ĠDL":10566,"ĠCook":10567,"ĠSev":10568,"ĠNghá»ī":10569,"Háº¡":10570,"amily":10571,"ĠStand":10572,"Ġ0909":10573,"ĠTrÃłm":10574,"tain":10575,"imir":10576,"Ġmien":10577,"Ġgiá»Ĺ":10578,"icle":10579,"Ġhoáº£":10580,"ĠTRÆ¯á»ľNG":10581,"ĠphÃło":10582,"ĠGIá»":10583,"Ġváº©n":10584,"há»£p":10585,"facebook":10586,"ĠTele":10587,"ĠKhmer":10588,"ĠFA":10589,"izza":10590,"ĠlÃ¹n":10591,"ĠTáº·c":10592,"234":10593,"ĠCer":10594,"ground":10595,"ĠIQ":10596,"ĠNgá»±":10597,"Iá»ĦN":10598,"ĠKaraoke":10599,"Ġmáº¥u":10600,"Ġæĸ¼Æ°":10601,"ĠDÃłnh":10602,"Ġvis":10603,"ĠkÃ¨n":10604,"ĠLá»Ĺ":10605,"ĠSkin":10606,"ĠVe":10607,"ĠDoÃ£n":10608,"Ġsk":10609,"vest":10610,"Trá»Ŀi":10611,"scar":10612,"City":10613,"ĠIsland":10614,"Ġdriver":10615,"ural":10616,"ĠFile":10617,"ĠVinamilk":10618,"SO":10619,"Sá»ĳng":10620,"iep":10621,"Ġnghiáº¿n":10622,"kva":10623,"ĠngÃ¡t":10624,"Mong":10625,"Mobile":10626,"å¥":10627,"ĠXÆ°á»Łng":10628,"ĠÃĶi":10629,"ĠCarl":10630,"SH":10631,"rect":10632,"oz":10633,"ĠBia":10634,"ĠLO":10635,"ĠTechn":10636,"Ġä¿":10637,"ĠngáºŃy":10638,"ĠNguyÃª":10639,"Dáº¡":10640,"ete":10641,"ĠRen":10642,"ĠEdge":10643,"urs":10644,"ÃĢY":10645,"Ġdiá»ģu":10646,"Tá»«ng":10647,"ĠGáº¡o":10648,"Ġ1987":10649,"bourne":10650,"Ġthui":10651,"ku":10652,"ĠSet":10653,"áº¾N":10654,"ĠKhÃ¡ng":10655,"ĠNT":10656,"ÄĲTB":10657,"ous":10658,"Hiá»ĥu":10659,"ĠLAN":10660,"phan":10661,"atus":10662,"ĠLive":10663,"ĠçŁ¥tri":10664,"ĠNÆ°Æ¡ng":10665,"ĠBKS":10666,"Ġvien":10667,"ĠmAh":10668,"aris":10669,"ĠåįģtháºŃp":10670,"ĠsuÃ´ng":10671,"ĠStan":10672,"Tá»Ľi":10673,"Ġnáº»o":10674,"ening":10675,"ĠAfghanistan":10676,"tuy":10677,"Ġnáº¡c":10678,"Ġ093":10679,"ĠCong":10680,"ĠChang":10681,"Ġdich":10682,"Ġåķ":10683,"Ġphá»ĵn":10684,"ique":10685,"ĠLá»Ĺi":10686,"othi":10687,"VÃ´":10688,"bá»ĩnh":10689,"Ġchuá»ĳt":10690,"ĠÄĲáºłI":10691,"CK":10692,"Ġhacker":10693,"ÃĵA":10694,"ĠmÆ°Æ¡ng":10695,"iston":10696,"¥nhÆ°á»£c":10697,"key":10698,"ĠDisney":10699,"ĠCháº¡y":10700,"ĠMunich":10701,"video":10702,"Ġnháº±n":10703,"ault":10704,"ocirc":10705,"aut":10706,"ïģ":10707,"ĠkhÄĥng":10708,"ĠCSÄĲT":10709,"ĠBor":10710,"Ġá»ķng":10711,"ĠPE":10712,"Ġpre":10713,"ĠElectrolux":10714,"Ġ2025":10715,"ĠColombia":10716,"SE":10717,"ĠhuyÃª":10718,"ĠMiáº¿u":10719,"ĠSoft":10720,"Tá»ĳt":10721,"ĠdÃ¬u":10722,"ĠAnt":10723,"ĠNguyá»ĩn":10724,"ĠAU":10725,"ãĥ¼":10726,"Trá»±c":10727,"BSCL":10728,"ĠOh":10729,"BÃ©":10730,"Ġráº§y":10731,"Ġbeta":10732,"iva":10733,"bÃªn":10734,"ĠçĻ":10735,"450":10736,"ÑĨ":10737,"iles":10738,"Bá»ĵ":10739,"Ġbá»¡":10740,"Ġpallet":10741,"Ġorder":10742,"Ġ112":10743,"Ãģp":10744,"ĠcÃ¹i":10745,"elly":10746,"Ġèĩªtá»±":10747,"Ð¸Ð":10748,"ĠVáº»":10749,"Ġnhuáº§n":10750,"Ġchocol":10751,"ĠrÃ¬":10752,"cá»©":10753,"244":10754,"ĠYáº¿u":10755,"ĠPhÃªrÃ´":10756,"ÙĪ":10757,"UP":10758,"ĠHA":10759,"Ġworld":10760,"ional":10761,"Ġgá»Ļp":10762,"ĠVÃ¢ng":10763,"sai":10764,"RI":10765,"ĠHK":10766,"Ngá»įc":10767,"Ġstudio":10768,"Ġpháº£":10769,"ĠMap":10770,"Ġsmart":10771,")(":10772,"táº¯c":10773,"Ð¾Ð¼":10774,"nghi":10775,"Ġcuá»ĳc":10776,"ĠIreland":10777,"Ġphat":10778,"ĠLÄĲLÄĲ":10779,"188":10780,"Ġ1979":10781,"ĠCAO":10782,"á»£m":10783,"Ġváº¡":10784,"ĠVá»¹":10785,"Äĳáº¿n":10786,"ĠÄĳÃºt":10787,"ĠLot":10788,"ĠlÆ°Æ¡n":10789,"Ġkháº¿":10790,"care":10791,"ĠÄĲHQG":10792,"ĠCMND":10793,"cÃ¢y":10794,"Ġwill":10795,"ĠkhÄĥ":10796,"ĠÄĲá»ĺNG":10797,"ily":10798,"Ġmotor":10799,"FI":10800,"Ġkháº£i":10801,"ĠKu":10802,"Ġláº©n":10803,"Ġè§":10804,"ĠDÆ°á»Ŀng":10805,"åľ":10806,"ĠBÃºp":10807,"ĠXU":10808,"ĠNATO":10809,"ĠVGA":10810,"bÃłi":10811,"uld":10812,"ĠRichard":10813,"æĺ":10814,"ĠXIV":10815,"ĠSÃ©c":10816,"sá»ĳng":10817,"Ð°Ð»":10818,"á»¤NG":10819,"ted":10820,"á»ģm":10821,"ĠLÃĿ":10822,"ez":10823,"LINE":10824,"ols":10825,"ĠhÃ³t":10826,"ĠASIAD":10827,"chÆ°":10828,"eline":10829,"Ġì":10830,"hÆ°á»Ľng":10831,"Ġnáº¥c":10832,"ThÃŃ":10833,"CA":10834,"CáºŃp":10835,"For":10836,"ylon":10837,"ÑĪ":10838,"ĠDur":10839,"ChÃºa":10840,"Ġdom":10841,"ĠNGHIá»ĨP":10842,"ĠNgáº¡n":10843,"uynh":10844,"ĠLA":10845,":\"":10846,"Ġthit":10847,"ĠThÃ´n":10848,"ĠAmerican":10849,"ĠHCV":10850,"320":10851,"On":10852,"ĠGiáº£n":10853,"ĠHá»ĺI":10854,"Ġbut":10855,"Ġchien":10856,"Ġspam":10857,"GI":10858,"ĠDá»°":10859,"ĠBá»Ŀ":10860,"ĠBÃºt":10861,"ĠTÃ³m":10862,"dung":10863,"Ġbuá»ĵm":10864,"ĠJam":10865,"Ha":10866,"Ġreg":10867,"ĠSerie":10868,"TrÃł":10869,"Ġèĭ¥nhÆ°á»£c":10870,"ĠNÃ´m":10871,"Ġ1972":10872,"ViÃªn":10873,"ĠéģĵÄĳáº¡o":10874,"ĠCollege":10875,"hÃłnh":10876,"ĠTaxi":10877,"ĠBlo":10878,"Ġháº¥t":10879,"ĠSáº§m":10880,"BP":10881,"Am":10882,"Ġcover":10883,"ĠLá»ĵng":10884,"ĠcÃ¢m":10885,"125":10886,"biá»ĩt":10887,"\\\"":10888,"Ġtiáº¿u":10889,"Gb":10890,"ĠMail":10891,"Ġlive":10892,"ask":10893,"ĠMiÃªn":10894,"Ġdt":10895,"LO":10896,"ĠDuáº©n":10897,"stal":10898,"Ùħ":10899,"Ð¾Ð´":10900,"onic":10901,"ngoáº¡i":10902,"Ngoáº¡i":10903,"apphire":10904,"å¿":10905,"ĠmÆ°á»Ľp":10906,"ĠvÃºt":10907,"acera":10908,"bert":10909,"ĠDen":10910,"TrÆ°á»Łng":10911,"Ġbá»ĭnh":10912,"Ġvon":10913,"ĠUtd":10914,"ĠhÃ©o":10915,"Ġsalon":10916,"Mar":10917,"âĨ":10918,"Tá»Ŀ":10919,"ecirc":10920,"ĠSáº¯p":10921,"ĠbÃ¹a":10922,"chiáº¿m":10923,"ĠdÃ¹m":10924,"Ġmuá»ĳng":10925,"ĠRai":10926,"ingfa":10927,"ÐµÐ»":10928,"sky":10929,"Ġç©":10930,"ĠNO":10931,"Ġtitan":10932,"ĠVios":10933,"Xu":10934,"ĠBrid":10935,"Ġcatalogue":10936,"ÆĴ":10937,"ĠDam":10938,"ĠDaniel":10939,"ÄĲá»©ng":10940,"ĠShe":10941,"Ġauto":10942,"Æ¯á»¢NG":10943,"ĠyÃª":10944,"ĠCá»ĳng":10945,"HA":10946,"ĠÄĲáº¦U":10947,"Ġ1985":10948,"ĠVIN":10949,"Ġvá»«ng":10950,"Ġupload":10951,"core":10952,"ThÆ°á»£ng":10953,"ĠThoa":10954,"ĠChá»Ĺ":10955,"very":10956,"evelop":10957,"ĠICO":10958,"ÃĶI":10959,"words":10960,"$-":10961,"ĠNobel":10962,"Cá»Ļng":10963,"ĠmáºŃu":10964,"ites":10965,"ĠCent":10966,"ĠQual":10967,"Sa":10968,"Ġchocolate":10969,"mAh":10970,"ĠGer":10971,"CE":10972,"Ġsá»Łi":10973,"omo":10974,"GV":10975,"Ġrock":10976,"chuyá»ĩn":10977,"nÃ³ng":10978,"çī":10979,"orning":10980,"Äĳá»Ļc":10981,"ĠTrÃ¡ch":10982,"imex":10983,"ĠmÃºc":10984,"asp":10985,"thá»ĥ":10986,"xá»©":10987,"ĠnhÃŃch":10988,"ĠÄĲK":10989,"iá»ĥng":10990,"ĠTá»Ļc":10991,"Ġkáº»o":10992,"ĠConan":10993,"ĠçŃ":10994,"ĠTHÃģ":10995,"khÃ³a":10996,"ĠMI":10997,"ffic":10998,"Ġå±±":10999,"ĠThá»īnh":11000,"ĠLuxury":11001,"Ġlá»µ":11002,"ná»¯":11003,"?\".":11004,"cáº§n":11005,"ĠNTM":11006,"ÃĨ":11007,"ĠTrÃ¡c":11008,"ĠBÆ¡m":11009,"ĠLÆ°á»£t":11010,"ĠTrao":11011,"dd":11012,"áºª":11013,"há»Ļi":11014,"ĠÄĲá»ĴNG":11015,"ĠÄĳÃ´la":11016,"Ġphá»Ļng":11017,"egas":11018,"tÆ°á»Ľng":11019,"ĠBá»ķn":11020,"VTC":11021,"750":11022,"igo":11023,"ĠHous":11024,"ĠOmega":11025,"Ġgáº£":11026,"ĠJord":11027,"ĠchuÃ¢":11028,"SÃ¡ch":11029,"Mai":11030,"Ġgiáº±ng":11031,"ights":11032,"Ġæ³ķphÃ¡p":11033,"ĠmÆ°á»Ľn":11034,"ĠngÃ¹i":11035,"Ġtext":11036,"Uá»ĳng":11037,"Chá»©c":11038,"ĠTRUNG":11039,"aru":11040,"ved":11041,"Ġáº¨m":11042,"Ġvá»¥t":11043,"UT":11044,"ÄĲáº¹p":11045,"chuyÃªn":11046,"RC":11047,"Ġ1950":11048,"Ġcook":11049,"Ġthá»ī":11050,"ĠLien":11051,"ĠCF":11052,"ĠCX":11053,"ä½":11054,"ĠTÃºc":11055,"Ġ104":11056,"Ġwhi":11057,"ĠStud":11058,"oman":11059,"aus":11060,"align":11061,"ĠDar":11062,"ĠVladimir":11063,"Ġmáº¡t":11064,"bia":11065,"ĠAgribank":11066,"uner":11067,"ĠVá»¤":11068,"ĠDá»ĭ":11069,"ĠCáº¥m":11070,"ĠHon":11071,"ĠãĢ":11072,"ĠTÃĤM":11073,"viÃªn":11074,"Ñİ":11075,"VietQ":11076,"cáº£m":11077,"ĠnghÃ©n":11078,"VI":11079,"ĠPalm":11080,"Ġton":11081,"spot":11082,"Ġ(+":11083,"ĠnhoÃ¡ng":11084,"ĠNghiá»ĩm":11085,"ĠImplant":11086,"Ġbluetooth":11087,"ĠÃī":11088,"Ġná»±c":11089,"ĠLotte":11090,"UYá»ĤN":11091,"ĠNLÄĲ":11092,"Ġbr":11093,"hoÃłn":11094,"Ġnokia":11095,"ATA":11096,"Ġbá»ģnh":11097,"ĠÄĲiÃª":11098,"Cuá»ĳn":11099,"Ġéº":11100,"sy":11101,"Ġzalo":11102,"ĠOscar":11103,"ĠAug":11104,"Ġname":11105,"ĠRedmi":11106,"Ġchá»ĵn":11107,"ĠngÃ³t":11108,"ÃĻNG":11109,"mund":11110,"ĠNag":11111,"ĠngÆ°á»£ng":11112,"Ninh":11113,"eld":11114,"\":\"":11115,"ĠHTML":11116,"Iá»ĢU":11117,"Ġhá»Ļc":11118,"ĠVillage":11119,"ĠVista":11120,"'t":11121,"ĠCá»ĳt":11122,"ĠGiÃł":11123,"aina":11124,"zuela":11125,"LED":11126,"cáº£":11127,"ĠHungary":11128,"ĠBá»ĵn":11129,"ĠRay":11130,"áº¢NG":11131,"aux":11132,"Ġ0902":11133,"báº¯t":11134,"ait":11135,"khai":11136,"ĠVÆ°á»£t":11137,"ĠPiano":11138,"Ġ//":11139,"kháº£":11140,"ĠEv":11141,"ois":11142,"Ġamp":11143,"EIC":11144,"Ġthue":11145,"Ġ107":11146,"ĠdÃ£n":11147,"ĠnháºŃm":11148,"ĠFestival":11149,"rc":11150,"ĠÄĳá»įa":11151,"trÃ¡i":11152,"ĠÄĲá»Ļt":11153,"ĠXP":11154,"Ġnhá»įt":11155,"Láº¯p":11156,"ĠCharles":11157,"ĠHÆ°":11158,"µ·":11159,"ĠThuáº§n":11160,"ĠQatar":11161,"Ġbá»ĭch":11162,"ĠLumia":11163,"ulf":11164,"SÆ°":11165,"Ga":11166,"Ġnom":11167,"ĠdÄĥm":11168,"Ġ280":11169,"zone":11170,"pm":11171,"Táº¿t":11172,"chuyá»ĥn":11173,"ĠSteve":11174,"åį":11175,"tháºŃt":11176,"ĠÄĲá»¨C":11177,"ĠMek":11178,"ChÃłng":11179,"ĠPhiáº¿u":11180,"Æ¯á»ľI":11181,"ĠWilliam":11182,"Ġngá»£p":11183,"Ġdiá»ħu":11184,"ĠngÆ°á»Ľc":11185,"igr":11186,"ĠACB":11187,"Ð¸ÑĤ":11188,"?âĢĿ,":11189,"Hot":11190,"TháºŃm":11191,"Ġjava":11192,"ĠgiÃª":11193,"GH":11194,"duct":11195,"§t":11196,"Ġtuáº¥n":11197,"ĠHanoi":11198,"Ġsing":11199,"Ġáº¨n":11200,"ĠtrÃ´":11201,"Ġ::":11202,"nik":11203,"Ġversion":11204,"Ġmanga":11205,"ĠkhoÃ©t":11206,"lÃªn":11207,"ĠVS":11208,"Ġáº¿":11209,"ĠbÃ¡ng":11210,"cá»Ńa":11211,"iti":11212,"NLÄĲ":11213,"ĠATGT":11214,"á»¦y":11215,"Ġ106":11216,"ĠNuÃ´i":11217,"ÃĤU":11218,"DÃ¢y":11219,"Ġlich":11220,"biáº¿n":11221,"idth":11222,"Bá»©c":11223,"Ġwork":11224,"ĠKá»ĩ":11225,"Ġláº¡t":11226,"ĠRoll":11227,"***":11228,"Ġè«¸":11229,"Ġphá»ī":11230,"Ġtopic":11231,"won":11232,"âĢľ.":11233,"ĠON":11234,"ĠMix":11235,"cáºŃu":11236,"fect":11237,"ĠXSMB":11238,"Ġdáº³ng":11239,"á»±ng":11240,"uct":11241,"ĠHold":11242,"Ġä¸ĭ":11243,"ĠPrin":11244,"var":11245,"dar":11246,"ĠExpl":11247,"Ġdá»ĳt":11248,"Ġ260":11249,"ĠNhÃ¢":11250,"Ġradio":11251,"ĠTMÄĲT":11252,"1717":11253,"ĠBut":11254,"Ġxáº©y":11255,"ĠMINH":11256,"ĠLÅ©":11257,"ĠPHáº¦N":11258,"ĥ§":11259,"itz":11260,"ĠFerr":11261,"ĠAth":11262,"ÄĲá»ĭnh":11263,"Ġè«¸chÆ°":11264,"Ġorgan":11265,"ÄĲoáº¡n":11266,"Ġluá»ĳng":11267,"Ġváº¿":11268,"Biá»ĩt":11269,"ĠvÃ£i":11270,"LÆ°á»£t":11271,"ustr":11272,"Ġlá»ĳt":11273,"ĠLÃĢM":11274,"lÃ½":11275,"Ġposter":11276,"Ġrá»§a":11277,"ĠGood":11278,"ĠLá»Ńa":11279,"cuá»Ļc":11280,"ĠVT":11281,"ĠPor":11282,"vers":11283,"ĠAirways":11284,"ĠNá»Ĺi":11285,"Express":11286,"ĠFood":11287,"Ġngáº£i":11288,"LuÃ´n":11289,"à®":11290,"ĠTCT":11291,"ĠNC":11292,"ĠCab":11293,"ĠÃĢ":11294,"Ġrá»£n":11295,"MV":11296,"artment":11297,"ĠMass":11298,"ĠBÃģO":11299,"ĠXÆ°a":11300,"åŃ":11301,"Ġá»£":11302,"ĠXÃºc":11303,"ĠNorth":11304,"ĠKÃª":11305,"Ġpop":11306,"Ġsy":11307,"ĠÄĲBSCL":11308,"sus":11309,"ĠTÃª":11310,"ĠDev":11311,"Ġtá»ĳp":11312,"ĠMelbourne":11313,"...âĢĿ":11314,"Hiá»ĩu":11315,"ĠBá»ĵi":11316,"ĠCháº¿t":11317,"Ġ113":11318,"ĠDang":11319,"ĠTÃ´m":11320,"ĠThuá»Ļc":11321,"Ġserum":11322,"Ġkháº¥n":11323,"ĠXÃŃ":11324,"bu":11325,"ĠHum":11326,"ngÃ´n":11327,"ĠMá»Ĺ":11328,"ĠTA":11329,"quáº£":11330,"akh":11331,"bat":11332,"ıváº¥n":11333,"Ġten":11334,"ĠBá»¯a":11335,"ĠMÃ¡u":11336,"ĠNgÃµ":11337,"ĠBall":11338,"Iá»ĤM":11339,"ĠnhÃµm":11340,"Ġgá»Ŀ":11341,"fs":11342,"ĠTru":11343,"Ġâĺ":11344,"ĠgÆ°á»£ng":11345,"ĠEp":11346,"ĠChá»©":11347,"ĠGemek":11348,"ĠkÃ¬a":11349,"ĠDá»¯":11350,"Øª":11351,"Ġrá»ĵ":11352,"ĠxÃ³c":11353,"Ġáº£i":11354,"ĠTÃį":11355,"ĠVL":11356,"stan":11357,"Ġláº¡ng":11358,"oda":11359,"ĠâĢº":11360,"áº¤n":11361,"Plus":11362,"Ġplugin":11363,"Ġscan":11364,"UYá»ĦN":11365,"ĠNaruto":11366,"Ġlist":11367,"ĠOx":11368,"Ġsearch":11369,"als":11370,"ÃĢO":11371,"Ġcos":11372,"RÃµ":11373,"ĠMot":11374,"tail":11375,"ĠWTO":11376,"ais":11377,"ĠBá»Ļi":11378,"á»¢":11379,"Benz":11380,"ĠFrancisco":11381,"ĠKrÃ´ng":11382,"ĠNÃ©":11383,"ĠlÃ¹a":11384,"ĠLas":11385,"ĠEmp":11386,"Ġå±±sÆ¡n":11387,"TÃºi":11388,"ĠPHÃį":11389,"ĠhÃŃ":11390,"ĠTÃŃ":11391,"idas":11392,"ĠÐ¼":11393,"ĠAlibaba":11394,"ĠCrist":11395,"ĠphÃł":11396,"ĠXE":11397,"ĠSPF":11398,"âĢĿ)":11399,"ĠÄĳiá»ĥu":11400,"Download":11401,"º«":11402,"Äĳá»Ļng":11403,"Ġsoda":11404,"edy":11405,"ĠCÆ¡n":11406,"ents":11407,"990":11408,"ĠLock":11409,"ĠChic":11410,"tá»ķng":11411,"Ġgroup":11412,"ĠHyun":11413,"ĠNK":11414,"ĠchÃ³p":11415,"Ġdesign":11416,"cong":11417,"Ġmiá»ĩn":11418,"Ġnham":11419,"ĠDI":11420,"Ġä¸ĭháº¡":11421,"ĻĤthá»Ŀi":11422,"ĠlÃ³e":11423,"igue":11424,"ĠKat":11425,"Ġcáº±n":11426,"å°":11427,"ĠChile":11428,"laz":11429,"ÄĳÃ¢y":11430,"Ġdoi":11431,"unction":11432,"code":11433,"ĠHá»Ľi":11434,"ĠAnton":11435,"ĠTrá»«":11436,"Ġdoáº¡":11437,"Ġåħ¶":11438,"ĠÐ¿ÑĢ":11439,"ÙĬ":11440,"Ġhigh":11441,"ĠEV":11442,"ĠIM":11443,"ĠHoang":11444,"Ġcomposite":11445,"ograph":11446,"Vá»ĳn":11447,"hat":11448,"Samsung":11449,"Ġbá»ĭa":11450,"ĠTiá»ĩp":11451,"ĠPHáº¨M":11452,"ĠDy":11453,"ĠDep":11454,"Ġ380":11455,"Ġç«":11456,"ĠTelecom":11457,"Ġcá»ĳm":11458,"ĠBac":11459,"Ġ9001":11460,"SK":11461,"Ġcarb":11462,"ĠVenezuela":11463,"Ġbuild":11464,"LÃ£o":11465,"ĠRemix":11466,"ĠcÃłn":11467,"ãģĹ":11468,"lÆ°u":11469,"NgÆ°á»£c":11470,"Ġgáº¯p":11471,"fford":11472,"ĠAK":11473,"Ġjack":11474,"Ġtom":11475,"ná»Ļi":11476,"ĠCoffee":11477,"Ġåº":11478,"Ġsáº¥m":11479,"ible":11480,"ĠAdmin":11481,"hr":11482,"ĠæĦ":11483,"anol":11484,"Ġ256":11485,"ĠchÃ³c":11486,"mang":11487,"Ġrá»Ĺ":11488,"ĠthÃ¬nh":11489,"ĠBob":11490,"display":11491,"máº·t":11492,"Ġbro":11493,"oro":11494,"vv":11495,"Ġquáº·ng":11496,"ĠCáº¡nh":11497,"Ġè¡Įh":11498,"thÃ¹ng":11499,"ªthuyáº¿t":11500,"ĠNight":11501,"ĠSoo":11502,"nhiÃªn":11503,"Ġcá»ĳp":11504,"Ġ4000":11505,"Ġpc":11506,"ĠCÃº":11507,"Ġtá»ģ":11508,"ĠTrade":11509,"ĠInnova":11510,"Ġháº±n":11511,"Ġèªªthuyáº¿t":11512,"Ġgiá»Ł":11513,"ĠNáº¡n":11514,"ĠHalloween":11515,"Ġtáº§u":11516,"ĠPVN":11517,"å¤§":11518,"olo":11519,"Ġanime":11520,"Ġselfie":11521,"Ġthá»¥t":11522,"ĠMoh":11523,"ĠHoáº±ng":11524,"Ġåħ¶ká»³":11525,"ĠTrá»Ļn":11526,"ĠÃŃ":11527,"liÃªn":11528,"ĠchÃ¹ng":11529,"âĦ¢":11530,"ĠDá»¤NG":11531,"Vui":11532,"?)":11533,"ĠLion":11534,"cd":11535,"ĠLine":11536,"ĠPalest":11537,"Ġvá»ĩt":11538,"ĠThuyá»ģn":11539,"Ġvoucher":11540,"001":11541,"ASA":11542,"ville":11543,"tÃłi":11544,"ĠKQXS":11545,"+,":11546,"ĠtÃ©p":11547,"Ġnáº»":11548,"ĠVII":11549,"elen":11550,"HÆ°Æ¡ng":11551,"ĠJim":11552,"Â©":11553,"Be":11554,"Ġshi":11555,"real":11556,">>>":11557,"ĠSilicon":11558,":-":11559,"Ã±":11560,"ĠSI":11561,"ĠCAND":11562,"mu":11563,"ĠADN":11564,"ĠkhÃ¢m":11565,"Ġquoc":11566,"ĠTOEIC":11567,"ĠKaz":11568,"ĠTráº¡ng":11569,"ĠPhotoshop":11570,"Tháº©m":11571,"Thá»ĳng":11572,"ĠVietnamobile":11573,"max":11574,"ĠVatican":11575,"ĠGun":11576,"onin":11577,"å¼":11578,"ÄĲáº£ng":11579,"ĠCloud":11580,"ĠHoÃłnh":11581,"TrÆ°Æ¡ng":11582,"ĠhÃ¬":11583,"ĠVCK":11584,"ĠTDTT":11585,"Ĩlai":11586,"ĠéĿŀ":11587,"Ġbanner":11588,"thÆ°Æ¡ng":11589,"ĠBáº¢O":11590,"Ġåķıváº¥n":11591,"ĠType":11592,"á»Ī":11593,"Ġ094":11594,"ĠOsaka":11595,"astic":11596,"khá»Łi":11597,"Ġabout":11598,"Ġ024":11599,"ĠNÄĤM":11600,"trá»¥":11601,"Ġmao":11602,"Ġä¾Ĩlai":11603,"Ġå¤©å¤©":11604,"doanh":11605,"esta":11606,"âĢ¦âĢ¦âĢ¦âĢ¦âĢ¦âĢ¦âĢ¦âĢ¦âĢ¦âĢ¦âĢ¦âĢ¦âĢ¦âĢ¦âĢ¦âĢ¦":11607,"Lá»±c":11608,"ogba":11609,"Ġhun":11610,"Ġè¬":11611,"................................................................":11612,"ĠVis":11613,"ĠrÃ¬nh":11614,"Thá»ĭt":11615,"ĠÄĲá»ķ":11616,"ÃĪ":11617,"HáºŃu":11618,"Ġ109":11619,"ular":11620,"XÃ¡c":11621,"ĠÂ½":11622,"ĠGáº¡ch":11623,"GiÃºp":11624,"Ġsec":11625,"ĠHÄĲXX":11626,"ĠéĤ":11627,"izen":11628,"ĠkhÃ¢":11629,"Google":11630,"card":11631,"VÅ©ng":11632,"Win":11633,"ĠÄĳÃŃt":11634,"AIDS":11635,"ĠQuá»³":11636,"ĠcÃºt":11637,"!.":11638,"ĠlÃºt":11639,"ĠExc":11640,"acy":11641,"ĠåĲį":11642,"ĠCK":11643,"Ð½Ð¾":11644,"Chuáº©n":11645,"Ø¯":11646,"mÃ£":11647,"ĠPap":11648,"Ġxuá»ĵng":11649,"ĠLinux":11650,"ydr":11651,"Ġxy":11652,"zen":11653,":âĢĿ":11654,"Liá»ĩu":11655,"ĠNhiá»ħm":11656,"Ġmodule":11657,"ĠHÃºt":11658,"ĠMatt":11659,"ĠPHP":11660,"lov":11661,"ĠMá»ĭ":11662,"chia":11663,"ror":11664,"Ġsá»Ńng":11665,"alem":11666,"ĠChá»Ŀ":11667,"ĠCamry":11668,"ĠåŃĲ":11669,"ĠCáº¤P":11670,"ĠVá»Ģ":11671,"cáº§u":11672,"ĠGui":11673,"ÄĲÃło":11674,"Ġcá»įng":11675,"Tiáº¿t":11676,"tá»·":11677,"Ġæ±":11678,"ĠDuá»ĩ":11679,"ĠBÃĮNH":11680,"omen":11681,"ĠSab":11682,"eda":11683,"Ġtoi":11684,"Ġ---":11685,"Tho":11686,"Khuyáº¿n":11687,"ĠÄĳiáº¿c":11688,"ĠRun":11689,"cus":11690,"gian":11691,"sá»Ń":11692,"ĠMO":11693,"encia":11694,"ĠVietlott":11695,"ĠODA":11696,"ĠïĢ©":11697,"Ġdua":11698,"ĠéĿŀphi":11699,"Ġæĭ":11700,"ĠKa":11701,"QU":11702,"eless":11703,"\"),":11704,"váºŃt":11705,"tÃ´ng":11706,"Ġtrá»įc":11707,"BYT":11708,"ĠFanpage":11709,"ĠÑĢ":11710,"ĠHil":11711,"ÄĳÆ¡n":11712,"ĠEst":11713,"Háº¡t":11714,"ĠVR":11715,"zi":11716,"AE":11717,"ĠæĻĤthá»Ŀi":11718,"ereum":11719,"ĠQÄĲ":11720,"ĠCoin":11721,"forum":11722,"eva":11723,"PR":11724,"ĠJordan":11725,"ĠNhat":11726,"ĠhÄĥm":11727,"Lo":11728,"ĠWork":11729,"loc":11730,"ĠcÄĥ":11731,"226":11732,"ĠXÃł":11733,"Pre":11734,"ĠTpHCM":11735,"ĠTÄĲ":11736,"SL":11737,"Sing":11738,"ĠTá»Ľ":11739,"âĢĿ?":11740,"Ġval":11741,"ĠniÃª":11742,"ĠBÃ²":11743,"Ġram":11744,"Fast":11745,"ides":11746,"ktop":11747,"ĠHDD":11748,"Ġpan":11749,"NgÃłi":11750,"ĠWay":11751,"ÃĥÆĴ":11752,"ĠéĻ":11753,"ĠBXH":11754,"ĠKaw":11755,"TuyÃªn":11756,"ĠVIII":11757,"ÌĽ":11758,"Nháº¥t":11759,"ĠrÃ´n":11760,"ĠBiá»ĩn":11761,"ĠKhiáº¿t":11762,"Ġipad":11763,"uguay":11764,"á»ĩch":11765,"OX":11766,"ĠOrgan":11767,"Tay":11768,"ĠsiÃªng":11769,"Ġxuyáº¿n":11770,"QuÃ¡n":11771,"Ġkhuá»·":11772,"GHz":11773,"ĠHarvard":11774,"ĠquáºŃy":11775,"iron":11776,"ĠhÄĥ":11777,"Ġnhá»¡":11778,"Äĳá»ĵ":11779,"VÃ¢ng":11780,"ĠSacombank":11781,"ÃĶN":11782,"ÃĢNG":11783,"TÃ´n":11784,"ĠXD":11785,"\"]":11786,"ĠSto":11787,"ĠKÃ¬":11788,"Ġtháº¡nh":11789,"Ġbuffet":11790,"ĠrÆ°á»Ŀm":11791,"Ġdáº«m":11792,"tiÃªu":11793,"ĠÄĳÃºp":11794,"Ġcháº¥u":11795,"ĠPhÃºt":11796,"lazada":11797,"ÄĲÃłi":11798,"Ġbacklink":11799,"cola":11800,"yu":11801,"ĠMáº¡t":11802,"orsche":11803,"lie":11804,"vui":11805,"CÃĶNG":11806,"Ġbat":11807,"nan":11808,"cua":11809,"ĠåĲįdanh":11810,"sin":11811,"ĠShowroom":11812,"ĠHino":11813,"ces":11814,"rad":11815,"Ġpen":11816,"ĠTáº¯c":11817,"ĠCasino":11818,"ĠContinue":11819,"Ġhas":11820,"ĠTNCS":11821,"ĠPháº«u":11822,"Ġtháº«m":11823,"Ġlogistics":11824,"ĠHenry":11825,"288":11826,"Ġ0917":11827,"Ġ247":11828,"ĠValentine":11829,"Ġass":11830,"outer":11831,"ĠráºŃn":11832,"ĠKai":11833,"tháº¥t":11834,"ĠMekong":11835,"Ġ118":11836,"Ġcuáº£":11837,"ĠSHB":11838,"ĠVes":11839,"Ġ1974":11840,"FL":11841,"Ġá»ĳi":11842,"ĠThÆ¡m":11843,"Ġdiá»ħm":11844,"ĠbÆ°Æ¡":11845,"Ġskin":11846,"ĠSquare":11847,"gg":11848,"Ġnhac":11849,"Ġphá»Ľt":11850,"pper":11851,"My":11852,"ĠGiÃ¢y":11853,"há»ĩ":11854,"ĠCÆ¡m":11855,"ĠThá»Ŀ":11856,"BNN":11857,"ĠXÃŃch":11858,"bÃ¡o":11859,"Ġganh":11860,"ENT":11861,"Ġ136":11862,"ĠHinh":11863,"gov":11864,"ĠLHQ":11865,"á»ĲNG":11866,"Ð°ÑĢ":11867,"Ġnhá»£t":11868,"Ġboy":11869,"ĠEs":11870,"ĠåĬ":11871,"vious":11872,"ĠÄĲÆ°":11873,"nc":11874,"New":11875,"ĠScot":11876,"Ġthread":11877,"Ġâī":11878,"ĠPot":11879,"ĠNhÆ°á»£ng":11880,"atic":11881,"bus":11882,"orer":11883,"nhiá»ģu":11884,"ĠCall":11885,"ĠEpson":11886,"vu":11887,"Ġèı":11888,"Ġsin":11889,"ĠBá»ĺ":11890,"ĠCosta":11891,"¿t":11892,"Ġhá»Ń":11893,"Láº¡y":11894,"Soi":11895,"ĠMike":11896,"Äĳáº³ng":11897,"ounce":11898,"550":11899,"Ġoanh":11900,"ĠÄĲáº©y":11901,"ĠGá»ĵm":11902,"máº¹":11903,"Ġbac":11904,"vÃło":11905,"ĠPK":11906,"ĠrÃ¡ng":11907,"ĠOxy":11908,"Ġngá»¥m":11909,"650":11910,"size":11911,"ĠCIA":11912,"img":11913,"umber":11914,"ĠSpec":11915,"ĠLá»įc":11916,"bridge":11917,"Ġ???":11918,"Bá»ĳn":11919,"uble":11920,"ĠGHz":11921,"='":11922,"kbps":11923,"Ġváº¹o":11924,"Ġair":11925,"PI":11926,"ĠVKSND":11927,"ĠmÃ´t":11928,"ĠHá»Ĵ":11929,"ĠDiÃªm":11930,"kÃ½":11931,"ei":11932,"ĠTRONG":11933,"Ġ1984":11934,"ĠSin":11935,"ugh":11936,"ĠJer":11937,"Khá»Łi":11938,"hÆ¡n":11939,"ĠPalestine":11940,"ĠEdition":11941,"Ġ??":11942,"ĠvÃ©n":11943,"ĠgiÄĥng":11944,"ĠNovaland":11945,"Ġná»¡":11946,"ĠKhuÃ´n":11947,"Äĳoáº¡n":11948,"ĠNHÃĤN":11949,"ĠLtd":11950,"trÃŃ":11951,"\"...":11952,"writ":11953,"Ġlá»ıi":11954,"Ġuáº¿":11955,"Ġrá»Ļp":11956,"kham":11957,"ĠGÃ£":11958,"ĠTCVN":11959,"FO":11960,"Ġgout":11961,"ĠNháº¥n":11962,"áº¸P":11963,"ĠÑĤ":11964,"ĠDáº«u":11965,"ĠXo":11966,"BGDÄĲT":11967,"Mo":11968,"ĠgiÃ¹m":11969,"osterone":11970,"ĥ§TÄĥng":11971,"ĠRose":11972,"BB":11973,"ĠPogba":11974,"alin":11975,"áºłNH":11976,"tour":11977,"ĠPoint":11978,"Ġwindows":11979,"ĠGiÃłu":11980,"Ġkhuá»·u":11981,"Ġliu":11982,"ĠCare":11983,"Ġæ·":11984,"ĠNhiáº¿p":11985,"Ġráº§u":11986,"Ġdáº¥m":11987,"ĠBh":11988,"Ġrec":11989,"ski":11990,"VÃłi":11991,"ĠTrá»¯":11992,"ĠMÃ¢n":11993,"Ġhandmade":11994,"Biá»ĥu":11995,"Ġ,...":11996,"TNMT":11997,"ĠFlorida":11998,"ĠShare":11999,"ĠChip":12000,"cáºŃp":12001,"ĠBA":12002,"tan":12003,"ĠHor":12004,"ĠThS":12005,"ĠKhÃ¡i":12006,"ĠNinja":12007,"Car":12008,"ĠÃ°":12009,"Ġláº³ng":12010,"ĠQuÃŃ":12011,"ĠLiá»ģn":12012,"ĠArabia":12013,"Ġ1976":12014,"ĠThung":12015,"Ġenzyme":12016,"Ġåł":12017,"ĠCode":12018,"wi":12019,"Ġvirut":12020,"Iá»ĨT":12021,"XuÃ¢n":12022,"Ġtuc":12023,"ĠkhÃ©t":12024,"andy":12025,"ĠFox":12026,"Ġ175":12027,"Ġ1973":12028,"ĠåŃĲtá»Ń":12029,"ĠÄĲÃ¡n":12030,"Ġamidan":12031,"Ġtuoi":12032,"ĠPHÃļ":12033,"ĠGÆ°Æ¡m":12034,"230":12035,"cy":12036,"Ġåĭ":12037,"ĠGiáº¥c":12038,"Ġder":12039,"Vua":12040,"iat":12041,"Ġmil":12042,"ĠSáº¯t":12043,"ĠCá»Ļt":12044,"ĠLÆ°á»Ľi":12045,"TrÃ¬nh":12046,"nghe":12047,"á»ģu":12048,"ĠAcer":12049,"Ġtrá»«u":12050,"icester":12051,"ĠAtl":12052,"âĸº":12053,"ĠgiÃ´ng":12054,"Iáº¾N":12055,"Tháº£o":12056,"ely":12057,"estern":12058,"ĠAcid":12059,"ĠVinac":12060,"Ġ088":12061,"ĠGio":12062,"Ġtablet":12063,"ĠSlim":12064,"ĠTrá»ĵng":12065,"Ġbá»ĭp":12066,"ĠBloom":12067,"Ġéº¼":12068,"rylic":12069,"Ġåīĩ":12070,"Ġnong":12071,"ĠTHI":12072,"agement":12073,"Ġhop":12074,"ĠBoy":12075,"Vinh":12076,"Ġtuyá»ģn":12077,"Ġfilm":12078,"ĠVar":12079,"ential":12080,"Ġéº¼ma":12081,"má»Ł":12082,"text":12083,"Ġáº£m":12084,"Ġ(-":12085,"Ġcháº»":12086,"ĠNike":12087,"asma":12088,"Ġ1983":12089,"ĠnÃŃt":12090,"*)":12091,"ĠngÃºt":12092,"LÃ¡":12093,"Ġvá»ın":12094,"Ġbá»Ŀi":12095,"FT":12096,"ĠBuff":12097,"ĠMacBook":12098,"Ġcombo":12099,"ĠManager":12100,"Lá»¥c":12101,"Ġbá»¥c":12102,"Ġåīĩtáº¯c":12103,"ortmund":12104,"Ġlem":12105,"ĠUruguay":12106,"Æ¯á»¢C":12107,"ĠSecret":12108,"ĠMario":12109,"ĠFortuner":12110,"ĠchÆ¡n":12111,"Nhá»Ľ":12112,"Ġchau":12113,"ĠvÃŃu":12114,"ĠLeo":12115,"ĠLev":12116,"rent":12117,"ĠçĽ¸tÆ°Æ¡ng":12118,"ĠKÃ©o":12119,"ifer":12120,"Ġ028":12121,"Ġchá»Ļi":12122,"ĠVirgin":12123,"Ġgao":12124,"Ġåĩº":12125,"ĠÄĲá»ķng":12126,"ĠXáº¿p":12127,"ĠJohnson":12128,"ç½":12129,"ĠThá»£":12130,"BN":12131,"TÃłu":12132,"Ġshophouse":12133,"bach":12134,"Ġgoi":12135,"ĠNgá»§":12136,"dia":12137,"ĠPrime":12138,"Ġpháº£ng":12139,"ĠIX":12140,"Tour":12141,"ĠDal":12142,"fi":12143,"Ġnháº¿ch":12144,"Dung":12145,"Ġcp":12146,"ardo":12147,"ĠNgÄĥn":12148,"ĠCNN":12149,"VÃ¢n":12150,"Ġè¡ĮhÃłnh":12151,"nhanh":12152,"ĠPom":12153,"ĠJour":12154,"Ġmelanin":12155,"Ġaudio":12156,"210":12157,"Ġèĥ½":12158,"ĠÆ¯Æ¡ng":12159,"iPhone":12160,"Ġjav":12161,"Ġlá»ĭ":12162,"Ġquáº»":12163,"Ġcall":12164,"Ġtrá»Ĺi":12165,"Ġcáº¡p":12166,"Ġchoi":12167,"ĠMáº¹o":12168,"Ġå½":12169,"Ġç¦":12170,"nu":12171,"Ġcent":12172,"rt":12173,"ĠNeo":12174,"ĠBI":12175,"Ġtron":12176,"ĠgÆ°Æ¡m":12177,"Ġä»Ĭ":12178,"365":12179,"ĠhÃ²ng":12180,"Ġhome":12181,"ĠTags":12182,"ĠvÃ¯":12183,"Ġthau":12184,"ĠgÃ¹":12185,"Ġéļ":12186,"asaki":12187,"ĠNGUYá»ĦN":12188,"hoc":12189,"áº®C":12190,"âĢ¦),":12191,"ĠTÃ¡i":12192,"Ġvoan":12193,"Táº¥m":12194,"borg":12195,"Ġgá»ĵ":12196,"boy":12197,"Ġnatri":12198,"ĠHuyÃªn":12199,"Ġ155":12200,"HI":12201,"Ġag":12202,"Ġxá»ı":12203,"ĠNSÆ¯T":12204,"ĠtáºŃu":12205,"ĠPHÃģP":12206,"ĠThÃª":12207,"ĠAlbum":12208,"ĠEa":12209,"ĠthÃ³c":12210,"xanh":12211,"kel":12212,"ĠXL":12213,"ĠMaxmobile":12214,"ĠBÃ¹":12215,"ĠDiego":12216,"ĠInc":12217,"ĠquÃ¡ng":12218,"ĠÃĩ":12219,"Ġcuoi":12220,"Ġ1978":12221,"ngu":12222,"Ġyá»ĥm":12223,"ĠChá»ĭu":12224,"Ġcort":12225,"ĠHNX":12226,"blog":12227,"ears":12228,"ĠPent":12229,"Chuyáº¿n":12230,"ĠKangaroo":12231,"VÄ©nh":12232,"imer":12233,"Ġçľ¾":12234,"Ġmeg":12235,"unes":12236,"Ġbin":12237,"ĠChá»¥p":12238,"Ġèĥ½nÄĥng":12239,"met":12240,"oka":12241,"ĠChÆ¡n":12242,"ĠAngela":12243,"irus":12244,"Mod":12245,"Ġphp":12246,"iflex":12247,"ĠNháº«n":12248,"()":12249,"ĠThÃ¢m":12250,"ÄĳÃł":12251,"Ġåĩºxuáº¥t":12252,"Ġ114":12253,"ĠNick":12254,"ĠMarket":12255,"ivate":12256,"ÄĲK":12257,"name":12258,"OM":12259,"Ġåľ¨":12260,"ĠKn":12261,"Ġchá»ĵi":12262,"ĠkÃ¬nh":12263,"ĠNáº¯ng":12264,"Ġadd":12265,"ĠNgo":12266,"Ġçľ¾chÃºng":12267,"ĠTaylor":12268,"Ð³":12269,"Há»Ļp":12270,"1998":12271,"ĠnguÃ´":12272,"Ġmot":12273,"ĠNTK":12274,"abi":12275,"Ġif":12276,"Ġåĥ§TÄĥng":12277,"uala":12278,"ĠDaikin":12279,"Ð¾Ð³":12280,"::":12281,"Ġpas":12282,",....":12283,"ĠNgang":12284,"dÃ¹ng":12285,"oacute":12286,"ĠchÃ´ng":12287,"lacera":12288,"Ġngai":12289,"Ġsee":12290,"Å¨":12291,"ĠFit":12292,"Ġç¥":12293,"font":12294,"Ġtheme":12295,"ĠBet":12296,"è®":12297,"ĠMiáº¿n":12298,"Ġåľ°":12299,"TQ":12300,"ĠDia":12301,"Ġchá»Ńa":12302,"ilia":12303,"ĠhÃº":12304,"¡t":12305,"ĠSound":12306,"ĠLHPN":12307,"ĠSharp":12308,"ĠFDA":12309,"ĠTTTM":12310,"666":12311,"ĠrÃª":12312,"ird":12313,"div":12314,"Ġtrá»ĵ":12315,"ĠKá»µ":12316,"Ġphuc":12317,"Ġ=))":12318,"ĠTrafford":12319,"ĠÄĲá»ĬNH":12320,"Ġ999":12321,"å¸":12322,"ĠRio":12323,"ĠFly":12324,"ĠAwards":12325,"ĠRA":12326,"asu":12327,"ĠQC":12328,"Ã¥":12329,"ĠTá»Ķ":12330,"Ġ126":12331,"Ġjust":12332,"Ġæ¬":12333,"Class":12334,"ĠdÃŃ":12335,"ĠPG":12336,"ĠHÄĲT":12337,"Ġbáº·m":12338,"Cá»ķ":12339,"ĠÄĲem":12340,"ĠæĻ":12341,"ĠEngine":12342,"pham":12343,"ĠnÃŃn":12344,"ĠMÃ¢u":12345,"ĠÄĲáº¸P":12346,"zer":12347,"ĠlÃ¡o":12348,"ĠvnÄĳ":12349,"Ãµa":12350,"nÃ³":12351,"ĠrÆ°ng":12352,"ĠTÃ¡nh":12353,"Ġcháº§m":12354,"phat":12355,"máºŃt":12356,"ĠMUA":12357,"Ġfpt":12358,"Ġ0907":12359,"dÃ¹":12360,"MáºŃt":12361,"Ġlevel":12362,"Ġsocola":12363,"rem":12364,"áº«ng":12365,"ĠèĻķ":12366,"Ġload":12367,"Cap":12368,"Ð¸Ð½":12369,"Ġchá»«a":12370,"ï¼®":12371,"nÆ¡i":12372,"ä¸Ģ":12373,"kip":12374,"acirc":12375,"ĠAdobe":12376,"Łm":12377,"ole":12378,"ï¼®ï¼":12379,"ĠHÃ£n":12380,"ĠvÃ¡t":12381,"1992":12382,"Ġ0913":12383,"ĠEuropa":12384,"ĠchÆ°á»Ŀm":12385,"ĠVD":12386,"ĠUEFA":12387,"ĠÃĲáº¡o":12388,"ĠCÃłn":12389,"View":12390,"Ġduá»ĩ":12391,"ĠrÃ¨":12392,"ĠÄĳá»ģm":12393,"Ġç¶":12394,"Ġáº¯p":12395,"Ġnude":12396,"ĠGot":12397,"BÃ³ng":12398,"ĠNiger":12399,"ĠBlockchain":12400,"ĠTiÃª":12401,"========":12402,"Ġmiáº¿n":12403,"ĠNic":12404,"ChÃ¹a":12405,"Or":12406,"ĠCristiano":12407,"Ġé¡":12408,"ThÃ´i":12409,"ChÃ¡u":12410,"Phan":12411,"!\".":12412,"ĠCiv":12413,"Äĳang":12414,"mÃłu":12415,"Ġhere":12416,"ĠTOÃĢN":12417,"Ġ850":12418,"ĠCU":12419,"ĠAFP":12420,"bÃ¡t":12421,"Sai":12422,"Ġkiáº¿t":12423,"aking":12424,"Ġlock":12425,"Ġover":12426,"NC":12427,"KhÃ¡m":12428,"annel":12429,"CÃ¡m":12430,"ĠnhÃ¨":12431,"ĠNGÆ¯á»ľI":12432,"girl":12433,"dá»¥ng":12434,"TTH":12435,"Ġèº«":12436,"Nhiá»ĩm":12437,"ĠCÅ©":12438,"ĠANH":12439,"ĠtÃºm":12440,"ĠCre":12441,"ĠCour":12442,"ento":12443,"ĠHÃĢNH":12444,"ÄĲTBXH":12445,"ĠChicago":12446,"ĠPorsche":12447,"Ġ1963":12448,"giÃºp":12449,"nguyen":12450,"?,":12451,"bÃŃ":12452,"Náº¯m":12453,"Ġnhá»«":12454,"elli":12455,"lÃºc":12456,"onia":12457,"Ġ480":12458,"par":12459,"ĠvÆ°Æ¡":12460,"ĠNhÃ´m":12461,"SI":12462,"ĠÄĲá»ĭch":12463,"Ġoli":12464,"Äĳiá»ĩn":12465,"ĠKl":12466,"ĠTagged":12467,"Ġsale":12468,"ility":12469,"ĠRobot":12470,"æĹ¶":12471,"ĠAnn":12472,"Huáº¿":12473,"ãģ«":12474,"Ġá»Ńng":12475,"ĠDortmund":12476,"ĠÆłn":12477,"GÃ³i":12478,"ĠDol":12479,"sang":12480,"ĠBolero":12481,"ĠDat":12482,"ĠSea":12483,"ĠphÃ¬nh":12484,"ĠÃĲÃ´ng":12485,"ĠDáº¡ng":12486,"gn":12487,"LÃªn":12488,"Ġcáº³ng":12489,"ĠBáº¥y":12490,"ĠCá»ĵn":12491,"1999":12492,"Ġkiá»ĩu":12493,"ĠchÃły":12494,"Ġ270":12495,"content":12496,"ĠvÃŃa":12497,"Ġ1965":12498,"ombie":12499,"ĠDÃłn":12500,"show":12501,"aven":12502,"çİ":12503,"Ġæ³ķPhÃ¡p":12504,"ĠTáº©y":12505,"ĠÄĲai":12506,"ĠBuá»ĵn":12507,"vÃłng":12508,"ĠnhÃ³i":12509,"Ġsilic":12510,"igan":12511,"Quang":12512,"ãģ§":12513,"ĠBrown":12514,"AMA":12515,"chinh":12516,"ĠLAO":12517,"ĠLoÃłi":12518,"ĠLeicester":12519,"ĠCÆł":12520,"ĠTiger":12521,"ï¼®ï¼¡":12522,"EB":12523,"Ġ097":12524,"ĠGates":12525,"Ġgames":12526,"ĠWith":12527,"Ġhá»Ŀi":12528,"ngoÃłi":12529,"ĠViglacera":12530,"ĠBul":12531,"Ġæ°":12532,"ĠChan":12533,"Ġ117":12534,"ĠBody":12535,"ĠAcad":12536,"ĠchÃ²i":12537,"ĠGiu":12538,"Ġthem":12539,"Ġngáº§u":12540,"Pod":12541,"Ġoliu":12542,"alt":12543,"ĠMH":12544,"ĠMassage":12545,"105":12546,"ĠBarack":12547,"á»ĺT":12548,"ef":12549,"Ġniu":12550,"ĠWenger":12551,"Ġä½ľ":12552,"vat":12553,"ĠLÃŃ":12554,"SÃ¢n":12555,"ĠNP":12556,"ĠHÆ°á»Ŀng":12557,"ĠSecurity":12558,"ĠÄĳáº£nh":12559,"ĠAqu":12560,"Cr":12561,"Ġvol":12562,"Ġbá»īm":12563,"Ġä»Ĭkim":12564,"ĠLaw":12565,"VÃ¹ng":12566,"ĠHá»·":12567,"ĠKiáº¿p":12568,"ĠDNA":12569,"ences":12570,"ĠnhÃºt":12571,"ĠBTV":12572,"VáºŃt":12573,"ĠBá»Ĺng":12574,"ĠQualcomm":12575,"ĠVietsub":12576,"ĠÄĲá»£i":12577,"ĠKhÃ¢m":12578,"ĠBom":12579,"ĠTÃĢI":12580,"ĠCHI":12581,"ĠloÃ¡ng":12582,"ĠHTV":12583,"document":12584,"ĠNational":12585,"ĠKáº¾":12586,"ĠCháº£i":12587,"uka":12588,"Ġë":12589,"put":12590,"umpur":12591,"--------------------------------":12592,"Ġèº«thÃ¢n":12593,"ĠÄĲBQH":12594,"ĠIdol":12595,"Ġngá»į":12596,"Ġuric":12597,"æī":12598,"NLÄĲO":12599,"ĠèĻķxá»©":12600,"Ġkháº£m":12601,"Ġåľ¨táº¡i":12602,"âĢĿ(":12603,"Ġtuá»ĵng":12604,"eing":12605,"nháºŃn":12606,"Ġcháº§u":12607,"Ġtá»ĥ":12608,"arta":12609,"GiÃły":12610,"ĠKÃ¨m":12611,"ĠBÃłu":12612,"tic":12613,"ĠDá»ĬCH":12614,"ĠVoice":12615,"Tiá»ĩn":12616,"ization":12617,"áº¢M":12618,"job":12619,"Ġ1920":12620,"ĠSofa":12621,"ĠStandard":12622,"Ġnhá»į":12623,"ĠxuÃ´":12624,"ĠKhÃ´n":12625,"chá»ĳng":12626,"}.":12627,"æĪ":12628,"ĠFi":12629,"Ġhero":12630,"ĠKDC":12631,"Ġvá»ĭn":12632,"NHNN":12633,"RÆ°á»£u":12634,"ĠED":12635,"Ãµn":12636,"Apple":12637,"Ġä½ľtÃ¡c":12638,"oni":12639,"ĠTHÆ¯ÆłNG":12640,"ĠthÃ²":12641,"eople":12642,"chez":12643,"236":12644,"ĠNÆ¯á»ļC":12645,"ĠDÃ¢u":12646,"ĠNang":12647,"Ġhong":12648,"toy":12649,"Ġtype":12650,"»kh":12651,"ĠçĦ¶":12652,"Ġgáº¥c":12653,"áºłT":12654,"ĠlÃ©p":12655,"ĠGall":12656,"enh":12657,"ĠHealth":12658,"Ġnáº¹p":12659,"ĠTrÆ°Æ¡":12660,"ĠMem":12661,"ĠChá»īnh":12662,"ĠVá»±c":12663,"ĠKur":12664,"ÃģNH":12665,"UYá»Ĩ":12666,"ĠGet":12667,"Ġbá»įng":12668,"Gr":12669,"ĠOri":12670,"ĠCháº£":12671,"Cá»±u":12672,"Ġ119":12673,"Micro":12674,"ïĥ":12675,"ĠHitachi":12676,"ĠBá»ĳi":12677,"ĠBrand":12678,"ful":12679,"á»İ":12680,"rise":12681,"topic":12682,"ĠUÃ´ng":12683,"phÃª":12684,"Ġbá»Ł":12685,"Ġ330":12686,"ĠEM":12687,"ĠForbes":12688,"ĠVÄĲQG":12689,"cháº¿t":12690,"ĠVietNam":12691,"Ġ122":12692,"rÃª":12693,"Ġeng":12694,"ĠGDÄĲT":12695,"XP":12696,"ĠnhÃ£o":12697,"ili":12698,"ĠBrit":12699,"Éĳ":12700,"Ġgiá»¡n":12701,"ĠCos":12702,"ĠLegend":12703,"ĠExplorer":12704,"ThÃ¬":12705,"Ð¾ÑĤ":12706,"ĠCop":12707,"ĠMoham":12708,"Ġkháº¥t":12709,"ĠQui":12710,"No":12711,"ĠDU":12712,"ĠYe":12713,"ONE":12714,"ĠÃģN":12715,"NO":12716,"Ġ1969":12717,"Cloud":12718,"ĠSmith":12719,"Äĳáº¡t":12720,"Ġå¥":12721,"ucation":12722,"ĠçĦ¶nhiÃªn":12723,"ĠTá»ª":12724,"lla":12725,"ĠTI":12726,"ÄĲá»Ŀi":12727,"Ġuá»ķng":12728,"usic":12729,"ĠKhoÃ¡ng":12730,"Ġ(âĢľ":12731,"Ġ165":12732,"ĠVinaPhone":12733,"ĠsáºŃm":12734,"ĠMul":12735,"Ġ0906":12736,"ĠQueen":12737,"Ġfax":12738,"ĠLÅ©ng":12739,"ball":12740,"Max":12741,"ĀĀĀĀĀĀĀĀĀĀĀĀĀĀĀĀĀĀĀĀĀĀĀĀĀĀĀĀĀĀĀĀĀĀĀĀĀĀĀĀĀĀĀĀĀĀĀĀĀĀĀĀĀĀĀĀĀĀĀĀĀĀĀĀĀĀĀĀĀĀĀĀĀĀĀĀĀĀĀĀĀĀĀĀĀĀĀĀĀĀĀĀĀĀĀĀĀĀĀĀĀĀĀĀĀĀĀĀĀĀĀĀĀĀĀĀĀĀĀĀĀĀĀĀĀĀĀĀĀĀĀĀĀĀĀĀĀĀĀĀĀĀĀĀĀĀĀĀĀĀĀĀĀĀĀĀĀĀĀĀĀĀĀĀĀĀĀĀĀĀĀĀĀĀĀĀĀĀĀĀĀĀĀĀĀĀĀĀĀĀĀĀĀĀĀĀĀĀĀĀĀĀĀĀĀĀĀĀĀĀĀĀĀĀĀĀĀĀĀĀĀĀĀĀĀĀĀĀĀĀĀĀĀĀĀĀĀĀĀĀĀĀĀĀĀĀĀĀĀĀĀĀĀĀĀĀĀĀĀĀĀĀĀĀĀĀĀĀĀĀĀĀĀĀĀĀĀĀĀĀĀĀĀĀĀĀĀĀĀĀĀĀĀĀĀĀĀĀĀĀĀĀĀĀĀĀĀĀĀĀĀĀĀĀĀĀĀĀĀĀĀĀĀĀĀĀĀĀĀĀĀĀĀĀĀĀĀĀĀĀĀĀĀĀĀĀĀĀĀĀĀĀĀĀĀĀĀĀĀĀĀĀĀĀĀĀĀĀĀĀĀĀĀĀĀĀĀĀĀĀĀĀĀĀĀĀĀĀĀĀĀĀĀĀĀĀĀĀĀĀĀĀĀĀĀĀĀĀĀĀĀĀĀĀĀĀĀĀĀĀĀĀĀĀĀĀĀĀĀĀĀĀĀĀĀĀĀĀĀĀĀĀĀĀĀĀĀĀĀĀĀĀĀĀĀĀĀĀĀĀĀĀĀĀĀĀĀĀĀĀĀĀĀĀĀĀĀĀĀĀĀĀĀĀĀĀĀĀĀĀĀĀĀĀĀĀĀĀĀĀĀĀĀĀĀĀĀĀĀĀĀĀĀĀĀĀĀĀĀĀĀĀĀĀĀĀĀĀĀĀĀĀĀĀĀĀĀĀĀĀĀĀĀĀĀĀĀĀĀĀĀĀĀĀĀĀĀĀĀĀĀĀĀĀĀĀĀĀĀĀĀĀĀĀĀĀĀĀĀĀĀĀĀĀĀĀĀĀĀĀĀĀĀĀĀĀĀĀĀĀĀĀĀĀĀĀĀĀĀĀĀĀĀĀĀĀĀĀĀĀĀĀĀĀĀĀĀĀĀĀĀĀĀĀĀĀĀĀĀĀĀĀĀĀĀĀĀĀĀĀĀĀĀĀĀĀĀĀĀĀĀĀĀĀĀĀĀĀĀĀĀĀĀĀĀĀĀĀĀĀĀĀĀĀĀĀĀĀĀĀĀĀĀĀĀĀĀĀĀĀĀĀĀĀĀĀĀĀĀĀĀĀĀĀĀĀĀĀĀĀĀĀĀĀĀĀĀĀĀĀĀĀĀĀĀĀĀĀĀĀĀĀĀĀĀĀĀĀĀĀĀĀĀĀĀĀĀĀĀĀĀĀĀĀĀĀĀĀĀĀĀĀĀĀĀĀĀĀĀĀĀĀĀĀĀĀĀĀĀĀĀĀĀĀĀĀĀĀĀĀĀĀĀĀĀĀĀĀĀĀĀĀĀĀĀĀĀĀĀĀĀĀĀĀĀĀĀĀĀĀĀĀĀĀĀĀĀĀĀĀĀĀĀĀĀĀĀĀĀĀĀĀĀĀĀĀĀĀĀĀĀĀĀĀĀĀĀĀĀĀĀĀĀĀĀĀĀĀĀĀĀĀĀĀĀĀĀĀĀĀĀĀĀĀĀĀĀĀĀĀĀĀĀĀĀĀĀĀĀĀĀĀĀĀĀĀĀĀĀĀĀĀĀĀĀĀĀĀĀĀĀĀĀĀĀĀĀĀĀĀĀĀĀĀĀĀĀĀĀĀĀĀĀĀĀĀĀĀĀĀĀĀĀĀĀĀĀĀĀĀĀĀĀĀĀĀĀĀĀĀĀĀĀĀĀĀĀĀĀĀĀĀĀĀĀĀĀĀĀĀĀĀĀĀĀĀĀĀĀĀĀĀĀĀĀĀĀĀĀĀĀĀĀĀĀĀĀĀĀĀĀĀĀĀĀĀĀĀĀĀĀĀĀĀĀĀĀĀĀĀĀĀĀĀĀĀĀĀĀĀĀĀĀĀĀĀĀĀĀĀĀĀĀĀĀĀĀĀĀĀĀĀĀĀĀĀĀĀĀĀĀĀĀĀĀĀĀĀĀĀĀĀĀĀĀĀĀĀĀĀĀĀĀĀĀĀĀĀĀĀĀĀĀĀĀĀĀĀĀĀĀĀĀĀĀĀĀĀĀĀĀĀĀĀĀĀĀĀĀĀĀĀĀĀĀĀĀĀĀĀĀĀĀĀĀĀĀĀĀĀĀĀĀĀĀĀĀĀĀĀĀĀĀĀĀĀĀĀĀĀĀĀĀĀĀĀĀĀĀĀĀĀĀĀĀĀĀĀĀĀĀĀĀĀĀĀĀĀĀĀĀĀĀĀĀĀĀĀĀĀĀĀĀĀĀĀĀĀĀĀĀĀĀĀĀĀĀĀĀĀĀĀĀĀĀĀĀĀĀĀĀĀĀĀĀĀĀĀĀĀĀĀĀĀĀĀĀĀĀĀĀĀĀĀĀĀĀĀĀĀĀĀĀĀĀĀĀĀĀĀĀĀĀĀĀĀĀĀĀĀĀĀĀĀĀĀĀĀĀĀĀĀĀĀĀĀĀĀĀĀĀĀĀĀĀĀĀĀĀĀĀĀĀĀĀĀĀĀĀĀĀĀĀĀĀĀĀĀĀĀĀĀĀĀĀĀĀĀĀĀĀĀĀĀĀĀĀĀĀĀĀĀĀĀĀĀĀĀĀĀĀĀĀĀĀĀĀĀĀĀĀĀĀĀĀĀĀĀĀĀĀĀĀĀĀĀĀĀĀĀĀĀĀĀĀĀĀĀĀĀĀĀĀĀĀĀĀĀĀĀĀĀĀĀĀĀĀĀĀĀĀĀĀĀĀĀĀĀĀĀĀĀĀĀĀĀĀĀĀĀĀĀĀĀĀĀĀĀĀĀĀĀĀĀĀĀĀĀĀĀĀĀĀĀĀĀĀĀĀĀĀĀĀĀĀĀĀĀĀĀĀĀĀĀĀĀĀĀĀĀĀĀĀĀĀĀĀĀĀĀĀĀĀĀĀĀĀĀĀĀĀĀĀĀĀĀĀĀĀĀĀĀĀĀĀĀĀĀĀĀĀĀĀĀĀĀĀĀĀĀĀĀĀĀĀĀĀĀĀĀĀĀĀĀĀĀĀĀĀĀĀĀĀĀĀĀĀĀĀĀĀĀĀĀĀĀĀĀĀĀĀĀĀĀĀĀĀĀĀĀĀĀĀĀĀĀĀĀĀĀĀĀĀĀĀĀĀĀĀĀĀĀĀĀĀĀĀĀĀĀĀĀĀĀĀĀĀĀĀĀĀĀĀĀĀĀĀĀĀĀĀĀĀĀĀĀĀĀĀĀĀĀĀĀĀĀĀĀĀĀĀĀĀĀĀĀĀĀĀĀĀĀĀĀĀĀĀĀĀĀĀĀĀĀĀĀĀĀĀĀĀĀĀĀĀĀĀĀĀĀĀĀĀĀĀĀĀĀĀĀĀĀĀĀĀĀĀĀĀĀĀĀĀĀĀĀĀĀĀĀĀĀĀĀĀĀĀĀĀĀĀĀĀĀĀĀĀĀĀĀĀĀĀĀĀĀĀĀĀĀĀĀĀĀĀĀĀĀĀĀĀĀĀĀĀĀĀĀĀĀĀĀĀĀĀĀĀĀĀĀĀĀĀĀĀĀĀĀĀĀĀĀĀĀĀĀĀĀĀĀĀĀĀĀĀĀĀĀĀĀĀĀĀĀĀĀĀĀĀĀĀĀĀĀĀĀĀĀĀĀĀĀĀĀĀĀĀĀĀĀĀĀĀĀĀĀĀĀĀĀĀĀĀĀĀĀĀĀĀĀĀĀĀĀĀĀĀĀĀĀĀĀĀĀĀĀĀĀĀĀĀĀĀĀĀĀĀĀĀĀĀĀĀĀĀĀĀĀĀĀĀĀĀĀĀĀĀĀĀĀĀĀĀĀĀĀĀĀĀĀĀĀĀĀĀĀĀĀĀĀĀĀĀĀĀĀĀĀĀĀĀĀĀĀĀĀĀĀĀĀĀĀĀĀĀĀĀĀĀĀĀĀĀĀĀĀĀĀĀĀĀĀĀĀĀĀĀĀĀĀĀĀĀĀĀĀĀĀĀĀĀĀĀĀĀĀĀĀĀĀĀĀĀĀĀĀĀĀ":12742,"food":12743,"¥nháºŃt":12744,"lem":12745,"Ġdoc":12746,"ĠCHá»¦":12747,"Ġè¨Ģ":12748,"ĠTháºŃn":12749,"ĠIb":12750,"máº¥t":12751,"ĠJav":12752,"Ġster":12753,"ĠSports":12754,"Coin":12755,"ĠngÃ²":12756,"ĠlÃło":12757,"One":12758,"ĠngÃ¡c":12759,"Ġed":12760,"ĠDHA":12761,"nhan":12762,"Cáº¥u":12763,"ĠDiá»ĩt":12764,"ĠAction":12765,"Ġäº¦":12766,"ĠngÃ³c":12767,"diá»ĩc":12768,"ĠæĹ¥nháºŃt":12769,"door":12770,"ĠAL":12771,"ĠHáº¡c":12772,"á»ĺC":12773,"ĠBáº¥m":12774,"ĠKuala":12775,"ĠJustin":12776,"ĠNou":12777,"ĠMain":12778,"Ġchong":12779,"tiáº¿p":12780,"ĠBáºŃt":12781,"ĠChÃ³":12782,"ĠGL":12783,"Ká»·":12784,"Ġbig":12785,"ĠKD":12786,"ĠAo":12787,"ĠVip":12788,"Ġdiáº¿p":12789,"ĠgÃ£i":12790,"oker":12791,"ĠlÃºm":12792,"ĠLake":12793,"YÃªn":12794,"dien":12795,"Ġbaby":12796,"ĠNá»¥":12797,"ĠFeder":12798,"usta":12799,"ĠLumpur":12800,"HQ":12801,"zb":12802,"å¹´":12803,"ĠÄĲÃłng":12804,"ÄĲen":12805,"rin":12806,"Ð¾Ð½":12807,"ĠPhÃ¢":12808,"bs":12809,"ĠToáº£n":12810,"tiá»ĥu":12811,"website":12812,"ĠHÆ°á»Łng":12813,"¯ng":12814,"ĠcÃ²ng":12815,"ĠRover":12816,"Ġäº¦diá»ĩc":12817,"EV":12818,"evin":12819,"ĠLá»ĳi":12820,"Ġláº»o":12821,"youtube":12822,"ĠMill":12823,"UI":12824,"pot":12825,"tá»ĳi":12826,"ĠNad":12827,"ĠCÆ°á»Ľi":12828,"lÃª":12829,"ĠTony":12830,"ĠIBM":12831,"ĠManila":12832,"ĠlÆ°á»£m":12833,"Ġloang":12834,"ĠTrá»įn":12835,"wap":12836,"oration":12837,"bang":12838,"Ġgalaxy":12839,"Ġket":12840,"ĠEar":12841,"Ġsm":12842,"ĠFashion":12843,"Ġxoan":12844,"KhÃ¡nh":12845,"Ġvinhomes":12846,"ĠSearch":12847,"vas":12848,"ĠRF":12849,"LÆ°Æ¡ng":12850,"Ġdiá»ĩp":12851,"gÃ¢y":12852,"ĠBund":12853,"ĠTae":12854,"ĠLM":12855,"Ð¸Ñı":12856,"ĠSett":12857,"Ġlap":12858,"wagen":12859,"ewoo":12860,"ç½ĳ":12861,"ĠChuá»Ļt":12862,"ĠÃ©":12863,"Ġxáº»o":12864,"email":12865,"Ġcock":12866,"ĠHouston":12867,"Ġsch":12868,"ĠLady":12869,"ĠNá»ĵi":12870,"ĠKhinh":12871,"ĠMcC":12872,"ĠEss":12873,"ĠÄĲá»£t":12874,"dor":12875,"tric":12876,"omi":12877,"Ġè¨ĢngÃ´n":12878,"à¦":12879,"ĠthÃ¢y":12880,"Ġlá»±":12881,"chÃŃ":12882,"ĠMÃły":12883,"Ġchon":12884,"Ġdomain":12885,"ĠGas":12886,"vÃ¹ng":12887,"ĠthÆ¡i":12888,"ĠLes":12889,"dinh":12890,"Me":12891,"vet":12892,"ãģª":12893,"ature":12894,"EST":12895,"ĠQuyáº¿n":12896,"dá»¯":12897,"âĢ³":12898,"ggi":12899,"Īh":12900,"PPO":12901,"táº¡o":12902,"ĠBio":12903,"mai":12904,"ĠÆ¯ng":12905,"azer":12906,"ĠÄĲá»©a":12907,"káº»":12908,"ĠGÃ¢y":12909,"Ġä¸ĸ":12910,"ĠxÃ¢u":12911,"chan":12912,"Ġthinh":12913,"weet":12914,"ĠMá»ļI":12915,"ĠHR":12916,"Ġ127":12917,"Go":12918,"ĠuÃ´":12919,"ĠChÃ¡y":12920,"ĠWoo":12921,"miá»ħn":12922,"anta":12923,"140":12924,"fox":12925,"á»±t":12926,"ĠçŃī":12927,"ĠAy":12928,"Ġsoc":12929,"Ġåı¯":12930,"Ãķ":12931,"ĠMorning":12932,"ĠVIÃĬN":12933,"cÃ¢u":12934,"ãģ¦":12935,"ĠÄĲCS":12936,"kaku":12937,"ĠBoston":12938,"Ġxáº¯t":12939,"ĠRic":12940,"Ġ1930":12941,"PGS":12942,"ĠThÃ¡o":12943,"ĠNá»ĳi":12944,"á»ĲT":12945,"Ġcs":12946,"nha":12947,"dt":12948,"ĠMÃ¡":12949,"ChÃ¢u":12950,"friday":12951,"Ùĩ":12952,"ĠLar":12953,"ĠMary":12954,"Ġç©º":12955,"home":12956,"}}":12957,"ĠhÃłu":12958,"color":12959,"ĠTHANH":12960,"ĠæĪĲ":12961,"Ġran":12962,"ĠÃ³i":12963,"Ġreading":12964,"Ġ1981":12965,"ĠåĮ":12966,"ĠTáº£o":12967,"ĠMarina":12968,"ĠHari":12969,"ĠNSNN":12970,"ĠÃģc":12971,"Ġgara":12972,"Ġriáº¿t":12973,"ĠFar":12974,"\";":12975,"Ġnáº§n":12976,"âĢĿ!":12977,"Ġláº©m":12978,"ĠMenu":12979,"ĠPRO":12980,"ĠBush":12981,"ĠTháº£m":12982,"emen":12983,"ĠNgÆ°ng":12984,"ĠHaz":12985,"UYá»ĢN":12986,"ĠkhÆ°u":12987,"asho":12988,"ĠKhuáº¥t":12989,"wich":12990,"chiáº¿c":12991,"ĠåĽł":12992,"Website":12993,"ĠnÃºp":12994,"±t":12995,"Ġçİ":12996,"viá»ĩc":12997,"fit":12998,"ĠFab":12999,"ĠLotus":13000,"iro":13001,"ĠLittle":13002,"Ġcá»ıi":13003,"ĠRome":13004,"Tech":13005,"bá»ı":13006,"Ġmá»Ńa":13007,"ĠÄĳáº£n":13008,"ĠTTHC":13009,"pto":13010,"ĠMá»ı":13011,"Ġcontent":13012,"CNV":13013,"ãĥ³":13014,"Pin":13015,"older":13016,"ĠEthereum":13017,"ĠXHCN":13018,"KA":13019,"ĠhÃ¹m":13020,"ĠPeru":13021,"ĠOP":13022,"jan":13023,"ĠTTXVN":13024,"Ġ145":13025,"ĠhÃ¡ng":13026,"ngay":13027,"rum":13028,"Ġkiáº¿ng":13029,"Vitamin":13030,"lop":13031,"thÃŃch":13032,"oku":13033,"ĠNigeria":13034,"Ä±":13035,"aii":13036,"ĠInverter":13037,"By":13038,"ĠAsh":13039,"ĠProject":13040,"ting":13041,"time":13042,"ized":13043,"ĠTiá»ĩm":13044,"ĠGor":13045,"kswagen":13046,"Táº§ng":13047,"ĠBag":13048,"eln":13049,"ĠRog":13050,"èµ":13051,"ĠPHÃĴNG":13052,"ĠWood":13053,"ĠÄĳiáº¿m":13054,"Ġ1967":13055,"Sport":13056,"ĠAsian":13057,"ĠGiÆ°á»Ŀng":13058,"Ġpp":13059,"lean":13060,"ĠBand":13061,"ĠsÃ¡":13062,"Ġ***":13063,"Ġåı¯kháº£":13064,"ĠXÃª":13065,"á»¬A":13066,"ĠArena":13067,"cÃ¡nh":13068,"onder":13069,"Ġtien":13070,"ĠchÃŃt":13071,"äºº":13072,"ĠKINH":13073,"toÃłn":13074,"Ġmobi":13075,"Ġher":13076,"Ġ0903":13077,"má»Ľi":13078,"Ġï£":13079,"ĠJobs":13080,"ĠPhiÃªu":13081,"oop":13082,"ĠHÃĮNH":13083,"Cu":13084,"Ġå¤©thiÃªn":13085,"LD":13086,"ĠchiÃªng":13087,"Ġmaster":13088,"ĠEb":13089,"Bá»įn":13090,"Ã¸":13091,"ĠCÆ°á»Ŀi":13092,"ĠXNK":13093,"ĠHSSV":13094,"Ġpark":13095,"Ġ0901":13096,"ãĤĭ":13097,"lÄĥng":13098,"Se":13099,"ĠVHTT":13100,"ãģŁ":13101,"ĠOnlinefriday":13102,"ĠlÃ³ng":13103,"Ġbiáº¿c":13104,"Ġlipid":13105,"Ġç©ºkhÃ´ng":13106,"Ġsn":13107,"Ġngá»£m":13108,"láº¡c":13109,"Ġdet":13110,"Ġcry":13111,"ĠAnna":13112,"ĠEB":13113,"ÃĶi":13114,"Ġ:))":13115,"ĠGai":13116,"ĠRooney":13117,"ANTD":13118,"esl":13119,"ikip":13120,"iola":13121,"World":13122,"cháº¡y":13123,"ĠWales":13124,"ĠSLNA":13125,"sim":13126,"Ġrel":13127,"įtiá»ģn":13128,"Ġhiu":13129,"ĠZid":13130,"ĠBenz":13131,"Ġcá»įp":13132,"ĠXIII":13133,"med":13134,"char":13135,"ĠbÆ°":13136,"Ġhomestay":13137,"ĠBDS":13138,"Emdep":13139,"ethyl":13140,"Ġsat":13141,"ĠForum":13142,"ĠxÃ¨o":13143,"ĠKhe":13144,"attan":13145,"Jet":13146,"ÄĲÆ°Æ¡ng":13147,"ĠRoad":13148,"Ġrá»¥t":13149,"ĠDrive":13150,"ĠNot":13151,"venue":13152,"ĠVinFast":13153,"ĠæĿ":13154,"ĠThoÃ¡t":13155,"NDN":13156,"ĠBáº¯n":13157,"ĠUkraina":13158,"onto":13159,"hini":13160,"jin":13161,"á»¡i":13162,"Point":13163,"Ġ121":13164,"chá»©ng":13165,"ĠHiÃª":13166,"ĠTechcombank":13167,"raw":13168,"Ġsáº¥p":13169,"amic":13170,"cs":13171,"ĠTáº¡m":13172,"Ġgly":13173,"lá»¥c":13174,"Ġç¨":13175,"news":13176,"je":13177,"ä¼":13178,"ĠæĪĲthÃłnh":13179,"hÃ³a":13180,"ïĤ":13181,"ĠkhÃ³m":13182,"Ġfolic":13183,"128":13184,"Ġ0904":13185,"ICO":13186,"Ġnháº¡o":13187,"ĠTráº£ng":13188,"ĠZin":13189,"Ġmá»ģn":13190,"Ġvá»©c":13191,"1979":13192,"CCI":13193,"Toy":13194,"mond":13195,"CÃłng":13196,"BXD":13197,"point":13198,"Viáº¿t":13199,"Quáº¡t":13200,"Gá»Ńi":13201,"Ġhuyá»ħn":13202,"ĠCá»Ķ":13203,"ĠåĽłnhÃ¢n":13204,"ĠOng":13205,"Ġná»ĭnh":13206,"ĠKHCN":13207,"Ġradar":13208,"ĠnguÃ´i":13209,"Rau":13210,"ĠLogo":13211,"280":13212,"eway":13213,"imbank":13214,"ĠchÃ£i":13215,"ĠThiá»ģu":13216,"ĠLeon":13217,"ĠKids":13218,"ÆłI":13219,"ĠLá»«ng":13220,"ãģĻ":13221,"ĠVáº½":13222,"Ná»ķi":13223,"ĠSanchez":13224,"ĠTrá»©ng":13225,"VL":13226,"Ġquáº¹t":13227,"ĠPlan":13228,"ecta":13229,"sex":13230,"It":13231,"Suc":13232,"Ġåīįtiá»ģn":13233,"upload":13234,"Br":13235,"Mbps":13236,"ben":13237,"Ġtren":13238,"Ġbot":13239,"ĠEva":13240,"ĠtrÃ³t":13241,"Ã§":13242,"ĠSÃ´":13243,"ello":13244,"ĠçŃīÄĳáº³ng":13245,"ĠSÄĲT":13246,"ĠsÃ¡n":13247,"Ġ132":13248,"Ġ01212":13249,"ÑĦ":13250,"ĠSáº¡c":13251,"Ġxiáº¿c":13252,"BiÃªn":13253,"ĠPic":13254,"Ġngoai":13255,"Ġháº¡c":13256,"ĠNgon":13257,"ĠlÃŃu":13258,"åıĳ":13259,"cháº³ng":13260,"ĠForex":13261,"ĠKhoan":13262,"Chá»£":13263,"ĠInvest":13264,"ĠWestern":13265,"ĠCHÃļA":13266,"ĠQuáº¥t":13267,"har":13268,"MÃ´i":13269,"ĠMÃ¡t":13270,"DÄ©":13271,"ĠBoeing":13272,"wang":13273,"Ġtur":13274,"Son":13275,"ĠQUY":13276,"xb":13277,"ĠÃ´xy":13278,"ĠLÃłn":13279,"olin":13280,"ĠGab":13281,"Ġland":13282,"ĠJones":13283,"ä¸Ńå½©ç¥¨":13284,"erto":13285,"ĠCHáº¤T":13286,"bor":13287,"ities":13288,"ĠâĿ":13289,"áºłCH":13290,"Cáº·p":13291,"tiáº¿n":13292,"chÃº":13293,"ĠLet":13294,"ĠAdam":13295,"cá»¥":13296,"ĠCambridge":13297,"Ġglucose":13298,"ĠBST":13299,"Ġtáº¯p":13300,"Ġnháº·n":13301,"Ġåľ°Äĳá»ĭa":13302,"ĠZenfone":13303,"ĠThy":13304,"Mac":13305,"ĠWell":13306,"ĠÄĲÃŃnh":13307,"ĠKorea":13308,"ĠCrystal":13309,"Ġum":13310,"ĠDK":13311,"ĠkhÃłn":13312,"ĠÃ²a":13313,"ĠÄĲáº§y":13314,"BG":13315,"ĠDá»«a":13316,"VÃµ":13317,"ĠConnect":13318,"iev":13319,"OSE":13320,"máº·c":13321,"hing":13322,"ascript":13323,"Giang":13324,"tainment":13325,"Thá»«a":13326,"264":13327,"Ð·":13328,"ĠHye":13329,"Ġ:)":13330,"NgÃ´":13331,"Sáº¯c":13332,"ĠØ§ÙĦ":13333,"Âµ":13334,"Ġtrá»©":13335,"ĠJon":13336,"fol":13337,"quÃ¡n":13338,"ĠâĢŀ":13339,"ĠJeff":13340,"ĠHoáº¯c":13341,"cell":13342,"ĠTHIáº¾T":13343,"ĠIR":13344,"ĠRáºº":13345,"ĠTphcm":13346,"ĠVegas":13347,"ĠEverest":13348,"ĠXingfa":13349,"fess":13350,"Ġnguá»Ŀi":13351,"ĠmÃ³":13352,"357357":13353,"Ġ01212357357":13354,"kk":13355,"rick":13356,"ĠBlues":13357,"ohydr":13358,"ĠNÃ©t":13359,"Ġ1966":13360,"ĠâĪ":13361,"ĠMN":13362,"ĠFast":13363,"åĬ":13364,"vid":13365,"Ġedit":13366,"Ġ138":13367,"Lan":13368,"ĠUs":13369,"thor":13370,"Ġdáº¥p":13371,"dÆ°á»Ľi":13372,"Ġçī":13373,"kt":13374,"MU":13375,"Â¡":13376,"Táº§n":13377,"GC":13378,"ĠBÄĥ":13379,"ĠMp":13380,"Biá»ĥn":13381,"Ġthoáº¡t":13382,"aska":13383,"Ġbet":13384,"ÃĵNG":13385,"Ġgáº¥m":13386,"Ġvá»ĵng":13387,"sáº¯c":13388,"ĠAmerica":13389,"Tim":13390,"ĠÄĳÃ¯":13391,"ĠQQ":13392,"Ġliveshow":13393,"pes":13394,"Ġbas":13395,"ikipedia":13396,"truyá»ģn":13397,"102":13398,"Suy":13399,"Bar":13400,"moi":13401,"phÃ¡":13402,"El":13403,"ĠHee":13404,"Ġláº¡p":13405,"Ġvat":13406,"ĠMÃ£n":13407,"ĠHÃĵA":13408,"ĳngÃ£":13409,"iend":13410,"TrÃ²":13411,"irin":13412,"Ġá»·":13413,"Khai":13414,"ampton":13415,"ĠSwan":13416,"AF":13417,"ãģ¨":13418,"sÃ¡ng":13419,"Ġtá»Łm":13420,"ĠHosting":13421,"ĠlÃ¹m":13422,"ĠnhÃłu":13423,"vá»«a":13424,"ĠYour":13425,"ĠgiÃ´":13426,"ĠBright":13427,"ĠTrip":13428,"ĠTen":13429,"ĠBour":13430,"arez":13431,"HÃ³a":13432,"ĠthÃły":13433,"Ġnua":13434,"åº":13435,"ĠInf":13436,"ĠUnder":13437,"Ġbáº¿t":13438,"Play":13439,"ĠThÃ¹":13440,"ĠJess":13441,"ibe":13442,"Ġsur":13443,"aur":13444,"ĠnhÃ²a":13445,"Ġnáº¥p":13446,"ĠXIX":13447,"ĠTáº¯m":13448,"âĢĶâĢĶâĢĶâĢĶ":13449,"Ġtieng":13450,"táº¡m":13451,"ĠFirst":13452,"Ġol":13453,"Mr":13454,"ĠkhÆ¡":13455,"Ġepoxy":13456,"ĠSÃło":13457,"arin":13458,"Previous":13459,"ĠSor":13460,"ĠCarol":13461,"Ġzoom":13462,"Æ¯á»ļNG":13463,"ÄĲá»ķi":13464,"ĠTes":13465,"Suá»ĳt":13466,"ÄĳÃ³":13467,"Ġthá»ĩ":13468,"Ġnguyen":13469,"elin":13470,"lá»Ľp":13471,"ĠdÃ¡t":13472,"onex":13473,"ĠlÃ¬nh":13474,"Thá»Ń":13475,"Ġphotoshop":13476,"há»ĵ":13477,"Ġ124":13478,"âĢİ":13479,"ĠKáº¾T":13480,"ĠRy":13481,"260":13482,"ship":13483,"há»Ĺ":13484,"ĠSÃ¹ng":13485,"ĠFerrari":13486,"Ġghim":13487,"ĠCQ":13488,"ĠLite":13489,"gb":13490,"Ġcell":13491,"sol":13492,"Ìĥ.":13493,"cáº£nh":13494,"Ĥvá»ĭ":13495,"ĠAqua":13496,"nn":13497,"ĠSeason":13498,"ĠCell":13499,"ĠScotland":13500,"Ġá»Ĳp":13501,"ĠæĪĳngÃ£":13502,"ĠLor":13503,"ChÆ¡i":13504,"Ġbien":13505,"ĠNá»£":13506,"ĠHand":13507,"Ġpizza":13508,"raham":13509,"ĠTRANG":13510,"ĠBÆ°á»Łi":13511,"Mart":13512,"ĠMonaco":13513,"âľħ":13514,"php":13515,"Â§":13516,"Ġsáº³n":13517,"ĠPháº¡t":13518,"Náº¥m":13519,"ĠRan":13520,"abeth":13521,"ĠEC":13522,"ĠdiÃªm":13523,"ĠFant":13524,"ĠTháº¯m":13525,"Ġ888":13526,"Media":13527,"Ġè¬Ĥvá»ĭ":13528,"Lai":13529,"nic":13530,"máº«u":13531,"ĠQUAN":13532,"§tÃ¡nh":13533,"orp":13534,"ĠFuk":13535,"ĠMDF":13536,"len":13537,"Ġç¬":13538,"Facebook":13539,"Trá»įng":13540,"ĠÃĲÃ³":13541,"ĠæĢ§tÃ¡nh":13542,"Ġláº£":13543,"Ġ×":13544,"inson":13545,"ĠShophouse":13546,"ĠFuji":13547,"âľĶ":13548,"esa":13549,"Ġtrá»Ľ":13550,"ĠYoo":13551,"ĠDown":13552,"ĠMagic":13553,"ĠVIET":13554,"Ġnáº·c":13555,"ĠAvenue":13556,"ĠGang":13557,"Ġcá»¯":13558,"ĠTRÃĮNH":13559,"ĠRuby":13560,"Ġmodem":13561,"Ġpháº¿t":13562,"ĠMáº¡n":13563,"ĠActive":13564,"ĠZidane":13565,"âĢĿ...":13566,"115":13567,"Ġtruong":13568,"Ġact":13569,"tedothi":13570,"ĠGuardiola":13571,"ĠColorado":13572,"Ãįt":13573,"ando":13574,"ĠEric":13575,"Ġ133":13576,"athi":13577,"ĠHÆ°u":13578,"ĠÄĲá»Ģ":13579,"ĠPháº£":13580,"Ġduc":13581,"ĠThuá»µ":13582,"ario":13583,"omet":13584,"Ġstarted":13585,"Ġ1964":13586,"Äĳá»ĩ":13587,"Ġelec":13588,"pdf":13589,"ĠHero":13590,"Ð¾Ð¹":13591,"ĠDÃ£":13592,"ĠtrÃ¡o":13593,"oko":13594,"Ġâŀ":13595,"!)":13596,"Ġngá»Ľ":13597,"Ãľ":13598,"Ĥ¬":13599,"FS":13600,"vices":13601,"diá»ĩn":13602,"789":13603,"Bay":13604,"sÃ¡t":13605,"ĠSpeed":13606,"OW":13607,"Ġcá»Ļm":13608,"Bá»Ļt":13609,"ĠrÃ´m":13610,"ĠÄĲV":13611,"istr":13612,"TTLT":13613,"Ġgoldmark":13614,"ĠTHUáº¬T":13615,"Ġgháº»":13616,"Ġ2022":13617,"ĠHunter":13618,"Ġdá»Ĺi":13619,"ĠTG":13620,"This":13621,"chim":13622,"ĠValencia":13623,"ÄĳÃ´":13624,"LuáºŃn":13625,"ĠEducation":13626,"ĠgiÃªng":13627,"âĪĴ":13628,"ĠTurbo":13629,"Ġkit":13630,"ĠKenn":13631,"ĠCáº¥n":13632,"ĠEURO":13633,"Ġváº§ng":13634,"agi":13635,"ĠÄĲá»ĵi":13636,"119":13637,"bong":13638,"otal":13639,"ĠMIá»ĦN":13640,"Ġä¼":13641,"Real":13642,"Ġæŀ":13643,"ĠNGAY":13644,"ĠGran":13645,"bie":13646,"ĠInt":13647,"Ġ225":13648,"ĠMand":13649,"ãģ¾":13650,"ĠNep":13651,"ĠEverton":13652,"ĠSÃºng":13653,"Ġcacbon":13654,"Ġtool":13655,"ireless":13656,"ĠngÆ°u":13657,"ĠSB":13658,"ĠDuyá»ĩt":13659,"ĠDual":13660,"108":13661,"Ġ1971":13662,"mb":13663,"ĠÄĳuá»£c":13664,"ĠBáºłN":13665,"Ġchuá»ĵn":13666,"ĠTÆ°á»Ľc":13667,"ĠBab":13668,"ĠBudd":13669,"Ung":13670,"ĠNGÃĢY":13671,"tháºŃm":13672,"ĠRÃ´":13673,"adi":13674,"Ġnhoi":13675,"kem":13676,"ĠTÃ¢":13677,"ÄĲÃ¡":13678,"Ngá»ĵi":13679,"UM":13680,"ĠSilver":13681,"ĠFound":13682,"ashoggi":13683,"111":13684,"ĠTÃłng":13685,"ĠNáº¥u":13686,"ĠÄ©":13687,"ICE":13688,"ĠRain":13689,"Ġ168":13690,"Ġdit":13691,"ĠquÃłng":13692,"1969":13693,"ĠIll":13694,"ĠBridge":13695,"aire":13696,"720":13697,"nhat":13698,"ĠhÃ£n":13699,"Ġåİ":13700,"vanced":13701,"ghi":13702,"Ġicon":13703,"ĠChuá»Ĺi":13704,"ĠÐ±":13705,"Ľtá»©":13706,"ĠPad":13707,"thÃ¡nh":13708,"Ġgran":13709,"ĠLÆ°á»£c":13710,"ĠImperia":13711,"AX":13712,"ĠVay":13713,"Group":13714,"ĠÐ½Ð°":13715,"ĠMW":13716,"Ġnhá»īnh":13717,"Ġ1977":13718,"1987":13719,"pháº£n":13720,"ĠLike":13721,"Ġvilla":13722,"tháº£":13723,"ĠTE":13724,"ĠVision":13725,"SÃłi":13726,"1997":13727,"ÄĳÆ°Æ¡ng":13728,"ĠDÃ¬":13729,"ĠOrig":13730,"Ġgáº·m":13731,"HÄĲND":13732,"ĠrÃ¬a":13733,"upe":13734,"ĠRadio":13735,"ĠLÃ£i":13736,"ĠXong":13737,"ĠGÃ³p":13738,"pin":13739,"Ġpa":13740,"ĠHI":13741,"Chá»¯a":13742,"Cont":13743,"athan":13744,"ESS":13745,"ĠLay":13746,"diá»ħn":13747,"ĠçľŁ":13748,"dai":13749,"ĠHPV":13750,"Ġpower":13751,"orth":13752,"ĠlÃ¨o":13753,"ĠKhashoggi":13754,"iri":13755,"010":13756,"khÃ³":13757,"ĠService":13758,"red":13759,"dá»ĭ":13760,"Chapter":13761,"ĠRodr":13762,"Toyota":13763,"akes":13764,"post":13765,"ĠAmi":13766,"ĠæĤ":13767,"phÃ¹":13768,"Ká»ĩ":13769,"ĠXoÃłi":13770,"Ġmedia":13771,"ERS":13772,"ÐµÐ¼":13773,"ĠgiÆ°Æ¡ng":13774,"éĩ":13775,"ĠOLED":13776,"rie":13777,"vc":13778,"ĠPier":13779,"ĠVÆ¡":13780,"ĠNáº¡p":13781,"170":13782,"ĠCoi":13783,"ĠIPS":13784,"ĠFuj":13785,"ĠmÃ£o":13786,"BCT":13787,"ĠOrch":13788,"utnik":13789,"ĠGan":13790,"ĠLáº·c":13791,"Vá»ĩ":13792,"...).":13793,"Ġstand":13794,"ĠPhÃ©p":13795,"Ġcontrol":13796,"Ġxoong":13797,"há»į":13798,"SG":13799,"ĠJournal":13800,"LÃ¢u":13801,"dá»ħ":13802,"celand":13803,"Ġleg":13804,"Ġlá»©t":13805,"ĠNÄĲT":13806,"Ġ203":13807,"ging":13808,"ĠSáº¡n":13809,"Thá»§y":13810,"ĠBQT":13811,"ants":13812,"å·":13813,"Ed":13814,"alse":13815,"Ġip":13816,"ĠNáºŃm":13817,"Bu":13818,"ĠVPS":13819,"ĠMb":13820,"borghini":13821,"Äĳá»ģu":13822,"ĠåĽĽtá»©":13823,"drop":13824,"Ġnháº¥m":13825,"Ġáº©u":13826,"Ġdell":13827,"ĠtÃ¡p":13828,"En":13829,"ĠRÃ¨m":13830,"ĠFM":13831,"ĠnÃ´m":13832,"ĠtrÄĥ":13833,"Ġé«":13834,"ĠChai":13835,"ĠCua":13836,"NghÄ©":13837,"ĠDá»±c":13838,"idget":13839,"Ġvietnam":13840,"ĠkhiÃªn":13841,"áº¶C":13842,"ĠTÃįN":13843,"house":13844,"ĠrÆ°":13845,"Ġhard":13846,"ij":13847,"ChÄĥm":13848,"Ġlife":13849,"ĠMD":13850,"ĠtrÃ£i":13851,"Gáº·p":13852,"ether":13853,"áº°":13854,"ĠAli":13855,"Sub":13856,"ĠgÃłi":13857,"ĠÂ°":13858,"ĠDiÃªu":13859,"¥nháºŃp":13860,"ĠFocus":13861,"Giá»įng":13862,"ĠKingdom":13863,"Ġlá»£":13864,"ĠBoo":13865,"ĠJÃª":13866,"GÃ²":13867,"ĠKá»ĭch":13868,"ĠthÃ¹y":13869,"028":13870,"á»ĮC":13871,"tract":13872,"ĠTOÃģN":13873,"ĠNháº¯c":13874,"ĠOPPO":13875,"ĠCross":13876,"plate":13877,"ĠlÃ¡c":13878,"Ġlun":13879,"Ġdá»ım":13880,"Ġmol":13881,"giÃ¡c":13882,"ios":13883,"ative":13884,"1995":13885,"Ġcaffe":13886,"Ġè¿":13887,"ĠBáºŃc":13888,"QS":13889,"Ġäºĭ":13890,"ĠBai":13891,"ĠFax":13892,"ĠVolkswagen":13893,"tá»ĳt":13894,"ĠEther":13895,"Ġend":13896,"pli":13897,"Ġ.\"":13898,"Ġdáº·t":13899,"bá»ķn":13900,"Ġåħ¥nháºŃp":13901,"láº¥y":13902,"å¾":13903,"ĠchÃ´m":13904,"Kinhtedothi":13905,"ĠRel":13906,"ĠKM":13907,"Ġchá»īn":13908,"ĠTSCÄĲ":13909,"ĠTechnology":13910,"æ¸":13911,"Ġboot":13912,"ç»":13913,"esliga":13914,"ĠOz":13915,"etel":13916,"ĠCHá»Ī":13917,"ĠCÃ¢":13918,"ĠéĸĢ":13919,"Ġentry":13920,"Des":13921,"mas":13922,"Ġret":13923,"tranh":13924,"ĠChristian":13925,"ĠLac":13926,"Duy":13927,"ĠTÃ²ng":13928,"ĠFU":13929,"ĠBK":13930,"Te":13931,"roll":13932,"Ġamply":13933,"Ġæľª":13934,"ĠhÃºng":13935,"ffect":13936,"ĠxÃºi":13937,"Ġ802":13938,"tek":13939,"Ġé¦":13940,"->":13941,"Ġ1946":13942,"Ġ152":13943,"ucci":13944,"Ġæĸ¹":13945,"ĠGmail":13946,"writeln":13947,"Ġvacc":13948,"quyá»ģn":13949,"duyÃªn":13950,"ĠÃ©o":13951,"ĠlÃ¢ng":13952,"ĠKam":13953,"ART":13954,"FE":13955,"Ġbá»±":13956,"\",\"\",":13957,"Ġtrui":13958,"Ġthuong":13959,"LinkF":13960,"Ġ420":13961,"displayLinkF":13962,"Ġ0988":13963,"Ġstatus":13964,"emb":13965,"ĠLoc":13966,"ĠsoÃ¡i":13967,"ÄĲB":13968,"ĠHáº¹n":13969,"ĠXSMN":13970,"Ġ1962":13971,"ĠLamborghini":13972,")/":13973,"Ġtot":13974,"Ġkiá»ĥng":13975,"Ġ1956":13976,"Ġbá»£":13977,"ÄĳÃª":13978,"ĠGeneral":13979,"Ġlá»ĳ":13980,"ĠVáº£":13981,"ĠLÆ¯á»¢NG":13982,"ĠColumb":13983,"112":13984,"ĠSri":13985,"ĠTÆ¡":13986,"Ġsáº©y":13987,"url":13988,"ĠPhoto":13989,"Tuyá»ĩt":13990,"Ġçļ":13991,"ĠClassic":13992,"áºªN":13993,"Ġäºĭsá»±":13994,"ĠÄĳoáº£n":13995,"ingo":13996,"Ġkaki":13997,"urai":13998,"uta":13999,"Ġgood":14000,"éĢ":14001,"ĠIa":14002,"ĠMiÃªu":14003,"Ġusb":14004,"ĠNSND":14005,"ITE":14006,"tern":14007,"Īhá»±u":14008,"ĠVel":14009,"Iá»ĤN":14010,"ĠTrá»ĳng":14011,"ĠCav":14012,"cáº¥p":14013,"ĠNail":14014,"Ġluá»¹":14015,"ĠPCI":14016,"ĠCoca":14017,".......":14018,"bun":14019,"ĠdáºŃt":14020,"ĠBeat":14021,"Ġlact":14022,"sterdam":14023,"ĠMuaBan":14024,"ÄĳÃłn":14025,"ĠGáº¥u":14026,"oke":14027,"acle":14028,"ĠDor":14029,"Ġ0908":14030,"Ġnuong":14031,"ĠNapoli":14032,"Ġè¶":14033,"ĠWiFi":14034,"ĠOver":14035,"CX":14036,"LÃłng":14037,"Ġnit":14038,"gam":14039,"ÄĳÃ³ng":14040,"237":14041,"Ġæľªvá»ĭ":14042,"Ġ1958":14043,"ĠExciter":14044,"ĠGA":14045,"lon":14046,"ĠnÃµn":14047,"ĠGon":14048,"lit":14049,"333":14050,"alan":14051,"ĠBloomberg":14052,"triá»ĩu":14053,"goo":14054,"LÆ°á»£ng":14055,"ĠStyle":14056,"ĠUni":14057,"æĿ":14058,"Ġremote":14059,"ĠVietinBank":14060,"Ġtrade":14061,"Ġprotected":14062,"Táº·ng":14063,"ĠVoi":14064,"giÃł":14065,"tien":14066,"Ġtagged":14067,"Ġvisit":14068,"ÃģT":14069,"Giáº£":14070,"ļI":14071,"Ġgiay":14072,"ĠmÆ¡n":14073,"ĠTCN":14074,"ÄĲÃ´":14075,"izu":14076,"ML":14077,"ÄĳÃºng":14078,"eman":14079,"Ġnhen":14080,"Ġ(#":14081,"ĠLuis":14082,"hÃ¡n":14083,"ĠBáº¢N":14084,"ĠDirect":14085,"ĠbÆ°á»Ľng":14086,"370":14087,"æ³":14088,"Ġxáº¹p":14089,"NghÄ©a":14090,"2021":14091,"Ġæľ¬":14092,"ĠEntertainment":14093,"ĠKevin":14094,"ĠphÃŃch":14095,"ĠChanh":14096,"ĠCin":14097,"ĠPers":14098,"fia":14099,"TrÃŃch":14100,"ĠMÃ¹":14101,"ĠAbe":14102,"BKH":14103,"Ġ316":14104,"come":14105,"ĠAdd":14106,"Ġgá»£n":14107,"ĠEmpire":14108,"Bá»¯a":14109,"ĠWhit":14110,"Ġhecta":14111,"388":14112,"vay":14113,"Ġpolyp":14114,"Ġmacbook":14115,"ĠFut":14116,"âĻ¦":14117,"ĠCON":14118,"ĠUPS":14119,"ĠæĮ":14120,"Ġae":14121,"ĠNgÃ¢m":14122,"Ná»ģn":14123,"ono":14124,"oland":14125,"ĠWed":14126,"699":14127,"ĠÃ¯":14128,"Ġboss":14129,"Ġkhanh":14130,"ĠCAM":14131,"ĠBÆ¡":14132,"Yáº¿u":14133,"Ġçı":14134,"chÃ¡nh":14135,"Ġ129":14136,"free":14137,"full":14138,"ĠLoai":14139,"Ġbá»ĩt":14140,"DP":14141,"ador":14142,"mod":14143,"Táº¡p":14144,"ĠInfin":14145,"ĠNHTM":14146,"ĠÄĳuá»ĳc":14147,"ĠTung":14148,"Bá»ķ":14149,"ĠBil":14150,"ĠBÃ£o":14151,"master":14152,"Trá»ĭ":14153,"ĠEximbank":14154,"formation":14155,"BO":14156,"?...":14157,"dÃłi":14158,"Ġæģ":14159,"IR":14160,"ĠSá»°":14161,"Sáº¯p":14162,"ĠtrÄ©u":14163,"Ġdem":14164,"ĠPhá»ī":14165,"Quay":14166,"ĠnhÃ¡c":14167,"AST":14168,"ĠQuyá»ĥn":14169,"103":14170,"Ġtrá»¥i":14171,"ĠNÃ³ng":14172,"mÃ´":14173,"ĠÄĳÃ©o":14174,"ĠQG":14175,"ĠCanxi":14176,"pert":14177,"ĠPTNT":14178,"ĠVit":14179,"ĠKhuynh":14180,"ĠÄĲua":14181,"ĠHawaii":14182,"bÃ¡c":14183,"agu":14184,"116":14185,"Ġ139":14186,"ĠèĪĩ":14187,"nm":14188,"ĠMá»¸":14189,"ĠMoto":14190,"ĠtrÅ©ng":14191,"Káº»":14192,"Ġstream":14193,"ĠxÃ³i":14194,"ĠDaewoo":14195,"ĠToday":14196,"à¹ĳ":14197,"ĠTiÃªm":14198,"Ġnáº¿t":14199,"ias":14200,"DONG":14201,"Ġshe":14202,"Ġunder":14203,"láºŃp":14204,"Ð¸Ðº":14205,"ä¸ī":14206,"Ġ\\(":14207,"850":14208,"ĠHall":14209,"Ġhtml":14210,"ĠIceland":14211,"ĠSá»£":14212,"Phá»ĳ":14213,"ĠKIM":14214,"ĠMotorola":14215,"ĠKate":14216,"æ°":14217,"ĠÃĲÃ¢y":14218,"ibo":14219,"Ġmiáº¿t":14220,"tiÃªn":14221,"ĠÂ®":14222,"154":14223,"nom":14224,"ĠåĪĩ":14225,"è¿":14226,"Ġç´":14227,"Ġç¶ĵ":14228,"ĠToronto":14229,"ĠtuÃ´ng":14230,"á»Ŀn":14231,"ĠJackson":14232,"nho":14233,"VND":14234,"Ġáº¤p":14235,"Î±":14236,"ĠCruz":14237,"ĠnhÃ¬u":14238,"ĠMean":14239,"ĠEliz":14240,"ĠKÃ¬nh":14241,"hl":14242,"Ġsáº£i":14243,"BK":14244,"mun":14245,"Ġháº«ng":14246,"tÃ¹ng":14247,"ĠThÃ¢":14248,"ĠSapphire":14249,"ĠTriá»ĩt":14250,"ĠèĪĩdá»¯":14251,"ĠSunrise":14252,"ĠåıĪhá»±u":14253,"ĠJBL":14254,"ĠMode":14255,"dao":14256,"Ġnote":14257,"mien":14258,"ĠSpace":14259,"Ġhá»Ľ":14260,"YM":14261,"Ä«":14262,"ĠGH":14263,"ĠHá»¢":14264,"wah":14265,"Ġtrailer":14266,"Ġmetro":14267,"ĠnÃłi":14268,"ĠCE":14269,"ĠDHL":14270,"Ġ1600":14271,"VNÄĲ":14272,"ĠGate":14273,"LÃło":14274,"Ġæħ":14275,"ĠÃ¹a":14276,"ĠPokemon":14277,"ĠKos":14278,"ĠLT":14279,"ĠHá»Ĩ":14280,"á»Ĥ":14281,"ĠTGÄĲ":14282,"Ġport":14283,"ĠJak":14284,"Ġquá»ī":14285,"ĠRon":14286,"ĠVespa":14287,"ĠCombo":14288,"ĠÄĳoÃ¡i":14289,"Ġget":14290,"Tháº±ng":14291,"ĠAcademy":14292,"ĠRÃ¹a":14293,",âĢ¦)":14294,"Ġláº±n":14295,"Ġmegapixel":14296,"ĠNGHá»Ĩ":14297,"Æ°á»£i":14298,"ĠAsp":14299,"Ġsolo":14300,"~~":14301,"kong":14302,"ħu":14303,"ĠThÄĥm":14304,"NháºŃp":14305,"ĠmÃłnh":14306,"ĠTáº¬P":14307,"Gá»įi":14308,"fu":14309,"Ġfake":14310,"vien":14311,"ĠdÆ¡i":14312,"ĠNak":14313,"Pháº«u":14314,"ĠRÃºt":14315,"ĠCivic":14316,"ĠHáº»m":14317,"Ġ156":14318,"ĠNepal":14319,"ĠAle":14320,"ĠVNG":14321,"vision":14322,"down":14323,"Ð°Ð¼":14324,"ĠÄĳanh":14325,"\").":14326,"lear":14327,"usse":14328,"Cáº£i":14329,"Ġlá»ķ":14330,"Cá»ķng":14331,"ĠHOTLINE":14332,"Nay":14333,"Ġconcept":14334,"ĠBent":14335,"ĠThÆ°á»Ľc":14336,"ĠLáº¡y":14337,"idel":14338,":âĢľ":14339,"ĠBundesliga":14340,"Báº¿n":14341,"ĠBale":14342,"ucker":14343,"ĠkV":14344,"æľĪ":14345,"ĠnhÃº":14346,"á»ĶI":14347,"ĠRin":14348,"Ġreal":14349,"din":14350,"ustic":14351,"Ġæĸ¹phÆ°Æ¡ng":14352,"ĠLáº½":14353,"1983":14354,"ply":14355,"ĠåĲĮ":14356,"igrave":14357,"Ġkhá»ĳ":14358,"Ġebook":14359,"ĠÐ·":14360,"pos":14361,"Bi":14362,"Ġshopping":14363,"2888":14364,"ĠCover":14365,"Ġ144":14366,"ĮháºŃu":14367,"quÃ½":14368,"ĠAccess":14369,"ÃģI":14370,"ĠMá»ĺT":14371,"ÃĴA":14372,"ĠBali":14373,"Ġcá»£t":14374,"Ġnen":14375,"Æ¯NG":14376,"232":14377,"ĠThis":14378,"ĠèŃĺ":14379,"ĠLá»ļ":14380,"Ġç¾©":14381,"ĠQuÃ¡i":14382,"ĠkhÆ°":14383,"song":14384,"Ġmun":14385,"ĠOffic":14386,"ĠAnth":14387,"Ġá»¨":14388,"leng":14389,"hÃ£y":14390,"ĠåĪĨ":14391,"Ġwho":14392,"ĠAntonio":14393,"alur":14394,"instein":14395,"Ġnháº£m":14396,"Ġtá»£n":14397,"ĠFirefox":14398,"ĠTNDN":14399,"ĠnhÃ²e":14400,"ĠCopy":14401,"Ġå¾ĮháºŃu":14402,"ĠðŁĻĤ":14403,"ĠÄĲao":14404,"xÃ¢y":14405,"ĠNgÃłn":14406,"ĠcháºŃn":14407,"cn":14408,"Ø³":14409,"ĠAlexander":14410,"Ġunlock":14411,"uya":14412,"alaysia":14413,"ĠSom":14414,"ĠElite":14415,"Ġmá»Ĺ":14416,"pen":14417,"He":14418,"ĠhuyÃªn":14419,"ĠIl":14420,"chÆ¡i":14421,"Ġuser":14422,"ĠTHá»°C":14423,"vÆ°Æ¡ng":14424,"ĠGÃŃa":14425,"ĠVersion":14426,"ĠJÃªsus":14427,"Ġnhá»ĳi":14428,"ering":14429,"ĠSevilla":14430,"TTT":14431,"ĠæŃ£":14432,"ĠHá»§y":14433,"Khung":14434,"RT":14435,"Ġblack":14436,"ĠConte":14437,"ĠRáº«y":14438,"Ġpham":14439,"thá»§y":14440,"ĠTIá»ĢN":14441,"ige":14442,"feng":14443,"Tá»ĳc":14444,"ĠlÃ¯":14445,"ÄĳÃªm":14446,"ĠCool":14447,"Ġç·":14448,"Mu":14449,"ĠÄĲáº¶T":14450,"Ñĸ":14451,"ĠÃ¡ng":14452,"ãģ¯":14453,"LÃ´":14454,"Ġbuilding":14455,"ĠYong":14456,"ĠkhÃ²":14457,"ĠJoe":14458,"ĠHills":14459,"190":14460,"ĠLáº¡":14461,"ãģĮ":14462,"Ġbáº¹p":14463,"ĠBá»ĵng":14464,"AU":14465,"Ġhp":14466,"ĠMessenger":14467,"ĠÄĳá»±":14468,"ladesh":14469,"Ġgiá»ħu":14470,"ĠList":14471,"ĠHV":14472,"Show":14473,"æĢ":14474,"Ġngá»Ľt":14475,"Ġæ²":14476,"hou":14477,"ĠXVI":14478,"Ġçµ":14479,"hn":14480,"Ġsky":14481,"ĠBeta":14482,"Ġfirst":14483,"phiÃªn":14484,"Ġhá»¯ng":14485,"ĠMade":14486,"ĠKid":14487,"ĠBU":14488,"ĠIndex":14489,"Ġ<<":14490,"Ġtv":14491,"ThÆ¡":14492,"626":14493,"ĠPixel":14494,"ĠRoman":14495,"ĠTro":14496,"ĠSize":14497,"ĠChanel":14498,"Singapore":14499,"ĠxÃ©o":14500,"Ġæľ¬bá»ķn":14501,"Ġ134":14502,"Ġ340":14503,"ĠAmsterdam":14504,"trans":14505,"Ġwindow":14506,"ĠPres":14507,"Ġbest":14508,"ĠrÆ°á»£t":14509,"Ġkhá»Ŀ":14510,"Ġ\".":14511,"á»ĺNG":14512,"ĠéĸĢmÃ´n":14513,"iversid":14514,"ĠQuick":14515,"cá»©u":14516,"Ġháº¹":14517,"Ġchá»Ŀn":14518,"Ġhiflex":14519,"lÃ£o":14520,"Ġekip":14521,"Ġxá»Ľi":14522,"ĠkWh":14523,"ĠåĴ":14524,"ĠManagement":14525,"office":14526,"ĠCad":14527,"roi":14528,"Kiáº¿m":14529,"ĠDiá»ĩc":14530,"SÆ¡":14531,"Chá»ĵng":14532,"VÆ°á»Ŀn":14533,"ĠDet":14534,"Ġremix":14535,"ÐµÐ´":14536,"Ġráº·ng":14537,"ĠTHá»¦":14538,"ĠåĲĮÄĳá»ĵng":14539,"ĠAdidas":14540,"ĠOil":14541,"ĠlÃ³":14542,"ĠTÆ°Æ¡i":14543,"Ġgiá»Ŀi":14544,"pher":14545,"Ġver":14546,"ĠVOV":14547,"ĠGÄĲPT":14548,"050":14549,"BTNMT":14550,"Ġlot":14551,"Ġ)#":14552,"vá»£":14553,"Ġour":14554,"ĠÄĲáº¤T":14555,"ĠÄĲTQG":14556,"ĠĠĠĠĠĠĠĠĠĠĠĠĠĠĠĠĠĠĠĠĠĠĠĠĠĠĠĠĠĠĠĠ":14557,"media":14558,"má»¥c":14559,"ĠJoseph":14560,"ĠLAODONG":14561,"ĠThuÃ½":14562,"ipe":14563,"esp":14564,"ĠnhÃºc":14565,"ĠMasteri":14566,"Ġngan":14567,"Gu":14568,"Ġnáº©y":14569,"ĠProtein":14570,"ĠAnti":14571,"Ġgene":14572,"txt":14573,"ĠåĪĩthiáº¿t":14574,"ĠHp":14575,"ĠåĪ¥":14576,"castle":14577,"ĠdÆ°á»£ng":14578,"seido":14579,"ĠHÃºc":14580,"ĠSher":14581,"ĠBN":14582,"ĠâĢľ.":14583,"tom":14584,"ĠDark":14585,"Ð°Ñı":14586,"ĠThá»±":14587,"ĠVá»ļI":14588,"Má»ĳi":14589,"ĠTNG":14590,"Star":14591,"ĠTNCN":14592,"lai":14593,"ĠVirginia":14594,"á»¥a":14595,"ĠÃ¬":14596,"ĠGR":14597,"ĠPetro":14598,"isk":14599,"Ð°Ðº":14600,"ĠkhÃ¹ng":14601,"ĠMoz":14602,"chá»įn":14603,"ĠSettings":14604,"ĠsÃªn":14605,"ĠDisplay":14606,"ĠFus":14607,"rich":14608,"ĠèĲ":14609,"Ġtruá»ĵng":14610,"à¥":14611,"ĠNoi":14612,"left":14613,"ĠâĢĶâĢĶ":14614,"Ġhá»±c":14615,"Ġtestosterone":14616,"ĠDá»¥":14617,"ĠGá»ĳc":14618,"Ġgá»įng":14619,"otin":14620,"ĠÂ».":14621,"chuáº©n":14622,"imi":14623,"thá»į":14624,"ĠScott":14625,"itech":14626,"ĠTHá»¨C":14627,"áºłC":14628,"Ġcocktail":14629,"ĠChá»§ng":14630,"ĠHá»¢P":14631,"cp":14632,"Ġæĩ":14633,"ĠGlass":14634,"conom":14635,"Ġhormon":14636,"ĠATTP":14637,"Ġmagie":14638,"ified":14639,"quoc":14640,"ĠXÄĥng":14641,"BI":14642,"ĠTáºłO":14643,"nhe":14644,"Na":14645,"Ġmá»īa":14646,"Ġprofile":14647,"ĠKeo":14648,"Chá»ĳng":14649,"Ġ141":14650,"Ġgá»ĵng":14651,"wh":14652,"chat":14653,"ĠDÄ©nh":14654,"ĠDun":14655,"Ġpic":14656,"aper":14657,"Má»¥n":14658,"ĠThink":14659,"ource":14660,"Ġtháº£nh":14661,"ĠgiÅ©":14662,"ç¥ŀ":14663,"270":14664,"Ġvit":14665,"Ġä¸ĸtháº¿":14666,"ĠPy":14667,"Ġloc":14668,"ĠåĪ¥biá»ĩt":14669,"ĠMáº¶T":14670,"ĠATP":14671,"âĢ²":14672,"ELL":14673,"olas":14674,"Ġ131":14675,"WD":14676,"File":14677,"ĠRM":14678,"ĠCOD":14679,"ĠCommun":14680,"âĢ¦;":14681,"ĠDak":14682,"ĠTrÃ¢u":14683,"ĠJoh":14684,"Ġ.....":14685,"ĠSign":14686,"ĠTHA":14687,"Ġphay":14688,"Ġtal":14689,"ĠHDR":14690,"thong":14691,"Ġ6000":14692,"Ġ1959":14693,"ĠHÃª":14694,"ãĤĴ":14695,"ĠND":14696,"ÃģNG":14697,"Xi":14698,"Ġoffset":14699,"ĠnhÃ¡p":14700,"hong":14701,"anna":14702,"ĠMach":14703,"ĠPhilip":14704,"Ġ091":14705,"Ð°Ð²":14706,"ĠUpdate":14707,"tÃ¬m":14708,"eder":14709,"Cáº¯t":14710,"phia":14711,"war":14712,"ĠTáº¾":14713,"Ġ2500":14714,"Ġgarden":14715,"lip":14716,"Biáº¿n":14717,"Ġgar":14718,"Ġdie":14719,"ĠhuÃ¢n":14720,"doch":14721,"biáº¿t":14722,"ÄĲáº£m":14723,"ĠXiá»ĥn":14724,"ĠKane":14725,"Ġtong":14726,"NAM":14727,"ĠGPU":14728,"ĠVáº¤N":14729,"logan":14730,"TrÆ°a":14731,"trá»ĭ":14732,"Ly":14733,"Ġrá»ı":14734,"ĠKiÃª":14735,"ough":14736,"ÄĲÆ°a":14737,"Ġnitr":14738,"ĠKhay":14739,"Ġdz":14740,"Ġ0868":14741,"á»ŀNG":14742,"ĠBooking":14743,"ĠlÃ²i":14744,"Ġcenter":14745,"ĠGIÃģO":14746,"ĠApartment":14747,"cord":14748,"ĠPlayer":14749,"Khá»ĳi":14750,"ĠNoo":14751,"ÄĲá»Ļc":14752,"ÄĲÃ¡m":14753,"ĠÄĲá»ĩm":14754,"ĠæĶ":14755,"ĠÄĲHQGHN":14756,"Âª":14757,"Ġpháº§m":14758,"ĠgÃłu":14759,"Ġ950":14760,"ĠSkype":14761,"ĠDOANH":14762,"GO":14763,"ĠmÃ£ng":14764,"Ġdia":14765,"ĠTun":14766,"Máº¡ng":14767,"Ġåĳ":14768,"ĠBong":14769,"Ġthuc":14770,"Ġ512":14771,"ĠKal":14772,"idi":14773,"ĠLONG":14774,"nghiá»ĩp":14775,"Ġthá»Ľ":14776,"ĠCBCNV":14777,"Ġrom":14778,"ī²":14779,"ĠAlo":14780,"ĠVivo":14781,"åĮ":14782,"áº®T":14783,"sÃ¢n":14784,"ĠFrance":14785,"ymer":14786,"ĠFederer":14787,"ctor":14788,"ĠiT":14789,"bac":14790,"ĠÄĳá»ĥu":14791,"THÃĶNG":14792,"ĶngÅ©":14793,"ICA":14794,"ĠCÃģCH":14795,"tn":14796,"ĠCHUYÃĬN":14797,"Ġcháºµn":14798,"GL":14799,"ĠhÃ³ng":14800,"ĠScan":14801,"????":14802,"Bá»ı":14803,"Ġhoáº±ng":14804,"mx":14805,"elect":14806,"Honda":14807,"look":14808,"ĠVA":14809,"á»ĩp":14810,"ĩĴ":14811,"ĠKoh":14812,"ĠlÃªnh":14813,"ĠhÃ³i":14814,"Ġnghiep":14815,"ĠèŃĺthá»©c":14816,"cert":14817,"ĠOxford":14818,"ĠFind":14819,"106":14820,"ĠÄĲI":14821,"nie":14822,"rome":14823,"ĠPur":14824,"168":14825,"Ġstar":14826,"ĠAtt":14827,"Ġ185":14828,"ĠKG":14829,"á»®NG":14830,"HU":14831,"Ġcookie":14832,"ĠnÃ²i":14833,"uman":14834,"Ġláº¥m":14835,"ĠClo":14836,"Ġhead":14837,"cháº¯c":14838,"ĠVIE":14839,"ĠPau":14840,"ĠLáºŃy":14841,"Ġak":14842,"Ġthien":14843,"walk":14844,"iation":14845,"113":14846,"ĠLibya":14847,"kav":14848,"104":14849,"ĠRest":14850,"mec":14851,"vÅ©":14852,"Ġdig":14853,"ĠxiÃªm":14854,"XT":14855,"ĠGro":14856,"æĬ":14857,"ĠCharm":14858,"ĠUSS":14859,"EFL":14860,"ĠSpir":14861,"Ġtá»Ńu":14862,"ĠcáºŃt":14863,"ARE":14864,"Ġcá»±a":14865,"Ġknow":14866,"Ġxsm":14867,"ĠJol":14868,"ĠTá»ĲT":14869,"ĠDDR":14870,"255":14871,"è¯":14872,"Ġá»ª":14873,"Ġç¾©nghÄ©a":14874,"ĠTCTD":14875,",[":14876,"láº¡i":14877,"ĠÄĥng":14878,"ĠNova":14879,"ĠBangladesh":14880,"alogen":14881,"rolimex":14882,"ĠTrÃ´ng":14883,"itsu":14884,"Ġtuyen":14885,"ĠNature":14886,"Ġsá»©t":14887,"Sun":14888,"Up":14889,"Dáº¥u":14890,"fan":14891,"style":14892,"ĠSavills":14893,"Ġháº¿n":14894,"Láº¡c":14895,"Ġ!!":14896,"ĠCali":14897,"erald":14898,"USB":14899,"ĠMt":14900,"ĠäºĶngÅ©":14901,"Giá»¯":14902,"Mi":14903,"zbek":14904,"Ġ1961":14905,"ĠCath":14906,"ĠÄĲÄ©a":14907,"ĠMuá»ĳi":14908,"ĠWang":14909,"UYá»ĨN":14910,"ĠHazard":14911,"ĠRolex":14912,"Ð°Ð·":14913,"ategory":14914,"náº±m":14915,"Ġriverside":14916,"Ġhá»«":14917,"Ġ290":14918,"thuá»ĳc":14919,"trá»įng":14920,"Ġveo":14921,"sson":14922,"ĠTesla":14923,"enix":14924,"KhÃ³":14925,"TrÃ¡nh":14926,"ried":14927,"ĠDevelop":14928,"ĠKhÃ´":14929,"ĠERP":14930,"ĠCheng":14931,"ĠEnd":14932,"ĠÄĲun":14933,"okovic":14934,"********":14935,"ĠPerfect":14936,"Ġæ¥":14937,"ĠXSMT":14938,"CÃ¢n":14939,"PTPP":14940,"ĠBrad":14941,"ĠFBI":14942,"Ġtuáº¥t":14943,"ĠSwift":14944,"ĠKHÃģCH":14945,"ĠMic":14946,"ĠNhá»±t":14947,"VH":14948,"ĠTTCK":14949,"ĠWeek":14950,"ĠValley":14951,"quÃ¢n":14952,"118":14953,"oxin":14954,"gs":14955,"Ġæ¯":14956,"Ñī":14957,"Ġphiáº¿m":14958,"ÄĲáº£o":14959,"ĠSay":14960,"fore":14961,"duy":14962,"ĠNÄĲ":14963,"tinental":14964,"ĠHello":14965,"Rem":14966,"tÃ¢n":14967,"mad":14968,"ĠBrexit":14969,"á»¶":14970,"Ġmust":14971,"Ġenzym":14972,"fix":14973,"ĠLá»ĬCH":14974,"ĠTreo":14975,"ĠHáº§m":14976,"Ġcarbohydr":14977,"phy":14978,"ãģĭ":14979,"ĠBlade":14980,"itch":14981,
[...]
